<unk>	0
<s>	0
</s>	0
ን	-4.13474
ና	-4.30275
ም	-4.47894
▁ላይ	-4.66625
▁በ	-4.77418
▁	-4.85286
▁እና	-4.87454
▁ነው	-4.99404
▁ከ	-5.04227
▁የ	-5.25271
▁ወደ	-5.38245
▁ጋር	-5.47803
▁ለ	-5.72218
▁ውስጥ	-5.7346
▁አቶ	-5.76557
ው	-5.79177
▁አበባ	-5.81302
▁ከተማ	-5.85709
▁ሲሆን	-5.9355
▁መሆኑን	-6.02935
▁አዲስ	-6.07688
▁ስራ	-6.07755
▁ቤት	-6.09072
ት	-6.0946
▁ጊዜ	-6.1461
▁አመት	-6.15827
▁መንግስት	-6.24876
▁የኢትዮጵያ	-6.2511
▁ደግሞ	-6.32684
▁ኢትዮጵያ	-6.34505
▁ሚኒስትር	-6.40509
▁በላይ	-6.43485
▁ሰዎች	-6.43613
▁ከፍተኛ	-6.46089
▁ክልል	-6.47032
▁ብለዋል	-6.47587
▁አም	-6.49816
▁ግን	-6.51629
▁ነበር	-6.51906
▁ቀን	-6.5709
▁እንደ	-6.57777
▁ጉዳይ	-6.60652
▁ገልፀዋል	-6.61167
▁እንዲሁም	-6.6401
▁ደረጃ	-6.65676
▁ሺህ	-6.66024
በት	-6.66283
▁በኋላ	-6.67533
▁ጨዋታ	-6.69267
▁ተናግረዋል	-6.69539
▁ወቅት	-6.70542
▁ብር	-6.7086
▁ጠቅላይ	-6.72289
▁ቡድን	-6.72971
▁አንድ	-6.7476
▁ሁኔታ	-6.75281
▁እስከ	-6.76833
▁መካከል	-6.7733
▁ምክንያት	-6.77597
▁መሰረት	-6.7787
▁ያለው	-6.78212
▁በኢትዮጵያ	-6.83096
▁ዋና	-6.85266
▁ዘመን	-6.86188
▁the	-6.86504
▁ሲ	-6.86825
▁ናቸው	-6.88872
▁ዶክተር	-6.89122
▁ድጋፍ	-6.90639
▁አመታት	-6.91281
▁ብቻ	-6.92932
▁ሚኒስቴር	-6.95679
▁ዛሬ	-6.97809
▁መንገድ	-6.98526
ኛ	-6.99067
▁ይህ	-7.01212
▁መረጃ	-7.02368
▁የስራ	-7.03169
▁አቀፍ	-7.03645
▁ያሉት	-7.0372
▁አገልግሎት	-7.03873
▁ከዚህ	-7.03986
▁ምክር	-7.04002
▁ችግር	-7.04521
▁ነገር	-7.04547
▁በዚህ	-7.04756
▁ሁለት	-7.0509
▁ሚሊዮን	-7.07076
▁ጉዳዮች	-7.07216
▁ብሄራዊ	-7.09193
▁የተለያዩ	-7.09501
▁ልማት	-7.10807
▁በፊት	-7.11167
ስ	-7.11304
▁አሁን	-7.11724
▁ግብ	-7.12242
▁ቤቱ	-7.12552
▁ኳስ	-7.14226
▁ድርጅት	-7.15873
▁ነጥብ	-7.16024
▁ጀምሮ	-7.17484
▁አ	-7.17926
▁ሀገራት	-7.17963
▁የውጭ	-7.18049
▁ሀይል	-7.18282
▁ቁጥር	-7.18673
▁አስተዳደር	-7.20207
▁አለም	-7.21006
▁ምክትል	-7.21254
▁ሳምንት	-7.22858
▁ፕሬዚዳንት	-7.23428
▁ወር	-7.24154
▁በኩል	-7.24261
▁ሌሎች	-7.26296
ኛው	-7.26509
▁እንደሆነ	-7.27015
▁ትምህርት	-7.27067
▁በመሆኑ	-7.27072
▁በመቶ	-7.27586
▁ህዝብ	-7.27983
▁2012	-7.28444
ል	-7.2865
▁ሚኒስትሩ	-7.29159
▁ሊግ	-7.29536
▁በርካታ	-7.30097
▁በማድረግ	-7.30477
▁መግለጫ	-7.30806
▁በአዲስ	-7.32017
▁ፖሊስ	-7.32025
▁በተለያዩ	-7.3223
▁አካላት	-7.33419
▁ለማድረግ	-7.33801
▁ቢ	-7.34138
▁ጥረት	-7.34688
▁ግንኙነት	-7.34978
▁ህግ	-7.36755
▁እንቅስቃሴ	-7.37419
▁ውይይት	-7.37626
▁ተቋማት	-7.37752
▁ድረስ	-7.37973
▁ጨምሮ	-7.38067
▁አባላት	-7.38068
▁ቡና	-7.38191
▁ግንባታ	-7.38467
▁ውጤት	-7.38899
▁ተከትሎ	-7.39077
▁እድል	-7.39259
▁ሲሉ	-7.39714
▁ለማግኘት	-7.407
▁ሀላፊ	-7.40991
▁ተብሎ	-7.41592
▁ያለውን	-7.42904
▁አህመድ	-7.43934
▁ፅህፈት	-7.44082
▁ጉዳት	-7.44549
▁ደቂቃ	-7.45437
ር	-7.4548
▁የነበረው	-7.45843
▁ሰአት	-7.45915
▁ቫይረስ	-7.46314
▁ቀደም	-7.47181
▁ስለ	-7.48245
▁ሰው	-7.48246
▁ቤቶች	-7.48395
▁መሆኑ	-7.4849
▁የአፍሪካ	-7.48514
▁በሚል	-7.48633
▁ማድረግ	-7.48853
▁1	-7.49269
ነት	-7.49508
▁ቀናት	-7.49734
▁ዙሪያ	-7.49938
▁እለት	-7.50301
▁ሀገር	-7.50589
▁ሶስት	-7.515
▁የመንግስት	-7.51715
▁ሆኖ	-7.52188
▁ዘርፍ	-7.52218
▁ምርጫ	-7.5238
▁ስራዎች	-7.52495
▁ያሉ	-7.52966
▁ጥያቄ	-7.53378
▁አስታውቋል	-7.54278
▁ኤፍቢሲ	-7.54669
▁10	-7.54936
▁ባንክ	-7.55
▁ያለ	-7.55395
▁2	-7.55647
▁ዜጎች	-7.55877
▁ተጫዋቾች	-7.56376
▁ቢሆንም	-7.56532
▁አካባቢ	-7.56597
▁ሙሉ	-7.56947
▁የአለም	-7.57294
▁ፍርድ	-7.57407
▁ዶላር	-7.57421
▁ሰላም	-7.57759
▁ስር	-7.57783
▁ቃል	-7.57882
▁2013	-7.58236
▁ብዙ	-7.58576
▁ጥሩ	-7.58583
▁የአዲስ	-7.58786
▁ስርአት	-7.58816
▁ትኩረት	-7.59124
▁ኮሚሽን	-7.59451
▁መልኩ	-7.60343
ባቸው	-7.60673
▁በተጨማሪ	-7.60891
▁እንደገለፁት	-7.61283
▁በተለይ	-7.61532
▁አፍሪካ	-7.61609
▁ስምምነት	-7.62084
▁3	-7.62202
▁እ	-7.62284
▁አሰልጣኝ	-7.62526
▁አስታወቀ	-7.62943
▁ጨዋታዎች	-7.63251
▁ውሳኔ	-7.63997
▁ባለፈው	-7.64295
▁ወራት	-7.64434
▁የሚገኙ	-7.64466
▁ጥሪ	-7.64511
▁ቢሮ	-7.64552
▁ፓርቲ	-7.64616
▁የጤና	-7.64904
▁ሆነ	-7.65352
s	-7.65414
ች	-7.65484
▁ኮሚቴ	-7.65768
▁አስታውቀዋል	-7.65892
▁አገራት	-7.66218
▁ውድድር	-7.66653
▁ሁሉ	-7.66659
▁መሆናቸውን	-7.66659
▁በበኩላቸው	-7.67283
▁ዳር	-7.67513
▁ዳይሬክተር	-7.67734
▁ጥቃት	-7.67859
▁5	-7.6844
▁ሚሊየን	-7.6863
▁ልዩ	-7.68849
▁የፖለቲካ	-7.68981
▁አካባቢዎች	-7.69208
▁የህዝብ	-7.69659
▁አገር	-7.69892
▁ለውጥ	-7.70089
▁ይገኛል	-7.70155
▁ይታወሳል	-7.71776
▁ጉባኤ	-7.72201
▁ይህን	-7.72258
▁ዞን	-7.72762
▁ቦታ	-7.73551
▁ይሆናል	-7.73898
▁to	-7.75302
▁ሊ	-7.75362
▁ዝግጅት	-7.75859
▁ሲል	-7.76355
▁ሀሳብ	-7.76376
▁እርምጃ	-7.76428
▁ተብሏል	-7.76666
▁ጠቁመዋል	-7.76746
▁ተገልጿል	-7.77098
▁ወይም	-7.77251
▁እንዲ	-7.77712
▁አይነት	-7.78159
▁4	-7.78235
▁አቅም	-7.784
▁ሱዳን	-7.786
▁አንዱ	-7.78951
▁in	-7.7948
▁እስካሁን	-7.79595
▁ቢሊዮን	-7.79626
▁አደጋ	-7.7988
▁መሪ	-7.80076
▁ሁሉም	-7.80201
▁አጋማሽ	-7.80564
▁መከላከያ	-7.80575
▁በጋራ	-7.80843
▁ክፍል	-7.82211
ed	-7.82522
▁እንጂ	-7.82776
▁በአንድ	-7.83162
▁እቅድ	-7.83617
▁ሂደት	-7.83991
▁የሚል	-7.84303
▁ሳይሆን	-7.84849
▁ግድብ	-7.8505
▁ተጨማሪ	-7.85081
▁ውጪ	-7.85212
▁የክልሉ	-7.8531
▁ንግድ	-7.8536
▁ተግባር	-7.85648
▁ያላቸው	-7.8572
▁ዋንጫ	-7.85844
▁መንግስታት	-7.859
▁ቡድኑ	-7.85925
▁በአሁኑ	-7.86023
▁ባለፉት	-7.86128
▁በአለም	-7.86834
▁a	-7.86837
▁ህይወት	-7.86938
▁በመሆን	-7.87097
▁ምላሽ	-7.87214
▁ታውቋል	-7.87337
▁እንደነበር	-7.87601
ዎች	-7.8769
▁ሆነው	-7.8776
▁ያህል	-7.8809
▁20	-7.88199
▁ምን	-7.88644
▁መረጃዎችን	-7.88781
▁የልማት	-7.88963
ብ	-7.89014
▁አካል	-7.89178
▁ምንም	-7.89314
▁መሆኑንም	-7.89361
▁አስረድተዋል	-7.89387
▁ሀብት	-7.89391
▁ምርመራ	-7.89558
▁ጊዮርጊስ	-7.89775
▁የኮሮና	-7.89937
▁ይፋ	-7.90211
1	-7.90218
▁የፋና	-7.90463
▁በጀት	-7.90519
▁ትልቅ	-7.91013
▁በቀጣይ	-7.91263
ውን	-7.9137
▁ችግሮች	-7.9234
ቱ	-7.92355
▁አይደለም	-7.9239
▁ተ	-7.92525
▁መሆን	-7.92563
▁መብት	-7.92822
▁ይገባል	-7.92922
▁ሜትር	-7.92942
በ	-7.93038
▁ማእከል	-7.93702
▁የነበሩ	-7.94056
▁በተለይም	-7.94237
▁ገቢ	-7.9427
▁የገለፁት	-7.94396
▁ውሀ	-7.94641
▁አራት	-7.9484
▁ወጣቶች	-7.94968
▁በማለት	-7.95381
▁የህግ	-7.95399
▁የንግድ	-7.955
▁አብይ	-7.95672
▁ትናንት	-7.95776
▁ይጠበቃል	-7.96395
▁በቅርቡ	-7.9643
▁ድምፅ	-7.96518
▁ኤፍ	-7.96705
▁ዙር	-7.96844
▁ዩኒቨርሲቲ	-7.97138
▁ይህንን	-7.9767
▁ብሎ	-7.97788
▁ዶር	-7.97817
▁6	-7.97899
▁በተጨማሪም	-7.97997
▁መልእክት	-7.98384
▁በአል	-7.98862
▁አምስት	-7.98873
▁ክለቦች	-7.99192
▁ገንዘብ	-7.9948
▁ውጭ	-7.9956
▁የሰላም	-7.99616
▁አመራሮች	-7.99856
▁መስራት	-8.00318
▁ብለው	-8.00508
▁ግብር	-8.0106
▁በሙሉ	-8.0123
▁የፀጥታ	-8.01671
ዋ	-8.01707
የ	-8.02012
▁በዚህም	-8.02095
▁ወይዘሮ	-8.02125
▁የተሻለ	-8.02564
▁ሴቶች	-8.02883
▁ጤና	-8.0316
▁ሚና	-8.03205
▁የሆነ	-8.03276
▁የሚያስችል	-8.0341
▁የውድድር	-8.03419
▁ለመከላከል	-8.03427
▁ክለብ	-8.03688
▁ህብረት	-8.04029
▁በፍጥነት	-8.04061
▁መሀመድ	-8.04365
▁ባለ	-8.04584
▁ተወካዮች	-8.04822
▁ሺ	-8.04896
▁እንደሚገባ	-8.05037
▁ባለው	-8.05825
▁11	-8.05919
▁የጋራ	-8.06091
▁መርሀ	-8.06693
▁ጎል	-8.06916
▁ስጋት	-8.06962
▁የአሜሪካ	-8.07317
▁መልካም	-8.07378
▁ስቴትስ	-8.07729
▁ፍላጎት	-8.07812
▁ህዝቦች	-8.07905
▁ተግባራዊ	-8.08328
▁የትምህርት	-8.08411
▁ገልጿል	-8.08448
ቸው	-8.08535
▁ጨዋታው	-8.08676
▁ብሏል	-8.09112
▁ተማሪዎች	-8.09272
▁ክፍለ	-8.09339
▁ገፃችን	-8.0941
ያ	-8.09625
▁የሚገኘው	-8.09958
▁ሰራተኞች	-8.0996
▁ኢትዮጵያውያን	-8.10003
▁ደቡብ	-8.10287
▁ሜዳ	-8.10381
▁የሆነው	-8.1046
▁ወረዳ	-8.10504
▁የውሀ	-8.10739
▁8	-8.10803
▁የሚ	-8.1092
▁መስመር	-8.10949
▁በተመለከተ	-8.11024
▁ሀይሎች	-8.11167
▁አስተዋፅኦ	-8.11336
▁በዛሬው	-8.11423
▁ባህር	-8.11446
▁በተያያዘ	-8.11469
▁በክልሉ	-8.11475
▁ይህም	-8.12008
▁7	-8.12014
▁አመልክተዋል	-8.12096
▁ባለሙያዎች	-8.12177
▁ገለፃ	-8.12414
▁ዋጋ	-8.12501
▁30	-8.12555
▁ስፖርት	-8.12618
▁መሬት	-8.12675
▁ቆይታ	-8.12995
▁15	-8.13321
▁አየር	-8.13345
▁19	-8.13411
▁12	-8.13707
▁አምባሳደር	-8.13757
▁በሰጡት	-8.141
ላቸው	-8.14294
▁ድርጅቶች	-8.14314
▁እድገት	-8.14391
▁ከኢትዮጵያ	-8.15086
▁በቁጥጥር	-8.15394
▁ርእሰ	-8.15411
▁አባል	-8.15529
▁ቡድኖች	-8.15585
▁ጠንካራ	-8.15788
▁ባ	-8.15836
▁ክስ	-8.1644
▁አል	-8.16763
▁ፕሮጀክት	-8.16906
▁ነዋሪዎች	-8.17147
▁መጠን	-8.17153
▁አሁንም	-8.17242
▁በሀገሪቱ	-8.17471
▁ወጪ	-8.17534
▁ወንጀል	-8.18086
▁እየተሰራ	-8.18125
▁ሰራዊት	-8.18241
▁ጥቅምት	-8.18417
▁አስፈፃሚ	-8.18433
▁ስብሰባ	-8.18506
ሺ	-8.18539
▁ታሪክ	-8.18824
▁አለ	-8.20018
▁በአጠቃላይ	-8.20718
▁በጣም	-8.21067
▁የሀገሪቱ	-8.21078
▁ቅዱስ	-8.21302
▁ምርት	-8.21312
▁ባለስልጣን	-8.21447
▁አቃቤ	-8.21596
▁ፕሪምየር	-8.21689
▁ተጠቃሚ	-8.21791
▁ያገኘነው	-8.22009
▁ነፃ	-8.22208
▁ታህሳስ	-8.22249
▁መስከረም	-8.22369
▁ዘግቧል	-8.22481
▁ከተሞች	-8.22773
▁የአማራ	-8.22913
▁የሆኑ	-8.22983
▁መድረክ	-8.23335
▁የመጀመሪያ	-8.23442
▁አዋጅ	-8.23587
▁ወረርሽኝ	-8.2377
▁ጥናት	-8.23825
▁መስሪያ	-8.2456
▁ጥር	-8.24737
▁ጥቅም	-8.24882
▁ክልሎች	-8.25022
▁of	-8.25118
▁ፓርቲዎች	-8.25795
▁በአፍሪካ	-8.25844
▁ወቅታዊ	-8.2638
▁የፌዴራል	-8.26426
ዉ	-8.26433
▁ሀላፊነት	-8.26828
▁አቢይ	-8.27037
▁ተጫዋች	-8.27143
▁21	-8.27462
▁በሆነ	-8.27561
▁ስነ	-8.27625
▁ሀላፊዎች	-8.277
▁ተስፋዬ	-8.27838
▁እየሰራ	-8.28132
▁ተስፋ	-8.28333
▁ሰኔ	-8.28529
▁እንዲሆን	-8.28591
▁አድርጓል	-8.28914
▁ሀዋሳ	-8.28932
▁ግንቦት	-8.28957
▁ፕሬዝዳንት	-8.29005
▁አንፃር	-8.29422
▁ግጭት	-8.2957
▁አላማ	-8.29662
ህ	-8.29716
▁በከፍተኛ	-8.29791
▁በታች	-8.30012
▁የደቡብ	-8.30198
▁ህገ	-8.30452
▁አድርጎ	-8.30508
ድ	-8.30602
▁ተፅእኖ	-8.30618
▁አመቱ	-8.30686
▁ከሆነ	-8.30744
▁የገንዘብ	-8.30813
▁እጅግ	-8.30874
▁24	-8.30913
▁9	-8.3101
▁ብዙሀን	-8.31036
▁ቻናል	-8.31462
▁and	-8.31654
▁ውል	-8.32125
▁ስልጠና	-8.3215
ለ	-8.3247
▁የህክምና	-8.33283
▁ባደረጉት	-8.33434
▁የነበረ	-8.33904
ከ	-8.33939
▁እግር	-8.34044
▁ሌላ	-8.34158
▁ይገኛሉ	-8.34262
▁በአገሪቱ	-8.34309
ing	-8.34544
▁በሀላ	-8.34646
▁ክለቡ	-8.34741
▁ገልፀው	-8.34946
▁አገሮች	-8.34979
▁መሪዎች	-8.35025
▁ሆኗል	-8.35074
▁ከፍ	-8.35419
▁ይ	-8.35542
▁ባለስልጣናት	-8.35694
▁የኢኮኖሚ	-8.35709
▁ተሳትፎ	-8.35835
▁መልክ	-8.36092
▁ንብረት	-8.36162
▁ማለት	-8.36214
▁የካቲት	-8.3633
▁መ	-8.36376
▁ያ	-8.36401
▁13	-8.36523
▁ሙከራ	-8.36728
▁አቅርበዋል	-8.36892
▁ትኩስ	-8.3695
▁ትብብር	-8.37475
▁በደቡብ	-8.37644
▁ለኢትዮጵያ	-8.37711
▁እንደተናገሩት	-8.37716
▁ክፍሎች	-8.37763
▁ዘንድ	-8.37765
▁አሜሪካ	-8.3805
▁ሪፖርት	-8.38087
▁ስድስት	-8.38113
▁ዘገባ	-8.38556
▁አዳማ	-8.3858
ኝ	-8.38602
▁ቅጣት	-8.38643
▁ያላቸውን	-8.38693
▁የነበሩት	-8.38713
▁ለመፍታት	-8.39232
▁ጥበቃ	-8.39301
▁14	-8.39414
▁ሰፊ	-8.39479
▁ግለሰቦች	-8.39914
▁የተባለው	-8.40009
▁የተናገሩት	-8.40402
▁ህክምና	-8.40778
▁ንግግር	-8.40946
▁መጋቢት	-8.40995
▁በቀለ	-8.41121
▁ሁለቱ	-8.41222
▁ለመስጠት	-8.41338
ዎቹ	-8.41437
▁የለም	-8.4148
ለት	-8.41572
▁ይችላል	-8.41785
▁ችሏል	-8.41936
ክ	-8.42053
20	-8.42155
▁አሰራር	-8.42582
▁አመራር	-8.42624
2	-8.42788
▁ኪሎ	-8.43093
▁አሸናፊ	-8.43356
▁መፍትሄ	-8.43375
▁የድምፅ	-8.43391
19	-8.43437
ዎ	-8.43715
▁አዳዲስ	-8.43932
▁ሳይ	-8.43957
▁ኢንዱስትሪ	-8.44062
▁የትግራይ	-8.44434
▁የግብ	-8.44529
▁ተቋም	-8.44549
▁ሁለተኛ	-8.44699
▁እንኳን	-8.44717
▁ድል	-8.4477
▁አባ	-8.44826
▁የሀገር	-8.44865
▁ይታወቃል	-8.45104
▁የሰብአዊ	-8.45255
▁ፕሮግራም	-8.45298
▁አለበት	-8.45333
▁እየተደረገ	-8.45439
▁አድርገዋል	-8.4548
▁ቦታዎች	-8.45593
▁ደህንነት	-8.45645
▁የነበረውን	-8.45893
▁ግርማ	-8.45912
▁አስመልክቶ	-8.4614
▁ሊጉ	-8.46169
▁ገበያ	-8.46189
▁ህዳር	-8.46242
▁አጠቃላይ	-8.464
▁የሰው	-8.46466
▁ከባድ	-8.46525
ሉ	-8.46552
▁ስፍራ	-8.46609
▁የሆኑት	-8.46763
▁አብመድ	-8.47496
▁ረገድ	-8.47531
▁የኢፌዴሪ	-8.47543
e	-8.47623
▁እንዳሉት	-8.47681
▁ይዞ	-8.47728
▁ጫና	-8.47739
▁ያመለክታል	-8.4805
▁እየተካሄደ	-8.48233
10	-8.48362
▁ኤሌክትሪክ	-8.48623
▁ለመስራት	-8.48733
ከዚህ	-8.48733
▁እጥረት	-8.48766
▁ታደሰ	-8.4879
▁ጎን	-8.48826
▁ቦርድ	-8.48882
3	-8.49144
▁የሚሆኑ	-8.49167
▁16	-8.4936
▁የአየር	-8.49485
▁ሀምሌ	-8.49561
▁በተመሳሳይ	-8.5006
▁መቶ	-8.50387
▁25	-8.50544
▁ከንቲባ	-8.506
▁የተባበሩት	-8.50747
▁እንዳለ	-8.5087
▁እያደረገ	-8.5103
▁እንደሚችል	-8.51226
▁httpst	-8.51242
▁ቴክኖሎጂ	-8.51281
▁መኮንን	-8.51381
▁ፈቃድ	-8.51406
▁አዲሱ	-8.51428
▁ተጫዋቾችን	-8.5159
▁ስልጣን	-8.51632
▁በአጭር	-8.51805
▁ባሻገር	-8.51829
▁የጦር	-8.52065
▁መስጠት	-8.52067
▁ኮርፖሬት	-8.52136
▁ቫይረሱ	-8.52252
▁ስራዎችን	-8.52392
▁ወጣት	-8.52458
▁ወዲህ	-8.52509
▁2011	-8.52629
▁ህዳሴ	-8.52741
▁ኢኮኖሚ	-8.52761
▁ለአዲስ	-8.52967
▁በአግባቡ	-8.5319
▁ጉዞ	-8.53223
▁ምት	-8.5341
▁18	-8.53445
▁አጋጣሚ	-8.53522
▁ወሳኝ	-8.53848
▁ድርሻ	-8.54065
▁ሲሆኑ	-8.54264
ሽ	-8.54297
▁የምግብ	-8.54313
▁በመሆኑም	-8.54401
▁ገፅ	-8.55015
▁የአገሪቱ	-8.55144
▁ማህበረሰብ	-8.55182
▁ግብፅ	-8.5521
▁አስተያየት	-8.55342
▁እንዳለበት	-8.55409
▁አማካኝነት	-8.55579
▁አንድነት	-8.55795
▁አፈፃፀም	-8.55803
▁ከአዲስ	-8.56073
▁አይ	-8.56131
▁እንደሚገኝ	-8.56242
▁ኩባንያ	-8.56427
አዲስ	-8.56455
▁22	-8.5649
▁ያድርጉ	-8.56674
▁በቂ	-8.56711
▁የምርጫ	-8.56919
▁ወጥ	-8.57021
▁ዳይሬክተሩ	-8.57179
▁ፌዴሬሽን	-8.57179
▁ነሀሴ	-8.57419
▁አቋም	-8.5744
▁ድቻ	-8.57601
▁መንገዶች	-8.57728
▁ዘርፎች	-8.57865
▁ነገ	-8.58125
▁ውጤታማ	-8.58359
▁ሰብስክራይ	-8.5842
▁ድሬዳዋ	-8.58691
▁ጉብኝት	-8.58748
▁በመንግስት	-8.58766
▁የመከላከያ	-8.58813
▁አስፈላጊ	-8.58918
▁በመጠቀም	-8.59114
▁መሆናቸው	-8.59173
▁መደበኛ	-8.59271
▁ያደረጉት	-8.59289
▁ቁጥጥር	-8.59416
▁ባለፈ	-8.5943
▁ይሁን	-8.59431
▁ባለሀብቶች	-8.59485
▁በቫይረሱ	-8.59809
▁መስተዳድር	-8.59912
▁የቀድሞ	-8.59924
▁አንዳንድ	-8.59953
▁ብሮድካስቲንግ	-8.60362
▁Ketema	-8.60365
▁ተችሏል	-8.6063
▁ማህበራዊ	-8.60646
ትዊተር	-8.60688
▁አሳስበዋል	-8.60832
▁ስርጭት	-8.61174
▁ጅማ	-8.61226
▁አርሶ	-8.613
▁ተገለፀ	-8.61337
ጠቅላይ	-8.61697
▁ሰባት	-8.61732
▁የግል	-8.61819
▁የሚታወስ	-8.61846
▁ቋሚ	-8.62369
▁ማብራሪያ	-8.62514
▁መሳሪያ	-8.62561
▁ከአንድ	-8.626
▁ለመፍጠር	-8.62671
▁ስታዲየም	-8.62714
▁በኦሮሚያ	-8.62836
▁ትራምፕ	-8.6301
▁ኩባንያዎች	-8.63075
አቶ	-8.63228
▁ምንጭ	-8.63326
▁አቅጣጫ	-8.63349
▁ዜና	-8.63448
▁መንግስቱ	-8.63473
▁ጭምር	-8.63687
▁ቴሌቪዥን	-8.6371
▁አስተዳደሩ	-8.63857
5	-8.63979
▁ለህዝብ	-8.64047
▁በተደጋጋሚ	-8.64217
▁17	-8.64664
▁ፕሮጀክቶች	-8.64674
▁ኤጀንሲ	-8.65486
▁እንዳለው	-8.65562
▁በሌሎች	-8.65773
▁ከበደ	-8.65975
▁ኮሚሽነር	-8.65978
▁ተመሳሳይ	-8.66222
▁አቅርቦት	-8.66506
▁ፋይል	-8.6661
▁የኦሮሚያ	-8.66676
▁እርዳታ	-8.67251
▁ሆኖም	-8.67384
d	-8.67412
▁አሉ	-8.67753
▁መረጃዎች	-8.67873
▁እየ	-8.67955
▁የከተማ	-8.68035
▁ቢሆን	-8.6812
▁ይበልጥ	-8.68273
▁ኢትዮጵያን	-8.68383
▁መጨረሻ	-8.68475
▁ገለፁ	-8.6869
▁ለማወቅ	-8.68801
▁በወቅቱ	-8.68925
▁ልምድ	-8.69055
▁ሀ	-8.69079
▁ተግባራት	-8.69097
▁ብርሀኑ	-8.69185
▁ሲዳማ	-8.69259
▁ከተለያዩ	-8.69272
▁ሀይሉ	-8.69288
▁አቻ	-8.693
▁ሰላማዊ	-8.69327
▁አብራርተዋል	-8.69353
▁ህብረተሰቡ	-8.6945
▁አበበ	-8.69458
▁እነዚህ	-8.69967
▁ቢሊየን	-8.6997
▁2010	-8.70178
▁በሀገር	-8.70224
▁ማህበር	-8.70242
▁ያዳምጡ	-8.70368
▁ዝርዝር	-8.70388
▁ሰጥተዋል	-8.70456
▁ህዝቡ	-8.70502
▁ጋዜጣ	-8.70578
▁ካ	-8.70639
▁ሽልማት	-8.70656
▁እግርኳስ	-8.70696
▁ማግኘት	-8.7078
▁መገናኛ	-8.70904
▁በዚሁ	-8.70931
▁ስም	-8.71136
▁ጠቅሰው	-8.71149
▁ከውጭ	-8.71362
▁ለማሳደግ	-8.71408
▁በትግራይ	-8.71438
▁ጨዋታውን	-8.71532
▁ጥያቄዎች	-8.71533
▁ትእዛዝ	-8.71607
▁እኤአ	-8.71773
▁መልስ	-8.71883
▁መደረጉን	-8.71952
▁በመስጠት	-8.72005
▁ነበሩ	-8.72055
▁ድረ	-8.72085
▁እንዲህ	-8.72167
ፍ	-8.72269
▁ያደረገ	-8.72421
▁በአማራ	-8.72429
▁ሆስፒታል	-8.72454
▁ተያይዞ	-8.72671
▁የግብርና	-8.72701
▁ድርድር	-8.728
▁ዴሞክራሲያዊ	-8.72827
▁በሁለት	-8.73058
▁ክፍያ	-8.73106
▁ዘመቻ	-8.73278
▁ሀገሮች	-8.73376
▁ሄክታር	-8.73633
▁ባወጣው	-8.73638
ቶ	-8.73797
▁23	-8.74066
▁ሰላምና	-8.74199
▁በተካሄደው	-8.74212
2012	-8.74236
▁ተደርጓል	-8.7443
▁ህጋዊ	-8.74443
▁ደሳለኝ	-8.74512
▁ስራው	-8.74573
▁ህፃናት	-8.74679
▁ተሳታፊ	-8.74799
▁ለዚህ	-8.74825
▁ሊቀመንበር	-8.74826
▁ያደረገው	-8.74989
▁አንስተዋል	-8.75086
▁ረቂቅ	-8.75113
▁የብሄራዊ	-8.75235
▁እንደሆነም	-8.75433
▁በአካባቢው	-8.75455
▁ይልቅ	-8.75609
▁ሊሆን	-8.75613
▁ዘገባው	-8.75828
▁የስፖርት	-8.75843
▁ሲሉም	-8.7591
▁ክትትል	-8.75978
▁በስልክ	-8.76476
▁ችግሮችን	-8.76503
▁ሀላፊው	-8.76523
▁ቅድመ	-8.76573
▁በሁሉም	-8.76704
▁አቀፉ	-8.76818
▁አስኪያጅ	-8.7695
ችን	-8.77047
▁ፋሲል	-8.77104
▁ኮሚቴው	-8.77277
▁አቀባይ	-8.77337
▁በኮሮና	-8.77362
▁ባለቤት	-8.77494
▁ኢዜአ	-8.77533
▁የፌደራል	-8.77658
▁ሀገሪቱ	-8.7767
▁የሁለቱ	-8.77963
▁ከነማ	-8.78051
▁ቻይና	-8.78106
▁ለማጠናከር	-8.78114
▁ቅዳሜ	-8.78512
▁እኛ	-8.78608
▁የኤሌክትሪክ	-8.78636
ዝ	-8.78687
▁ምድብ	-8.78693
▁የሚለው	-8.78719
▁አልፎ	-8.78757
▁ዮሀንስ	-8.78964
▁ምግብ	-8.79
▁እምነት	-8.79015
▁ስታድየም	-8.79031
▁በሚገኘው	-8.7941
▁አድርገው	-8.79457
▁አጥቂ	-8.79474
ይ	-8.79535
▁እንዳ	-8.7965
▁እንዴት	-8.79724
▁ከሁለት	-8.79825
▁ኢንጂነር	-8.79889
▁ማ	-8.79965
▁ጌታቸው	-8.80002
▁እሁድ	-8.80164
▁ተጠናቋል	-8.80168
▁ሆቴል	-8.80199
4	-8.80661
▁ምቹ	-8.80931
ታ	-8.80975
▁ፈጣን	-8.80997
▁እንደሚ	-8.81049
▁ኢንቨስትመንት	-8.81122
▁ኢኮኖሚያዊ	-8.81155
▁27	-8.81293
ሺህ	-8.81299
▁ሰለሞን	-8.81329
ማ	-8.81656
▁ጊዜያት	-8.81814
▁በነበረው	-8.81843
▁ወላይታ	-8.82069
▁በይፋ	-8.82099
▁የመጀመሪያው	-8.82233
▁on	-8.82241
▁ወታደራዊ	-8.82402
▁be	-8.82454
▁የሴቶች	-8.82708
▁ጠቁመው	-8.82824
▁ጠይቀዋል	-8.82839
▁በተደረገው	-8.83028
▁መከላከል	-8.83081
▁አመልክቷል	-8.83425
ሁ	-8.83526
▁26	-8.83685
▁ጦር	-8.83685
▁የአንድ	-8.83873
▁በሌላ	-8.84104
▁ውድድሮች	-8.84253
▁ሀገራዊ	-8.84399
በተጨማሪም	-8.84401
15	-8.84467
▁ከሌሎች	-8.84478
▁ጦርነት	-8.84743
▁በህግ	-8.84931
▁ደስታ	-8.84969
▁እኔ	-8.8497
▁ርቀት	-8.8497
▁እውቅና	-8.85044
▁ዘንድሮ	-8.85147
▁የመጀመርያ	-8.85189
▁ዝግጁ	-8.85214
▁ያመላክታል	-8.85311
▁ፕሮፌሰር	-8.8552
▁ለአንድ	-8.85834
ሩ	-8.85968
▁ተጠናክሮ	-8.86034
▁ወገኖች	-8.86143
▁ስላሉ	-8.8625
▁ጠቅሰዋል	-8.86308
▁የዩናይትድ	-8.86318
▁ከእኛ	-8.86325
▁በመግለፅ	-8.86504
▁ፍፁም	-8.86736
m	-8.8681
▁ልጅ	-8.86844
▁ምስራቅ	-8.86919
▁በውጭ	-8.86958
▁The	-8.87297
▁ሴት	-8.87437
▁ጥንቃቄ	-8.87515
▁70	-8.87788
▁ሊያ	-8.87831
17	-8.87937
▁አማራጭ	-8.88066
▁ምንጮች	-8.88261
▁ድንበር	-8.88296
▁እየተ	-8.88527
▁ተነግሯል	-8.88595
የኢትዮጵያ	-8.88686
▁የአገር	-8.88693
▁ሰዎችን	-8.88713
▁ግቦች	-8.88763
▁ልዩነት	-8.89064
▁ጠባቂ	-8.89279
▁ቀዳሚ	-8.89303
▁መሰል	-8.89369
▁ድርጊት	-8.89372
▁በሁለቱ	-8.89441
▁for	-8.89667
▁28	-8.8968
▁በሰላም	-8.89779
2011	-8.8987
▁አለው	-8.89877
▁ለማረጋገጥ	-8.8991
▁ባደረገው	-8.89973
▁50	-8.90065
▁ለማ	-8.9016
▁የበለጠ	-8.90175
▁እንደሚሆን	-8.90232
▁ዋስትና	-8.90254
▁ወረዳዎች	-8.90275
▁የፅሁፍ	-8.90353
▁ስምንት	-8.9038
ታል	-8.90399
▁ደብዳቤ	-8.90427
▁በስፋት	-8.90471
▁ደቂቃዎች	-8.9067
▁ሰነድ	-8.90802
▁አገሪቱ	-8.90947
▁በአገር	-8.90973
በዚህም	-8.91121
▁አስፈላጊውን	-8.91126
▁የመጨረሻ	-8.91154
▁መቐለ	-8.91255
▁ዶናልድ	-8.91311
▁አሰፋ	-8.91351
▁ባህል	-8.91437
▁ለመመለስ	-8.91471
▁እንዳይ	-8.91661
▁ነፃነት	-8.91891
ናል	-8.91901
ኑ	-8.91943
▁ዳግም	-8.91964
▁በአሜሪካ	-8.91997
▁ዘመናዊ	-8.92348
▁በቀጥታ	-8.92363
▁ችሎት	-8.92472
▁በድጋሚ	-8.92553
▁ግዛት	-8.92731
▁እንደሚገኙ	-8.92831
▁የሚችል	-8.9291
▁በሚገኙ	-8.93032
▁https	-8.93038
▁መፍጠር	-8.93162
▁ቡድኑን	-8.93364
▁ተደርጎ	-8.93582
▁ሰጥቷል	-8.93607
▁ለዚህም	-8.93672
▁ጣቢያ	-8.93682
▁ብቃት	-8.93894
▁ስርአቱ	-8.94003
▁Ethiopia	-8.94023
▁ልምምድ	-8.94062
▁ትክክለኛውን	-8.94172
▁እንዳለባቸው	-8.94269
▁መጠቀም	-8.94516
▁ሳ	-8.94643
ዬ	-8.94843
▁ቀጠሮ	-8.949
▁የሚገኙት	-8.9503
▁ቱሪዝም	-8.95092
▁ዘላቂ	-8.95124
▁የሱዳን	-8.95202
▁አለባቸው	-8.95204
▁ድርጅቱ	-8.95229
▁ስራውን	-8.95261
▁ብሄር	-8.95315
▁በስራ	-8.95475
▁ምርቶች	-8.95491
▁ሰኞ	-8.95511
6	-8.95627
▁ማስከበር	-8.95676
▁ደጋፊዎች	-8.95741
▁የዩ	-8.95829
mefanatelevision	-8.96258
▁ጥቂት	-8.96418
▁ብልፅግና	-8.96452
▁የአውሮፓ	-8.96456
▁ፊት	-8.96578
▁ቤተ	-8.96603
▁በሁለተኛው	-8.96626
▁አስር	-8.96776
▁ስሜት	-8.96829
▁አትሌቶች	-8.96926
▁ደመቀ	-8.96964
▁የሀይማኖት	-8.97035
▁ደደቢት	-8.97109
▁አስታወቁ	-8.97189
ሮ	-8.97255
▁ማሻሻያ	-8.97374
ቲዩብ	-8.97436
▁ስደተኞች	-8.97523
▁የኢንቨስትመንት	-8.97579
▁የቀድሞው	-8.97708
▁ቆይቷል	-8.97904
▁ሚያዝያ	-8.98056
▁ሀይለማርያም	-8.98059
▁አትሌት	-8.98061
▁ተመልክቷል	-8.98104
▁ተቃውሞ	-8.98144
▁ቀጣይ	-8.98175
▁ሰብሳቢ	-8.98285
▁40	-8.98449
▁መጫወት	-8.98513
▁የጠቆሙት	-8.98518
▁በጎ	-8.98575
▁በየአመቱ	-8.98914
▁ፈተና	-8.98946
▁እናመሰግናለን	-8.9899
ሰበር	-8.99035
▁የተጀመረው	-8.99072
▁አደሮች	-8.99211
▁የሚሉት	-8.99504
▁ችግሩን	-8.99595
▁ምእራፍ	-8.99603
▁የህብረተሰብ	-8.99721
▁ምስሎችን	-8.99782
▁የህዳሴ	-8.99868
▁ሰብአዊ	-8.99886
▁ያስፈልጋል	-8.99902
▁ይደረጋል	-8.99919
▁መንግስታዊ	-9.00135
▁ኬንያ	-9.00137
ሶከር	-9.00184
▁ነገሮች	-9.00303
▁O	-9.00391
▁ሌላው	-9.00415
ቸውን	-9.00467
▁አውሮፕላን	-9.00487
▁ረዳት	-9.00576
▁ተገቢ	-9.006
▁ካሳ	-9.00621
▁እንዲሆኑ	-9.01054
▁ገና	-9.01158
▁አንስቶ	-9.01299
▁ተጠቁሟል	-9.01369
▁ይዘው	-9.01391
▁ኮሚሽኑ	-9.01541
▁ለመቆጣጠር	-9.01549
▁የህወሀት	-9.016
▁ትራንስፖርት	-9.0161
▁ቴሌግራም	-9.01615
▁ላለፉት	-9.01617
▁ልክ	-9.0184
▁ቀውስ	-9.02161
▁ወጥቶ	-9.02365
▁with	-9.02412
▁ሳቢያ	-9.0242
▁ይወዳጁን	-9.02536
▁ይቀላቀሉ	-9.02537
▁2008	-9.02579
▁ማህበራት	-9.02706
▁ሰሞኑን	-9.02779
ባት	-9.02798
▁ኮርፖሬሽን	-9.02802
▁ለመገንባት	-9.02914
▁29	-9.02951
▁ትላንት	-9.03131
▁ይላሉ	-9.03138
▁ላ	-9.03178
12	-9.03193
▁ኮሪያ	-9.03207
▁ራሱን	-9.03217
▁መሰረተ	-9.03339
▁ህገወጥ	-9.03453
ግ	-9.03513
▁Bunna	-9.0356
30	-9.03643
▁ካርድ	-9.03825
▁መነሻ	-9.03881
▁ግንዛቤ	-9.03893
▁የሚኖሩ	-9.03957
▁as	-9.03983
▁ማክሰኞ	-9.04003
▁ክልላዊ	-9.04051
▁ደርሷል	-9.04075
▁ይጎብኙ	-9.0409
▁የኦሮሞ	-9.04109
▁ዳንኤል	-9.04156
▁ቀድሞ	-9.04328
▁የትራንስፖርት	-9.04345
▁የቤት	-9.04381
▁የመንገድ	-9.04403
▁ጉዳዩን	-9.04445
▁ተከታታይ	-9.04472
▁ወሮ	-9.04487
ዊ	-9.04736
▁ስለዚህ	-9.04743
▁ሳምንታት	-9.04868
ዋል	-9.04891
▁መሆኑም	-9.05072
▁የመሬት	-9.05225
▁ለሁለት	-9.05238
▁የተሟሉ	-9.05449
▁ዩናይትድ	-9.05458
▁ትስስር	-9.05459
▁አነስተኛ	-9.05517
▁የሚሆኑት	-9.05548
ራ	-9.05598
▁2009	-9.05701
ኢትዮጵያ	-9.05958
▁ትውልድ	-9.06069
ላ	-9.06167
▁ብድር	-9.06222
▁የሀይል	-9.0626
ሪ	-9.0636
▁በመተባበር	-9.06492
▁ተከላካይ	-9.06604
▁ለሪፖርተር	-9.06813
▁ማድረጉን	-9.06914
▁ኢትዮ	-9.06982
▁መመሪያ	-9.07
▁የቻይና	-9.07104
▁መድረሱን	-9.07179
▁ልጆች	-9.0731
▁የጠቅላይ	-9.0732
K	-9.07363
ተባበሩት	-9.0741
▁አሰልጣኞች	-9.07698
▁ቢቢሲ	-9.07707
▁በመሆናቸው	-9.07782
▁ሰአታት	-9.07999
▁ሶስተኛ	-9.08051
▁አጠናክሮ	-9.08292
▁የቡድኑ	-9.08338
▁አማካይ	-9.08528
▁ጠቅላላ	-9.09109
ነው	-9.09196
▁fro	-9.09422
▁ባለድርሻ	-9.09451
▁ሰልፍ	-9.09669
▁ቀላል	-9.09792
▁ሚኒስትሯ	-9.10067
▁ገለፀ	-9.10087
▁ለመቀነስ	-9.10174
ቡድኑ	-9.10257
▁ብዬ	-9.10312
▁አርብ	-9.10505
▁ግልፅ	-9.1053
▁ዜናዎችን	-9.10588
▁ለሙሉ	-9.1059
▁ዳዊት	-9.10701
▁ህዝባዊ	-9.10897
▁ይናገራሉ	-9.1091
2010	-9.1092
▁ሳይጠብቁ	-9.10983
▁የክልል	-9.11243
▁በከተማዋ	-9.11261
▁የሚችሉ	-9.11392
▁የተደረገው	-9.11398
▁የሚያስችሉ	-9.11543
▁አስገንዝበዋል	-9.11558
▁የኮቪድ	-9.11594
▁በዘርፉ	-9.11607
▁ፌዴሬሽኑ	-9.11673
ሳ	-9.11799
▁ሳሙኤል	-9.11868
▁ስ	-9.11927
▁ከመንግስት	-9.11929
▁መሰረታዊ	-9.11964
▁ያደርጋል	-9.12031
▁እየሰሩ	-9.1208
▁ፖለቲካዊ	-9.12126
▁መብቶች	-9.12169
▁ታሪካዊ	-9.12197
▁ዘጠኝ	-9.12229
▁ንቅናቄ	-9.12382
▁ይላኩ	-9.12486
▁ጋዜጣዊ	-9.12525
ቹ	-9.12551
▁ትግል	-9.12719
▁ክብር	-9.12738
▁ህይወታቸው	-9.12856
▁አስተባባሪ	-9.12998
8	-9.13007
▁ፋብሪካ	-9.13238
▁የተለየ	-9.13306
▁የሚደረገው	-9.13318
▁ብልጫ	-9.13325
▁በበኩሉ	-9.13328
▁የተነሳ	-9.13378
▁ክፍተት	-9.13605
11	-9.13632
▁መኖሪያ	-9.13675
▁የተፈጥሮ	-9.13706
▁ሁለተኛው	-9.13772
▁የከፍተኛ	-9.13905
▁እያደረጉ	-9.13927
▁ይላል	-9.14082
▁ምርምር	-9.14344
▁የምርመራ	-9.14445
▁ተመስገን	-9.14633
▁የጨዋታ	-9.14748
ተ	-9.14794
▁አንቀፅ	-9.14916
▁ዋነኛ	-9.14948
▁አረቢያ	-9.14962
▁ለመጀመሪያ	-9.1563
▁መቻሉን	-9.15669
▁ጥላሁን	-9.15863
የፋና	-9.1607
▁ገብቷል	-9.1614
▁አብርሀም	-9.16163
▁ኩንታል	-9.16273
▁ሀገራቸው	-9.16463
▁በሶስት	-9.16656
▁ፀጥታ	-9.16669
▁ከተማን	-9.16705
▁ናት	-9.16774
▁በጥሩ	-9.16815
▁ተቀባይነት	-9.16855
▁የተገኘው	-9.16885
▁የሚሆን	-9.16952
▁ይቻላል	-9.16953
▁ተብለው	-9.16992
▁እጅ	-9.17001
▁በመስራት	-9.17007
14	-9.17018
▁በህዝብ	-9.17066
▁ስለሆነ	-9.17264
▁የኢንዱስትሪ	-9.17281
▁ላይም	-9.173
▁አማካሪ	-9.17378
▁በቀላሉ	-9.17573
▁ተጠቃሚነት	-9.17733
▁በመጪው	-9.17783
▁አረጋግጠዋል	-9.17853
▁እንዳሉ	-9.17955
▁ሆሳእና	-9.1799
▁ግንባር	-9.18052
▁እን	-9.18064
▁ሰሜን	-9.18104
▁ምስጋና	-9.18143
▁ሽመልስ	-9.18348
▁የቆየው	-9.18438
▁ሲባል	-9.18461
▁የሚለውን	-9.18463
▁ቅሬታ	-9.18474
▁500	-9.18491
7	-9.18522
▁የአስቸኳይ	-9.1854
▁የሚገኝ	-9.1867
▁ዜጎችን	-9.18741
▁የክለቡ	-9.18803
▁ችለዋል	-9.18924
▁መግባባት	-9.18961
▁100	-9.19299
▁ልማትና	-9.19399
▁ተጠርጣሪዎች	-9.19559
▁አዋጁ	-9.19734
▁የግንባታ	-9.19961
▁ጎንደር	-9.20095
▁ኢትዮጵያዊ	-9.20394
▁ነዋሪ	-9.20415
▁ታከለ	-9.2052
▁ከአለም	-9.20623
▁የሚባል	-9.20747
▁ማሸነፍ	-9.20818
▁አንደኛ	-9.20903
ከፌስቡክ	-9.20927
▁ገፃቸው	-9.20966
▁አገራዊ	-9.21109
▁የኢትዮጵያን	-9.21154
▁ፀጋዬ	-9.21162
▁ተሾመ	-9.21182
▁ዳኛ	-9.21268
▁የአካባቢው	-9.21311
▁አርባምንጭ	-9.21313
▁ችግሩ	-9.21323
▁መልሶ	-9.21593
▁ማቆያ	-9.21659
▁ምርጥ	-9.21708
▁ምሁራን	-9.21863
▁ጉዳዩ	-9.21952
▁በጨዋታው	-9.21968
▁ሀሰን	-9.22044
▁ኤምባሲ	-9.2212
▁መንገዱ	-9.22175
▁ኢንተርናሽናል	-9.2224
▁የሚቆጠሩ	-9.22257
▁ማሀበር	-9.22334
▁ባሉ	-9.22337
▁ጉባኤው	-9.22342
▁በተደረገ	-9.22349
▁አበራ	-9.22421
▁ወደፊት	-9.22738
▁በተገኙበት	-9.22781
▁የሚያደርግ	-9.23098
▁አግባብ	-9.23144
▁የጊዜ	-9.23291
▁የታላቁ	-9.23331
እንዲሁም	-9.23366
▁ሁኔታዎች	-9.23377
▁ካለው	-9.23518
▁ዘ	-9.23594
▁እንደሆኑ	-9.2365
▁አስቀድሞ	-9.2366
▁ሀብታሙ	-9.23678
▁ለመሆን	-9.23695
▁በሰሜን	-9.23794
▁ፓርክ	-9.238
▁የፋይናንስ	-9.239
▁ፕሬዚዳንቱ	-9.23971
▁ሆነዋል	-9.23982
▁እንዲቀጥል	-9.2401
▁እንደሚገባም	-9.24141
አሁን	-9.24166
▁እነዚህን	-9.24309
▁የወንጀል	-9.24336
▁አብሮ	-9.24345
▁ፈጠራ	-9.24357
▁ዳኞች	-9.24477
▁ተገኝተዋል	-9.24491
▁ቅድሚያ	-9.24505
▁ጄኔራል	-9.24539
▁ፀሀፊ	-9.24554
▁ይችላሉ	-9.24567
▁በሀዋሳ	-9.24707
▁የምክር	-9.24763
▁ጥራት	-9.24808
▁የግብፅ	-9.24875
▁ለምን	-9.24961
▁ራሳቸውን	-9.24987
▁መጀመሪያ	-9.25096
▁አቅርቧል	-9.25111
▁ምክንያቶች	-9.25241
▁በዋናነት	-9.25286
▁የገበያ	-9.2532
9	-9.25327
▁በመግባት	-9.25567
▁እንደሚደረግ	-9.25579
▁ገብተዋል	-9.25589
2013	-9.25905
▁ወንዝ	-9.2603
▁ስህተት	-9.26278
▁ኢትዮጵያዊያን	-9.26538
ዘወትር	-9.26612
▁ሀይሌ	-9.26679
▁ከክለቡ	-9.26705
▁ምሽት	-9.26833
▁ግንባታው	-9.26858
▁ዝናብ	-9.26994
▁አስቸኳይ	-9.27052
▁is	-9.27077
▁የበጀት	-9.27188
▁ቶን	-9.27202
▁ሚንስትር	-9.27257
▁በማቅረብ	-9.27295
▁አደባባይ	-9.27308
▁ብዛት	-9.27383
▁መሆኗን	-9.27457
▁በመ	-9.27556
▁ዝውውር	-9.27654
▁የለውጥ	-9.27661
▁መሳሪያዎች	-9.27801
▁አሊ	-9.27937
▁እንዲወጡ	-9.27947
▁ወገን	-9.27963
▁ለመቅረፍ	-9.28014
▁ደንብ	-9.28072
▁ፖሊሲ	-9.28073
▁ጉሙዝ	-9.28141
▁በሽታ	-9.28157
▁አፈ	-9.28293
▁አስቸጋሪ	-9.283
▁እንደሚሰራ	-9.2834
▁አሸናፊነት	-9.28457
▁ያለበት	-9.28689
▁የተያያዘው	-9.28796
▁ዋናው	-9.28981
▁እንዳላቸው	-9.29062
▁መስፍን	-9.29109
▁የዋጋ	-9.29112
▁በመፍጠር	-9.2917
▁ሀሙስ	-9.29182
▁ያደረጉ	-9.29291
▁የሆነውን	-9.29386
▁እንደሚያደርግ	-9.2939
▁አለማየሁ	-9.29409
▁በቀጣይም	-9.29471
▁ባለሙያ	-9.29484
▁የተባለ	-9.29499
▁መግለጫው	-9.29526
▁የሚደረግ	-9.29555
▁ወታደሮች	-9.2957
▁በትምህርት	-9.2958
▁ተከትሎም	-9.29592
▁ግለሰብ	-9.29653
▁ኤርትራ	-9.29685
▁የሚውል	-9.29686
▁እየጨመረ	-9.29723
▁ፅሁፍ	-9.29724
▁በህገ	-9.29792
▁ለማቅረብ	-9.2989
▁ግምት	-9.29904
▁ሁሉንም	-9.29965
▁ዴኤታ	-9.29985
▁የተያዙ	-9.30053
▁ማሳያ	-9.30067
▁አሰልጣኙ	-9.3019
▁የተገለፀው	-9.30307
▁ህወሀት	-9.3034
▁ግብረ	-9.30383
▁ብርሀን	-9.30398
▁እንደሚያስፈልግ	-9.30693
▁በትኩረት	-9.30743
▁መረጋጋት	-9.30749
▁ያሉትን	-9.30807
ነ	-9.30816
▁አስራ	-9.30834
▁እንደሚቀጥል	-9.30857
▁ለሀገር	-9.30878
▁ማረፊያ	-9.3089
▁የመስመር	-9.30899
▁በሰጠው	-9.30933
13	-9.30947
▁በመጀመሪያው	-9.31016
▁የሚሰሩ	-9.3109
▁እአአ	-9.31131
▁ሀብረት	-9.31134
▁መጀመሩን	-9.31145
▁ውድድሩ	-9.31199
እንደ	-9.31298
▁በጉዳዩ	-9.31334
t	-9.31338
▁በተሻለ	-9.31367
▁እንደሚችሉ	-9.31406
▁በረከት	-9.3147
▁የተ	-9.31663
▁811	-9.31705
18	-9.31728
▁ይሄ	-9.31765
▁ሚዲያ	-9.31769
▁ካለ	-9.31792
▁የቅድመ	-9.31895
2009	-9.31937
▁እውን	-9.31938
▁በመግለጫው	-9.31977
▁በሚደረገው	-9.31978
▁ለማካሄድ	-9.32049
▁ገደብ	-9.32076
▁ብሎም	-9.32243
አም	-9.32402
▁እድሜ	-9.32431
▁የአካል	-9.32586
▁60	-9.3263
▁ለማምጣት	-9.3269
▁የተገኙት	-9.32704
▁ምክክር	-9.32726
50	-9.32792
▁ዜጋ	-9.32807
▁የባህል	-9.33073
▁አኳያ	-9.33097
▁በመያዝ	-9.33256
▁ካሉ	-9.33279
▁እዚህ	-9.33319
y	-9.33512
▁የሀገሪቱን	-9.33532
▁ስዩም	-9.33619
▁በማሸነፍ	-9.33735
▁በጠቅላይ	-9.33857
▁የገለፀው	-9.33927
▁ሌሎችም	-9.33971
▁ግብርና	-9.34001
▁አደረጃጀት	-9.34017
▁መድሀኒት	-9.34083
▁ሁለቱም	-9.34103
▁ጊዜያዊ	-9.34178
▁ሰጥቶ	-9.3421
▁የቆየ	-9.34304
▁ዝቅተኛ	-9.34499
▁ምርጫው	-9.34544
▁ባለፈም	-9.34561
▁የኮሮናቫይረስ	-9.34611
▁እንዲያገኙ	-9.3464
▁የሚሰጥ	-9.34643
th	-9.34653
ዋን	-9.34687
▁ለአለም	-9.34886
ችው	-9.34899
▁ትግራይ	-9.34907
fanatelevision	-9.3492
▁ዘውዴ	-9.3492
▁የእግር	-9.34953
▁ተልእኮ	-9.35047
▁ቋንቋ	-9.35145
▁ህንፃ	-9.35194
▁ዞኖች	-9.3528
▁ስነስርአት	-9.35284
▁የገቢ	-9.35314
▁በሱዳን	-9.35338
▁ሀሳቦች	-9.35416
የአዲስ	-9.35447
▁ግድያ	-9.35703
▁ጠባቂው	-9.35711
ፈጣን	-9.35716
▁ተገኝተው	-9.35796
▁አማራ	-9.35819
▁አስተላልፈዋል	-9.35921
▁ነኝ	-9.35982
▁የመከላከል	-9.35982
▁ፕሪሚየር	-9.35984
▁ማንኛውም	-9.36057
en	-9.36083
▁እቃዎች	-9.36143
▁ጥፋት	-9.36145
▁ኮንስትራክሽን	-9.36151
▁ለማሳካት	-9.36165
▁እንዲሰሩ	-9.36317
▁በተለያየ	-9.36339
▁በባህር	-9.36379
▁በሊጉ	-9.36614
▁ጠቁሟል	-9.36788
▁የመገናኛ	-9.36935
▁ተገቢውን	-9.36977
▁ለሚገኙ	-9.36986
▁ነጥቦች	-9.37005
▁የነዳጅ	-9.37087
▁ሁሴን	-9.37203
▁በሚ	-9.3721
▁የሽብር	-9.37298
▁ለማድረስ	-9.3738
▁ተወካይ	-9.37398
▁የመረጃ	-9.37527
▁ቢያንስ	-9.37541
▁እንዲያደርጉ	-9.37548
▁የበላይነት	-9.37575
▁የሚሉ	-9.37632
▁ረቡእ	-9.37658
▁ሸዋ	-9.37775
▁ተሳታፊዎች	-9.37809
▁ቢራ	-9.37809
▁ብለን	-9.37962
▁አለመሆኑን	-9.37971
100	-9.38079
▁ቴዎድሮስ	-9.38299
▁ጣቢያዎች	-9.38331
▁የባህር	-9.38358
▁የፖሊስ	-9.38403
▁ሳይንስ	-9.38529
በአሁኑ	-9.38535
▁የተባሉ	-9.38558
ir	-9.38575
▁የተገኘባቸው	-9.38617
▁የጀመረው	-9.38734
▁ሚኒስቴሩ	-9.38899
▁ለጎን	-9.38953
▁ሚኒስትሮች	-9.38999
▁እያ	-9.39
▁ምክንያቱም	-9.39122
▁በትናንትናው	-9.39249
▁ጭማሪ	-9.39295
▁ደስ	-9.39332
▁ውጤቶች	-9.39449
የዜና	-9.39453
com	-9.39507
▁በማሰብ	-9.39515
▁ዘርፉ	-9.39583
▁ከሶስት	-9.39622
▁ቃለ	-9.39651
▁የማይ	-9.39657
▁ፀረ	-9.39662
▁ተቋሙ	-9.39719
በሌላ	-9.39731
▁ተጫዋቹ	-9.39758
▁Giorgis	-9.39868
▁ከአፍሪካ	-9.40046
▁በሰላማዊ	-9.40125
▁የሚካሄደው	-9.40136
▁አስታውሰዋል	-9.40165
▁ሞት	-9.40181
16	-9.40213
▁የስደተኞች	-9.40259
▁ፖለቲካ	-9.40263
ተንቀሳቃሽ	-9.40291
▁የኢትዮ	-9.40482
▁በአዳማ	-9.40647
▁ቀበሌ	-9.40938
▁እንቅስቃሴዎች	-9.40962
▁አዳራሽ	-9.40977
▁ፍትሀዊ	-9.41282
▁ለማሻሻል	-9.41327
▁የሚሆነው	-9.41411
▁ኮከብ	-9.41714
▁የሰጡት	-9.41882
▁መሀል	-9.41901
▁ነዳጅ	-9.41946
▁አለሙ	-9.41984
25	-9.42085
▁ቤታቸው	-9.42165
▁ኦሊምፒክ	-9.4234
▁ከሚገኙ	-9.42427
▁ሲያደርግ	-9.42431
▁በቀን	-9.4249
ሰ	-9.42496
▁ባንኮች	-9.425
▁ግድቡ	-9.42573
▁ፅቤት	-9.42632
▁የተደረገ	-9.42695
▁በትብብር	-9.42821
▁ከሜዳ	-9.42889
▁እርምጃዎች	-9.42916
▁በኋላም	-9.43014
▁ክፍት	-9.43053
▁200	-9.43096
▁በየነ	-9.43177
▁ክለቡን	-9.43184
▁31	-9.43246
▁ኮሙዩኒኬሽን	-9.43288
ባለፈው	-9.43434
▁አረብ	-9.43447
▁የምስራቅ	-9.43484
ረ	-9.43569
▁የተሰማሩ	-9.43616
▁የመሰረተ	-9.43691
▁የማስከበር	-9.43741
▁አባይ	-9.43798
▁ኤልያስ	-9.43809
▁በብሄራዊ	-9.43857
▁የስነ	-9.43915
▁ማእከላዊ	-9.43932
▁የማ	-9.43952
▁አዳነች	-9.43997
▁ባሉት	-9.44023
▁ስኬታማ	-9.44169
▁ማድረጋቸውን	-9.44388
▁የሁለት	-9.44446
▁አካሄድ	-9.44539
▁አጀንዳ	-9.44556
▁ምንዛሪ	-9.4464
እረፍት	-9.44652
▁ለመጫወት	-9.44698
▁ሲሳይ	-9.44781
▁በክለቡ	-9.44789
▁ደም	-9.448
c	-9.44802
▁መሪነት	-9.44804
▁ማሞ	-9.44825
▁ፍቃድ	-9.44922
▁ጋዜጠኞች	-9.45018
▁በራሱ	-9.4511
▁ግማሽ	-9.4515
▁አስ	-9.45195
ሎ	-9.45199
▁በማህበራዊ	-9.45379
▁ያሬድ	-9.45566
▁ሽግግር	-9.45596
▁የከተማዋ	-9.45766
▁አዳነ	-9.45827
▁ቀጥሎ	-9.45859
▁ብሄረሰቦችና	-9.45899
▁አባቶች	-9.46013
▁ተናገሩ	-9.46019
▁አትሌቲክስ	-9.46029
▁ባህላዊ	-9.46032
▁ኦሮሚያ	-9.46039
ለዋልታ	-9.46043
▁በፌዴራል	-9.46135
▁ያላትን	-9.46385
ካ	-9.46404
ሊ	-9.46406
▁ኢንስቲትዩት	-9.46417
▁አአ	-9.46546
▁ፍቃዱ	-9.4657
▁እየተከናወነ	-9.46602
▁አመታዊ	-9.46628
▁አላቸው	-9.46718
ኖ	-9.46766
▁መስኮች	-9.46797
▁እያለ	-9.46806
▁የማድረግ	-9.46818
▁በአንፃሩ	-9.46919
▁የስልጣን	-9.47033
▁Addis	-9.47177
▁was	-9.47184
▁መንፈስ	-9.47192
▁አጠቃቀም	-9.47201
▁የሚያ	-9.47206
▁ከነበረው	-9.4722
▁መላኩ	-9.4723
▁ፕሮጀክቱ	-9.47521
▁በምስራቅ	-9.47531
▁አካዳሚ	-9.47579
▁የተገኙ	-9.47589
▁ሀዳር	-9.47624
▁ወልዋሎ	-9.47737
▁የዜና	-9.47758
▁ማቅረብ	-9.47774
▁በዘላቂነት	-9.47782
▁ፕሬስ	-9.47789
▁ኡማ	-9.47791
▁ተጠናቆ	-9.47967
▁መግባት	-9.4801
ዳ	-9.48016
▁ማስረጃ	-9.48102
▁የከፋ	-9.48156
▁አደሩ	-9.48159
▁after	-9.48163
▁ማጠናከር	-9.48164
ነጥብ	-9.48168
▁ለመደገፍ	-9.4817
▁ከቫይረሱ	-9.48314
ቅ	-9.48319
▁የሚመራው	-9.4833
▁እድሎች	-9.48352
▁ማሀበረሰብ	-9.48387
▁ቀሪ	-9.48432
▁ቦርዱ	-9.48472
ይህ	-9.48527
▁ኢ	-9.4853
▁እገዛ	-9.48564
▁ሰጪ	-9.48697
▁ተናግሯል	-9.48708
0900	-9.48883
▁ሙያ	-9.48946
▁ባካሄደው	-9.48957
▁በአሉ	-9.48985
▁ግጭቶች	-9.49007
▁ግምገማ	-9.49119
▁የዚህ	-9.49158
▁ርብርብ	-9.49174
▁መናገራቸውን	-9.49214
▁ሳህለወርቅ	-9.49352
▁ምእራብ	-9.49384
▁ሶስቱ	-9.49453
▁በሚገባ	-9.49586
▁በቅርብ	-9.49632
▁ቀርበው	-9.49777
▁በግልፅ	-9.49922
▁ግብሩ	-9.49931
▁ማረጋገጥ	-9.4995
▁አቀባበል	-9.4999
▁በንግድ	-9.50029
▁መምህር	-9.50091
▁አንዳርጋቸው	-9.50176
witter	-9.50234
▁ሙከራዎች	-9.50285
▁ፍፃሜ	-9.50343
wwwyoutubecom	-9.50349
▁ደሀንነት	-9.50357
▁ተሽከርካሪዎች	-9.50427
▁የአገሪቱን	-9.50666
▁የአለማችን	-9.50673
▁ክልሉ	-9.50691
▁ታላቅ	-9.50724
24	-9.50787
▁የኤርትራ	-9.50814
▁ሀይለ	-9.50836
▁ማጣሪያ	-9.50927
▁ይመስላል	-9.50953
▁will	-9.50971
▁ማለትም	-9.51067
▁ባሳለፍነው	-9.51108
▁ቤተሰቦች	-9.51205
▁ምድር	-9.51237
▁የሌለው	-9.51242
▁ይገልፃሉ	-9.51259
▁ተሰማ	-9.51337
ተያያዘው	-9.51363
▁ማጥቃት	-9.5137
▁ከሰሞኑ	-9.51417
▁መጠበቅ	-9.51433
2008	-9.51491
▁እንደርታ	-9.51495
▁ገዱ	-9.51586
▁መለስ	-9.51655
▁ህይወታቸውን	-9.51661
▁የሚሰጠው	-9.51698
▁እንዲመለሱ	-9.51775
▁በአንዳንድ	-9.51842
▁የቻለው	-9.51876
▁ግዙፍ	-9.52001
▁ተማሪዎችን	-9.52033
▁ህብረተሰብ	-9.52203
▁ተፈጥሮ	-9.52231
▁ያለመ	-9.52242
▁ስኬት	-9.52343
▁ሲያደርጉ	-9.52398
▁የቡና	-9.52407
▁ከዚያ	-9.52432
▁ካለፈው	-9.52501
▁የቴክኒክ	-9.52513
▁ባለበት	-9.52525
▁ማሳደግ	-9.52586
▁ለመግታት	-9.52591
▁ድንቅ	-9.52608
▁የመልካም	-9.52684
▁መኖሩን	-9.52756
▁ለማከናወን	-9.52805
▁ከእነዚህ	-9.52821
በኢትዮጵያ	-9.52839
▁ይሁንና	-9.52878
▁ኤ	-9.52902
▁ኤፍሬም	-9.52903
▁ስፍራዎች	-9.52965
▁እርስ	-9.53
▁የቅዱስ	-9.53048
▁ተጨዋቾች	-9.53105
▁ሚካኤል	-9.5316
▁መድን	-9.53168
▁ኢነርጂ	-9.53205
▁Ethiopian	-9.53207
▁ፉክክር	-9.53266
በዚህ	-9.53349
▁ኢህአዴግ	-9.5339
▁ፍቅር	-9.53397
▁ይሆን	-9.5341
▁መቆጣጠር	-9.53414
▁ደስተኛ	-9.53416
▁የለውም	-9.53428
▁በማስገባት	-9.53523
▁ከወዲሁ	-9.53624
▁ወጣቱ	-9.53644
▁አሰላለፍ	-9.53647
▁ተጠያቂ	-9.53822
▁ምጣኔ	-9.53849
▁ሪፖርተር	-9.53896
▁ኳሶች	-9.53908
er	-9.53911
▁ሽረ	-9.53967
▁ትረምፕ	-9.53977
▁ለፍርድ	-9.54
▁ለጋዜጠኞች	-9.54048
▁ፕሬዚደንት	-9.54083
▁የሰሜን	-9.54084
▁ተከላ	-9.54222
አ	-9.54249
▁በዋና	-9.54268
▁ለህግ	-9.5427
▁የብድር	-9.54272
▁በእርስ	-9.54332
▁ሁከት	-9.54362
▁መምሪያ	-9.54392
▁በጉዳት	-9.54665
▁ዲ	-9.54675
▁ቁልፍ	-9.5469
ሲ	-9.54719
▁አባተ	-9.5475
▁በቻይና	-9.54751
▁ሚያዚያ	-9.54785
▁ቆይተዋል	-9.54787
▁የሚገኘውን	-9.54885
ባ	-9.54955
▁32	-9.54976
▁በሰው	-9.55036
wwwfanabccom	-9.55083
▁ሲነፃፀር	-9.55084
▁ኢንፎርሜሽን	-9.55108
▁ግዜ	-9.55163
▁ተካሂዷል	-9.55195
▁at	-9.55251
▁ፍትህ	-9.5533
▁በግብፅ	-9.55375
▁ከትናንት	-9.55412
▁ማእከላት	-9.55532
▁ግብአት	-9.55538
▁ሞገስ	-9.55587
▁80	-9.55619
▁መኖራቸውን	-9.55658
▁ይካሄዳል	-9.55717
▁መድረኩ	-9.55918
▁በቀጣዩ	-9.56117
▁በማ	-9.56134
▁ከደቡብ	-9.56155
▁ማለዳ	-9.56183
▁ሶከር	-9.56235
▁ዙርያ	-9.5631
▁በአመት	-9.56332
▁የፀረ	-9.56545
▁ማስቆጠር	-9.56605
▁ሙሉጌታ	-9.56628
▁እንዲደርስ	-9.56649
▁አስተዳዳሪ	-9.56803
▁ለሌሎች	-9.5682
▁በውይይቱ	-9.56914
▁የሚያደርጉት	-9.56922
▁ማሀበራዊ	-9.57012
▁የመስኖ	-9.57047
▁የተመሰረተ	-9.57053
▁እጣ	-9.5708
▁የኢህአዴግ	-9.57094
▁ፓርኮች	-9.5715
▁አሸንፏል	-9.57154
▁ታሀሳስ	-9.57178
▁ያለፈ	-9.572
▁ነን	-9.57333
▁ፓርቲው	-9.57434
▁ስልክ	-9.57449
▁ኮሎኔል	-9.57486
▁አሰጣጥ	-9.57499
ልኝ	-9.57502
▁ለረጅም	-9.5759
▁አልነበረም	-9.57645
በመሆኑም	-9.57767
▁አማኑኤል	-9.57786
▁በተግባር	-9.57888
▁ትርጉም	-9.57895
▁የጎላ	-9.5791
▁መምህራን	-9.58004
40	-9.58035
▁ኢሳያስ	-9.58086
▁ሙስና	-9.58098
▁የሚገቡ	-9.58146
▁ዩኒቨርስቲ	-9.58179
▁የተካሄደው	-9.58192
▁ባንኩ	-9.58268
▁ሀያ	-9.58336
▁his	-9.58406
▁ወጥቷል	-9.58436
▁ቤቶችን	-9.58532
▁ረጅም	-9.58591
▁ገብተው	-9.58742
▁በየጊዜው	-9.58749
▁መጠናቀቁን	-9.58814
▁ከተማዎች	-9.58819
ቴሌግራም	-9.58821
▁ኤል	-9.58861
▁መቀጠል	-9.58973
▁are	-9.58992
▁በተያዘው	-9.59106
▁እንዲኖር	-9.59135
▁በህገወጥ	-9.59216
▁ቀርቦ	-9.5935
▁ውድቅ	-9.59393
▁የፓርቲው	-9.59426
▁አካባቢው	-9.59447
▁ሽያጭ	-9.59462
▁የውጪ	-9.59478
ዶክተር	-9.5952
▁የአ	-9.59584
▁እንደመሆኑ	-9.59622
▁የዴሞክራሲ	-9.5963
▁መውጣት	-9.59791
▁ደካማ	-9.59815
▁አማካይነት	-9.59923
▁ለሶስት	-9.59933
ብን	-9.59954
▁እንዲያደርግ	-9.59967
▁በስቲያ	-9.60052
▁እንደሚካሄድ	-9.6017
ሬ	-9.60183
▁ማርያም	-9.602
▁የብልፅግና	-9.60221
▁ሰ	-9.60278
▁ሲካሄድ	-9.60285
▁በተለየ	-9.60293
▁ለይቶ	-9.60321
▁300	-9.60442
▁በመላው	-9.60452
▁ጎሎች	-9.60485
▁እንዳስታወቁት	-9.60497
▁ወቅትም	-9.60539
▁ጠይቋል	-9.60549
▁በብዙ	-9.6059
▁ያሳያል	-9.6072
▁በስተቀር	-9.60721
▁እንደነበረ	-9.6076
▁በነገው	-9.60806
▁በጤና	-9.60915
▁ሊቀ	-9.60917
▁ተጀምሯል	-9.60933
ዱ	-9.60974
▁መቆየቱን	-9.60984
▁በሁለቱም	-9.60986
▁ዋልታ	-9.61109
▁መመለስ	-9.61171
▁በብዛት	-9.61184
▁ፋብሪካዎች	-9.61208
▁ማመንጫ	-9.6131
ልን	-9.61345
▁የበጎ	-9.6136
▁የሚያደርገው	-9.61373
▁ህመም	-9.61375
▁ትራንስፎርሜሽን	-9.61427
▁ብቸኛ	-9.61448
▁የሚያሳይ	-9.61491
▁በእጅጉ	-9.61616
ደርስዎ	-9.61655
▁አክለዋል	-9.61779
▁አስተሳሰብ	-9.61831
▁ሂደቱ	-9.61862
▁የመታው	-9.61907
▁የውሳኔ	-9.61945
▁ኮሚሽነሩ	-9.61952
▁በመላ	-9.62201
▁የምድብ	-9.62221
▁ሙላቱ	-9.62298
▁90	-9.62321
▁ተወያይተዋል	-9.62339
▁የውይይት	-9.62372
▁አምራች	-9.62382
▁ሰራተኛ	-9.62428
▁ጉልህ	-9.62519
▁እንዲገቡ	-9.62532
▁በር	-9.62581
▁ሰበታ	-9.62596
▁በሜዳው	-9.62673
▁በውድድሩ	-9.62782
▁2007	-9.62822
▁የተውጣጡ	-9.62837
▁ከሀገር	-9.62846
▁ለአፍሪካ	-9.62903
▁ምዝገባ	-9.62924
▁እንዳልሆነ	-9.62942
▁ኦ	-9.63039
▁በሚካሄደው	-9.63065
▁እንዲሰጡ	-9.63201
▁ገብረ	-9.63216
▁ትልቁ	-9.63235
▁በምን	-9.63358
▁የተሰጠው	-9.63395
ተከላካይ	-9.63431
▁ለመግባት	-9.63438
▁የሚደረጉ	-9.63629
▁በመገኘት	-9.63673
▁የሁለቱን	-9.63782
▁ህጉ	-9.63947
▁ጀማል	-9.63965
n	-9.64007
▁በምእራብ	-9.64016
▁ስራቸውን	-9.64037
▁የባቡር	-9.64175
▁የጥፋት	-9.64178
▁Kidus	-9.64259
▁ያልሆኑ	-9.64295
▁game	-9.6431
▁ተፎካካሪ	-9.64342
▁ያነሱት	-9.64403
▁ኮቪድ	-9.64421
▁ያላት	-9.64487
▁ምህረት	-9.64488
▁አባላትን	-9.64488
▁ስርአቱን	-9.64548
▁ጅፋር	-9.64609
▁ምልክት	-9.64609
▁በከተማ	-9.6461
▁መስክ	-9.64619
▁ይሰራል	-9.64626
▁ማረጋገጫ	-9.64729
▁የሀዋሳ	-9.64757
▁የቴክኖሎጂ	-9.6482
▁የደህንነት	-9.651
▁የደረሰው	-9.65148
▁አብዱል	-9.65158
▁አጋር	-9.65195
▁ውድድሩን	-9.65212
▁እንደሚሉት	-9.65298
▁ኦባማ	-9.65312
▁መገንባት	-9.65316
▁የመጀመርያው	-9.65394
▁ፋይዳ	-9.65414
▁የሊጉ	-9.65466
▁ቢቂላ	-9.65514
▁ብዙም	-9.65546
▁አቤል	-9.65666
▁ተጠቅሞ	-9.65742
ቴ	-9.65786
▁የግንዛቤ	-9.65795
▁የትራፊክ	-9.65813
ፕሪምየር	-9.65814
▁ሲደረግ	-9.65829
▁ታፈሰ	-9.65856
ሀ	-9.65882
ly	-9.65909
▁ትውልደ	-9.65963
▁ሰላምን	-9.65974
▁ኮሌጅ	-9.65988
▁አለብን	-9.66002
▁ማየት	-9.66042
ቼ	-9.66049
▁ስት	-9.66066
▁ከቅርብ	-9.66164
▁ያለባቸው	-9.66224
▁ክርስቲያን	-9.66235
▁ለመውጣት	-9.66239
ዎችን	-9.6624
▁በራሳቸው	-9.6626
▁የምርት	-9.66329
▁ጣልቃ	-9.66468
▁ተጋላጭ	-9.66504
ፕሬዚዳንት	-9.66645
▁ጀምሯል	-9.6665
▁Ababa	-9.6669
▁የሽግግር	-9.66716
▁ቡናን	-9.6679
▁ዩኒቨርሲቲዎች	-9.66792
▁ዴሞክራሲ	-9.66808
▁ይቅርታ	-9.66829
▁ሽማግሌዎች	-9.66842
23	-9.66858
▁አልፏል	-9.66885
▁ከዚህም	-9.66929
▁መምጣቱን	-9.66932
▁አብረው	-9.66936
▁መኖር	-9.6697
▁አገልግሎቶች	-9.67072
2006	-9.67091
▁የሚሰራ	-9.67232
▁መደረጉ	-9.67249
▁ትክክለኛ	-9.67334
▁ርእስ	-9.67414
▁ፎረም	-9.67422
▁በማጠናከር	-9.67469
▁ችግኝ	-9.67479
▁በመውሰድ	-9.67491
▁በአዲሱ	-9.67563
▁ተፈራ	-9.67645
▁ለመጠቀም	-9.67657
▁በርስ	-9.677
▁የላቀ	-9.677
▁ወልቂጤ	-9.67736
▁በሆነው	-9.67799
2007	-9.67804
▁አልባ	-9.67867
▁የተቀናጀ	-9.67919
▁በቀል	-9.67923
▁የድርጅቱ	-9.67957
▁አስቻለው	-9.68008
▁የኬንያ	-9.68013
▁ታላቁ	-9.68077
corporat	-9.68121
▁ከጠቅላይ	-9.68125
▁have	-9.6813
▁እሴት	-9.68143
ሱ	-9.68157
▁ቀይ	-9.68228
fanabroadcasting	-9.68361
▁ለማቋቋም	-9.6843
▁ከስምምነት	-9.68448
▁ሽፋን	-9.68498
▁ዘመኑ	-9.68542
ሜ	-9.68568
▁የጠቆመው	-9.6861
▁ተንቀሳቃሽ	-9.68676
▁አስቆጥሯል	-9.68699
▁ስኳር	-9.68733
▁ህዝብን	-9.68787
ትኩስ	-9.6879
21	-9.68846
▁ያለምንም	-9.68872
▁ቅርንጫፍ	-9.68891
▁በልዩ	-9.68892
ሶ	-9.68915
▁እንደሚቻል	-9.68924
ቶች	-9.68994
▁እንዲሰጥ	-9.69082
▁ጠቅሶ	-9.69086
▁እንዲካሄድ	-9.69091
▁ተደጋጋሚ	-9.69106
▁ጨረታ	-9.69162
▁የወጣው	-9.69197
▁ተግባራትን	-9.69269
ኤፍ	-9.69311
▁የሁለትዮሽ	-9.69366
▁የተቋቋመው	-9.69421
▁ያተኮረ	-9.69423
▁ቀርቷል	-9.69445
▁አዛዥ	-9.69493
▁አይዘነጋም	-9.69572
▁መረብ	-9.69606
▁ጉዳዮችን	-9.69618
▁የሲዳማ	-9.69637
▁በመጥቀስ	-9.69677
ምክር	-9.6968
▁መኪና	-9.69689
▁ፈንድ	-9.69779
▁ያደርጋሉ	-9.69816
▁ንጉሴ	-9.69849
▁በግል	-9.69877
▁እንኳ	-9.6992
▁ጥበብ	-9.69967
▁እንግዶች	-9.70088
▁ኢብራሂም	-9.70129
▁በገንዘብ	-9.70142
▁እስር	-9.70148
▁ደ	-9.70246
▁ከዛሬ	-9.7027
▁ከሚመለከታቸው	-9.70331
▁የሊግ	-9.70393
▁ከክልሉ	-9.70445
▁ቤተሰብ	-9.70457
ሚ	-9.70563
▁ማን	-9.70565
▁አየለ	-9.70596
መንግስት	-9.70608
▁ለማስቀጠል	-9.70664
▁የፍትህ	-9.70706
▁ሰኢድ	-9.70721
▁እኩል	-9.7073
▁ያቀረቡት	-9.70777
▁እንደሚሰሩ	-9.70779
▁ተደራሽ	-9.70817
▁አሳስቧል	-9.70847
▁የማህበራዊ	-9.70942
▁ባለስልጣኑ	-9.70979
▁ማለታቸውን	-9.70983
▁ታ	-9.7103
▁አንደኛው	-9.71046
▁ሜጋ	-9.71089
▁በአሉን	-9.71091
▁የአገልግሎት	-9.71111
▁መሆናቸውንም	-9.71117
▁አብዛኞቹ	-9.71259
▁መወሰኑን	-9.71299
▁የጠቀሱት	-9.7131
▁አደር	-9.71379
▁ሽንፈት	-9.71386
▁ብሩክ	-9.7142
▁እስኪ	-9.71468
▁እንዲወጣ	-9.71493
▁አስታውሰው	-9.71543
▁እውቀት	-9.71584
▁ባቡር	-9.71591
▁የብር	-9.716
▁በአራት	-9.71633
▁አደጋው	-9.71664
ኩ	-9.7169
▁ማራቶን	-9.71701
▁ከጊዜ	-9.71723
▁ሶማሊያ	-9.71778
▁ማስተማር	-9.71789
▁ተቀይሮ	-9.71795
▁ስብስብ	-9.71813
▁አጋጣሚዎች	-9.71819
▁ዘር	-9.71931
▁በድምሩ	-9.72038
▁ሀላፊነቱን	-9.72063
▁ግዴታ	-9.7212
2005	-9.72156
▁ለማስጠበቅ	-9.72288
▁መዋቅር	-9.72299
▁ማእረግ	-9.72354
▁goal	-9.72394
▁ለማጠናቀቅ	-9.72402
በትን	-9.72431
▁ሁለንተናዊ	-9.72542
▁ገብቶ	-9.72544
▁መስተዳድሩ	-9.72567
▁የዝውውር	-9.72573
▁ሀዲያ	-9.72659
▁አያሌው	-9.72852
▁በክልል	-9.72863
▁ስሁል	-9.72863
▁ብሄረሰቦች	-9.72878
▁ነጋዴዎች	-9.72893
▁በነፃ	-9.72947
▁ቀጥሏል	-9.73042
▁የቦርድ	-9.73088
▁ተከሳሾች	-9.7309
▁የራሱን	-9.73104
▁ስምምነቱ	-9.7315
▁ተጠቅሷል	-9.73247
▁ሀይማኖት	-9.73263
▁that	-9.73294
▁መስጫ	-9.73332
▁በአብዛኛው	-9.73376
▁የገባው	-9.73405
▁ይቀጥላል	-9.73422
▁side	-9.73424
▁በሴቶች	-9.73427
▁የጉዞ	-9.73531
▁እስራት	-9.73549
▁ወርቅ	-9.73562
▁ክርክር	-9.73581
▁ጋዜጠኛ	-9.73607
▁ሀዘን	-9.73618
▁ወሎ	-9.73662
▁በምርመራ	-9.73666
▁በወቅታዊ	-9.73731
▁የአካባቢ	-9.7376
▁ምክረ	-9.73843
▁ውጤቱ	-9.73847
▁የሚደረገውን	-9.73911
▁ጨዋታዎችን	-9.73935
▁ተከታዮች	-9.7398
▁ተገናኝተው	-9.74058
▁የላቦራቶሪ	-9.7408
▁የተወሰነ	-9.74128
▁እስራኤል	-9.74134
ሌ	-9.74203
▁በመከላከያ	-9.74211
▁ወርቁ	-9.74287
▁የቡድን	-9.74374
▁ወደብ	-9.74378
ጥ	-9.74446
ባለፉት	-9.74475
▁አጨዋወት	-9.74569
▁s	-9.74573
▁አንዷ	-9.74577
▁እንደገና	-9.74588
▁መውሰድ	-9.74655
▁በሀገራችን	-9.74687
▁ባይ	-9.74718
▁400	-9.74806
▁በዘንድሮው	-9.74819
▁ያስችላል	-9.74823
▁አሻራ	-9.74826
▁መርሀግብር	-9.74841
▁አሉታዊ	-9.74847
▁ተያያዥ	-9.74849
▁የውስጥ	-9.74861
▁እንደሚሰጥ	-9.74865
▁ማጣርያ	-9.7493
▁ኤጀንሲው	-9.74982
▁የቀረበ	-9.74996
▁ክስተት	-9.75087
▁ጥገና	-9.75094
▁አገራቸው	-9.7511
▁ሀሰተኛ	-9.75113
▁ለውጭ	-9.75119
▁ኮንጎ	-9.75128
▁ህግን	-9.75145
▁ግቦችን	-9.75235
▁በየደረጃው	-9.75409
ሞ	-9.75485
▁በተ	-9.75489
▁ተቋማትን	-9.75498
▁በሚመለከት	-9.75597
▁መዝገብ	-9.7568
▁መስቀል	-9.75722
▁በኮቪድ	-9.75751
▁ያልሆነ	-9.75788
▁ለሁሉም	-9.75818
▁ለአሜሪካ	-9.75822
▁ገዛኸኝ	-9.75823
▁የክልሉን	-9.75854
▁የበኩሉን	-9.75855
▁ታሳቢ	-9.75855
▁እንዳስታወቀው	-9.75868
▁የተወሰኑ	-9.75913
▁ካላቸው	-9.75948
▁ማድረጉ	-9.76011
▁ኩባንያው	-9.76052
▁ዲግሪ	-9.76078
▁ዝቅ	-9.76162
ላት	-9.76168
▁ባላቸው	-9.76269
ኒ	-9.76289
▁የምን	-9.76309
▁ያለፉትን	-9.76328
▁እድሎችን	-9.76389
ምክትል	-9.76493
▁መላው	-9.76494
▁የድጋፍ	-9.76499
▁ነባር	-9.76544
▁ተጠቃሽ	-9.76638
▁በቅንጅት	-9.76644
▁አስተያየታቸውን	-9.76709
▁ሲሰራ	-9.76818
▁መያዙን	-9.76884
▁ከመረብ	-9.76914
▁የቫይረሱ	-9.76958
▁የሶስት	-9.76962
▁ጀነራል	-9.76973
▁እያደገ	-9.77111
▁መቀነስ	-9.77114
▁የጨዋታው	-9.77148
▁የሙከራ	-9.77195
▁ያስታወቀው	-9.77233
▁ስትራቴጂ	-9.77237
▁ወሰን	-9.77252
▁በአስቸኳይ	-9.7734
▁ታቅዶ	-9.77427
▁መርማሪ	-9.7743
▁የሚመለከታቸው	-9.77445
▁ማለፉን	-9.77453
▁ል	-9.77456
▁ኮማንደር	-9.77469
▁ይሄን	-9.7753
▁የግድቡ	-9.77585
▁መገኘቱን	-9.77632
▁የተገኘ	-9.77668
ለን	-9.77694
▁መጠጥ	-9.77701
▁ጅቡቲ	-9.77717
▁የድንበር	-9.77731
▁ሪፖርቱ	-9.77737
▁ያስረዳል	-9.77738
▁በኬንያ	-9.77746
▁ዋኢማ	-9.77801
▁በአንድነት	-9.77817
▁ህዝቡን	-9.77833
▁የመፍትሄ	-9.77863
በታል	-9.77869
▁በግብርና	-9.77938
▁ዘይት	-9.77949
▁መንስኤ	-9.77951
▁ያድምጡ	-9.77952
▁የሌላቸው	-9.77956
▁የትብብር	-9.77969
▁አብዲ	-9.78048
▁ልውውጥ	-9.78148
▁ጌታሁን	-9.78221
▁ተጠርጥረው	-9.78222
▁መጠናቀቅ	-9.78223
▁እያሉ	-9.7828
▁Adama	-9.78326
▁ከመቶ	-9.78335
▁ቦሌ	-9.78451
▁መሻሻል	-9.78493
▁አያያዝ	-9.78506
▁በመቀጠል	-9.78519
▁ከኮሮና	-9.78551
▁ተሞክሮ	-9.78605
▁በድሬዳዋ	-9.78675
▁እንደሌለ	-9.78694
▁ጥቃቶች	-9.78771
▁እንደሚያደርጉ	-9.78951
▁ታዋቂ	-9.78975
▁ይሆናሉ	-9.79018
ወደ	-9.79091
▁ፅኑ	-9.7911
ዛሬ	-9.79114
▁45	-9.79189
▁መካከለኛ	-9.79215
▁ለስራ	-9.79234
▁ዋት	-9.79293
▁ታጣቂዎች	-9.79431
▁መንግስትና	-9.79458
▁የመጡ	-9.79496
▁35	-9.79517
▁እንደሚጠበቅ	-9.79537
▁ትርፍ	-9.79575
▁እንዲደረግ	-9.79577
ላከው	-9.79585
▁መድረኮች	-9.79587
▁ሌላኛው	-9.79606
▁የሚካሄድ	-9.79622
▁የሜዳ	-9.79658
▁ጌትነት	-9.79733
▁ሰራዊቱ	-9.7978
▁ያገገሙ	-9.79858
▁ድንጋይ	-9.7986
ኮሮናቫይረስ	-9.79864
▁የታሪክ	-9.7989
▁ትንሽ	-9.79893
▁በመጀመሪያ	-9.7995
▁ከቻይና	-9.79966
መ	-9.80026
▁በእለቱ	-9.80065
▁በመለየት	-9.80099
▁ማምረት	-9.80111
ኮ	-9.80116
▁የህገ	-9.80118
▁አያይዘውም	-9.80196
▁ተረጋግጧል	-9.80265
▁ቻምፒዮን	-9.80279
▁በበጀት	-9.80303
▁ገልፆ	-9.80351
▁የሚደርሱ	-9.80381
▁ጥሰት	-9.80384
▁የምርምር	-9.80393
▁እዝ	-9.80429
▁የችግኝ	-9.80444
▁የቱሪዝም	-9.80462
▁አጭር	-9.80521
▁ጠቀሜታ	-9.80559
▁ግዥ	-9.80621
▁ዘርፈ	-9.8065
▁ለመንግስት	-9.80657
▁አጥቂው	-9.80691
▁ከስራ	-9.80785
▁በሚገኝ	-9.80794
▁የደረሰ	-9.8093
▁ከሱዳን	-9.80949
▁ምግባር	-9.80959
▁እቃ	-9.81062
▁ኋላ	-9.81152
27	-9.81154
▁አቤቱታ	-9.81179
▁የሚናገሩት	-9.81208
▁ማእቀፍ	-9.81212
ዮ	-9.81283
▁አሳሳቢ	-9.81325
አዲሱ	-9.81342
▁እንዲፈቱ	-9.8147
▁አድርጎታል	-9.81474
▁በአ	-9.81476
▁መድረስ	-9.81481
▁በአምስት	-9.81598
▁ት	-9.8162
▁የህዝቡን	-9.81636
▁ከዛ	-9.81664
▁የነበራቸው	-9.81667
▁ለመድረስ	-9.8174
▁ተፋሰስ	-9.81759
▁እረፍት	-9.81768
▁ኮንትራት	-9.81797
▁ችለናል	-9.81914
▁አካሂዷል	-9.82128
ኤፍቢሲ	-9.82151
▁ገፅታ	-9.82173
▁በዝርዝር	-9.82235
▁ይፋዊ	-9.82244
▁ዝግጅቶች	-9.82363
▁ታደለ	-9.82521
▁አለመረጋጋት	-9.8259
▁ገፁ	-9.82609
ሙ	-9.82642
▁ተሰምቷል	-9.82644
▁አጀንዳዎች	-9.82708
▁ኮሮና	-9.82718
▁የሁሉም	-9.8279
▁አራተኛ	-9.82792
▁በእነዚህ	-9.828
▁ወረርሽኝን	-9.82815
▁ሽፈራው	-9.82847
▁ከተማዋ	-9.82926
▁አደጋዎች	-9.82937
▁ይህንኑ	-9.83032
▁ሙሌት	-9.83164
▁የያዘ	-9.83183
▁መግለፃቸውን	-9.83201
▁የሙያ	-9.83224
▁ምንዛሬ	-9.83256
▁ብሄረሰብ	-9.83256
▁ያወጣው	-9.83273
▁በምርጫ	-9.8334
▁ካሳሁን	-9.83405
▁ታክስ	-9.83414
▁የሚያደርገውን	-9.83421
▁ጥምረት	-9.83426
▁በኤርትራ	-9.83459
▁ልኡክ	-9.83472
▁የሚያደርጉ	-9.83484
▁አርብቶ	-9.8352
▁ከአሜሪካ	-9.83571
▁የተገለፀ	-9.83613
▁አስረድቷል	-9.83622
▁አልቻለም	-9.83674
▁እንቅፋት	-9.83685
▁መንቀሳቀስ	-9.83714
▁ለመጠበቅ	-9.83722
▁ስርአትን	-9.8375
▁የሙስና	-9.83761
▁በመጨረሻም	-9.83793
▁75	-9.83796
ኛል	-9.83864
▁ይዘን	-9.83865
▁የድል	-9.83931
▁እያከናወነ	-9.83945
▁ቴድሮስ	-9.83969
▁ይገኙበታል	-9.83984
▁እንደሚኖረው	-9.84009
▁ክፍተቶች	-9.84066
60	-9.841
▁ቀንድ	-9.8411
▁ለሚ	-9.84188
▁ላለው	-9.84217
▁አሸንፎ	-9.84224
▁has	-9.84237
▁ፋይናንስ	-9.84258
▁ማእከሉ	-9.84348
▁ቀርቧል	-9.84391
▁እየታየ	-9.84436
▁በቅርበት	-9.84521
▁ለህልፈት	-9.84524
▁ቁሳቁስ	-9.8454
▁ሲሚንቶ	-9.84558
▁አክለውም	-9.8456
▁በመከላከል	-9.8457
▁በሆኑ	-9.84574
▁በተፈጠረው	-9.84594
▁ጠዋት	-9.8461
▁ዛሬም	-9.84663
▁ተማሪ	-9.84809
▁ፍሬው	-9.84823
▁ተወዳዳሪ	-9.84828
▁መስኖና	-9.84859
▁አካላትን	-9.84986
▁የጠበቀ	-9.85007
▁የእርስ	-9.8503
22	-9.85042
▁እንደነበሩ	-9.85043
▁ማንም	-9.85076
▁ማለፍ	-9.85118
▁መክረዋል	-9.8513
▁የተፈጠረው	-9.85135
▁ስርጭትን	-9.85148
▁ባህርዳር	-9.8515
▁የመ	-9.85221
▁ያል	-9.85241
▁ፕሮጀክቶችን	-9.85251
▁ቀበሌዎች	-9.8527
▁በአመቱ	-9.85274
▁ባለመሆኑ	-9.85365
ta	-9.85381
▁ዳይሬክቶሬት	-9.85384
▁ቤተክርስቲያን	-9.85385
▁ኮሙኒኬሽን	-9.85395
▁የሚሰጡ	-9.85437
▁ችግኞች	-9.85536
ችሁ	-9.85544
▁ከሁሉም	-9.8557
▁ይሰጣል	-9.85662
▁የማጥቃት	-9.85666
▁የከተማው	-9.857
▁ሚ	-9.85734
▁ያካተተ	-9.85746
▁ጥልቅ	-9.85772
▁የሙዚቃ	-9.85996
▁ሲጠናቀቅ	-9.86004
ቦ	-9.86017
al	-9.86105
▁አምና	-9.86143
ለው	-9.86145
▁የባንክ	-9.86286
የውጭ	-9.86329
▁e	-9.86385
▁ለበርካታ	-9.86407
▁በምክትል	-9.86436
▁ፈጣሪ	-9.86486
▁ከህዝብ	-9.86601
▁33	-9.8662
አሰልጣኝ	-9.8662
ጋ	-9.86689
▁የበላይነትን	-9.86801
▁ኤስ	-9.86818
ዲ	-9.86827
▁የመኖሪያ	-9.86844
▁ከማድረግ	-9.86852
▁በሂደት	-9.86856
▁አስፈላጊው	-9.86883
▁ማረሚያ	-9.86923
▁ፍጥነት	-9.87102
▁አለመግባባት	-9.87105
▁ለጊዜው	-9.8716
▁ወጣቶችን	-9.87167
▁ከአራት	-9.87229
▁መስራች	-9.87363
▁የኑሮ	-9.87419
▁የበኩላቸውን	-9.87443
▁መያዝ	-9.87462
▁የእድገትና	-9.87478
▁በማሳደግ	-9.87479
▁እንደማይ	-9.87509
▁ማድረጋቸው	-9.87638
▁second	-9.87682
▁Dicha	-9.87695
▁ወንድሙ	-9.87851
▁ምርቶችን	-9.87874
▁በታላቁ	-9.87883
▁ከጨዋታው	-9.87923
▁አመላክተዋል	-9.8793
▁የንግድና	-9.87946
ታዊ	-9.87951
▁ለተጨማሪ	-9.87955
ዛ	-9.87977
▁ዜግነት	-9.87979
▁የተዘጋጀ	-9.88017
▁ደረጃን	-9.88031
▁ውሳኔው	-9.88133
▁ውይይቶች	-9.88156
▁ያንን	-9.88172
▁አስቆጥሮ	-9.88269
▁መፍታት	-9.88271
▁በዘንድሮ	-9.88272
▁ወርቅነህ	-9.88272
▁ነገሮችን	-9.88285
▁ተከላካዩ	-9.88288
▁በማዘጋጀት	-9.88297
▁ዘሪሁን	-9.88304
▁Hawassa	-9.88343
▁ሩብ	-9.88351
▁ለህብረተሰቡ	-9.8837
▁የተፈጠረውን	-9.88475
▁ተቀብለው	-9.88555
▁የመሀል	-9.886
▁ሹመት	-9.88621
▁ማካሄድ	-9.88622
▁የፊታችን	-9.88725
▁ክትባት	-9.88742
▁አሰልጣኝነት	-9.88799
▁የምጣኔ	-9.88869
▁አውሮፓ	-9.8904
▁ስያሜ	-9.89042
▁የወርቅ	-9.8907
▁ደርሶ	-9.8913
▁አቤቤ	-9.89159
▁ካልሆነ	-9.89161
▁እጩ	-9.89171
▁አበረታች	-9.89196
▁ማንነት	-9.89251
ቱን	-9.89265
▁ጥያቄዎችን	-9.89323
▁የመጣው	-9.89359
▁እንድት	-9.89393
▁ሁሉን	-9.89429
▁አግኝቶ	-9.89436
▁በማውጣት	-9.89461
▁ለቆ	-9.89477
▁በፖለቲካ	-9.8949
▁አክለው	-9.89505
▁የሰጠው	-9.89558
▁የገቡት	-9.89575
ሴ	-9.89628
▁they	-9.89633
28	-9.89671
▁ለቪኦኤ	-9.8977
▁ከሚ	-9.89772
▁ቢሮው	-9.8982
▁በተከታታይ	-9.89867
200	-9.89877
▁አለምአቀፍ	-9.89916
▁በእስር	-9.90091
▁ከተማው	-9.90092
▁የአንድነት	-9.90094
▁ጁንታ	-9.90115
▁የተከሰተው	-9.9013
▁ታዲያ	-9.90162
▁ሳምሶን	-9.90167
▁0	-9.90183
▁ጥቆማ	-9.90211
▁አክሊሉ	-9.9038
የክልሉ	-9.90385
▁በአውሮፓ	-9.90389
▁በስምምነት	-9.90487
▁ስላለው	-9.90512
▁እኛም	-9.90534
▁ተቀብሎ	-9.90632
▁ነጋሽ	-9.90676
▁ዲፕሎማሲያዊ	-9.90679
▁የተሳተፉ	-9.90693
▁እንደሚገባቸው	-9.90701
▁Dedebit	-9.90727
▁በበርካታ	-9.90744
▁በፅኑ	-9.90768
▁ውጤቱን	-9.90803
▁ድርቅ	-9.90877
▁የሚመራ	-9.90889
▁የሚችለው	-9.90936
▁የማህበረሰብ	-9.90988
▁ቴሌኮም	-9.91031
▁አስራት	-9.91114
▁minute	-9.91201
▁ለመጀመር	-9.91212
▁ማስጠንቀቂያ	-9.91266
▁አመቱን	-9.91267
▁ፍሬ	-9.91277
▁ስለመሆኑ	-9.91336
▁የዛሬ	-9.91435
መልሶ	-9.91446
▁የሚዲያ	-9.91494
▁ለጠቅላይ	-9.91539
▁መንጋ	-9.91601
▁የመጣ	-9.9166
▁ያህሉ	-9.91787
▁ያሳለፈው	-9.91803
▁ተወልደ	-9.9187
▁በሚቀጥለው	-9.91897
▁ኦርቶዶክስ	-9.91905
▁መዲና	-9.91913
▁የቀረበው	-9.91957
▁ከአምስት	-9.91993
▁የእሳት	-9.92093
▁ደንበኞች	-9.92145
▁ሪፐብሊክ	-9.92169
▁ኡመር	-9.9218
ቷ	-9.92207
▁በፀጥታ	-9.92214
▁ግቢ	-9.923
▁ቀጣይነት	-9.92304
▁ጌታነህ	-9.92339
▁ተጨባጭ	-9.92409
▁ቢጫ	-9.92452
▁ከርቀት	-9.92472
▁ማውጣት	-9.92478
▁ናስር	-9.92497
▁እንስሳት	-9.925
▁ወስኗል	-9.92524
▁በጥናት	-9.92536
▁በህክምና	-9.92549
▁ጨምረው	-9.92572
ምንጭ	-9.92714
▁ተሳትፈዋል	-9.92717
▁ለሰላም	-9.9275
▁የምክክር	-9.92859
▁ግብይት	-9.92875
▁በህይወት	-9.92878
▁ተሰጥቷል	-9.92935
ዩ	-9.9298
▁ለአገር	-9.92988
▁እንዲሁ	-9.93008
▁first	-9.93081
▁ያስታወሱት	-9.93083
▁የአዳማ	-9.9311
▁የህፃናት	-9.93124
▁ወልዲያ	-9.93153
▁wh	-9.9316
26	-9.93226
▁out	-9.93232
▁መዘጋጀቱን	-9.93248
▁ዘላለም	-9.93323
▁የወጣቶች	-9.93326
▁ሶማሌ	-9.93329
▁የቻለ	-9.93357
▁የአረንጓዴ	-9.93417
▁ማእቀብ	-9.93432
▁ሰጥተው	-9.9344
ዶ	-9.93516
▁ኢራን	-9.9357
▁የብሄር	-9.93722
▁ክሱ	-9.93753
▁አን	-9.93791
▁መሸፈኛ	-9.93792
▁በሶማሊያ	-9.93813
▁የተከሰተውን	-9.93819
▁ዝግጅቱን	-9.93842
▁ጆ	-9.93947
ደ	-9.93947
▁ተዋህዶ	-9.9401
▁መስኮት	-9.94014
▁መድረሱ	-9.94021
▁የዘንድሮው	-9.94031
▁አብዛኛው	-9.94045
▁ውሳኔዎች	-9.94083
▁የጎል	-9.94089
▁ታዳጊ	-9.94187
▁በነበራቸው	-9.94307
▁አቆጣጠር	-9.94332
▁ምልልስ	-9.94333
▁ድንገተኛ	-9.94342
▁አገልግሎቱን	-9.94358
▁እዳ	-9.94376
▁ቅጥር	-9.94379
▁ስሙ	-9.94424
▁ለቀጣይ	-9.94435
▁ሩሲያ	-9.94455
▁ለመ	-9.94482
▁ቀጣዩ	-9.94485
▁የልኡካን	-9.94524
▁ገልጧል	-9.94541
▁እየተከናወኑ	-9.94641
▁ጉዳያቸው	-9.94657
vs	-9.94704
▁አስተማማኝ	-9.94739
▁ፖሊሶች	-9.94824
ደቡብ	-9.94826
▁በሞት	-9.94837
▁የቆዩ	-9.94911
▁እየተሰሩ	-9.94953
▁አባጅፋር	-9.94957
▁ባስተላለፉት	-9.94958
▁ሞሀመድ	-9.94991
▁ኢንጅነር	-9.95024
▁የተጀመረውን	-9.95045
▁Mekelakeya	-9.95055
ለተጨማሪ	-9.9509
▁ጥብቅ	-9.95167
▁የዜጎችን	-9.95188
▁ተራ	-9.95244
45	-9.95252
▁ኦማር	-9.95295
▁በማንሳት	-9.95301
▁የህይወት	-9.95316
▁ወንዶች	-9.95479
▁ይኖረዋል	-9.95577
▁የምት	-9.95578
▁Stadium	-9.95578
▁ንጉሱ	-9.95617
▁የገቡ	-9.9562
▁በማስቆጠር	-9.95633
ነቱ	-9.95637
▁ምንተስኖት	-9.95703
▁የድሬዳዋ	-9.95823
▁ቶሎ	-9.95882
▁ደሴ	-9.95944
▁በውድድር	-9.95992
▁ሂሩት	-9.96211
▁አድራጎት	-9.96226
▁ባህልና	-9.96242
▁በረራ	-9.96245
▁እየሰጠ	-9.96245
▁ንክኪ	-9.9627
▁ደረጃውን	-9.96284
▁ሙሳ	-9.96288
▁እየሆነ	-9.96294
▁00	-9.96315
▁የሆነችው	-9.96397
▁የተደረገላቸው	-9.96414
▁የሚመጡ	-9.96418
▁የተጠረጠሩ	-9.96479
▁ሯንዳ	-9.96484
▁እገዳ	-9.96509
▁የተነገረው	-9.96598
▁በአፋር	-9.96602
▁የሰዎች	-9.96659
▁ተወላጆች	-9.96846
▁ከላይ	-9.96846
▁ጠብቆ	-9.96856
▁points	-9.96861
▁ሂሳብ	-9.96868
▁በአማካይ	-9.969
▁በግንባሩ	-9.96901
▁የሚነሱ	-9.97047
ስለ	-9.97089
▁የአስተዳደር	-9.97097
▁41	-9.97109
▁league	-9.97118
▁ደብረ	-9.97167
▁ለማስገባት	-9.97176
▁ለመፈፀም	-9.9718
▁በየ	-9.97185
▁እንዲውል	-9.97187
▁ስለሺ	-9.972
▁ፌዴራል	-9.97215
▁ማስተባበሪያ	-9.97227
▁ሲሰሩ	-9.97249
▁በአየር	-9.97398
▁ስብሰባው	-9.97446
▁እሸቱ	-9.97522
▁ሰርቪስ	-9.97537
▁መርህ	-9.97538
▁የባንኩ	-9.97538
▁ከስልጣን	-9.97567
were	-9.97597
▁የሲቪል	-9.97603
70	-9.97678
▁የማእድን	-9.97711
▁በመደገፍ	-9.97743
▁የለበትም	-9.97814
▁የአፍ	-9.97819
▁ለተለያዩ	-9.9782
▁ለመሳተፍ	-9.97822
▁ዳኝነት	-9.97839
300	-9.97922
▁የበላይ	-9.97942
▁የእርሻ	-9.98094
▁የአሜሪካን	-9.98133
▁ለማስፈን	-9.9815
▁ህጎች	-9.98179
▁የሚፈልጉ	-9.98237
▁አክሲዮን	-9.98261
▁በውይይት	-9.98296
▁team	-9.98414
▁አልቻሉም	-9.98424
▁ወ	-9.9846
▁አይቻልም	-9.98462
▁but	-9.98468
▁ከነገ	-9.98469
▁ከግምት	-9.98472
▁ወንጀሎች	-9.98507
▁በአካል	-9.98535
▁ደጋፊ	-9.9856
▁ወይ	-9.98627
▁ታስቦ	-9.98659
▁መጀመርያ	-9.98679
▁ነጋ	-9.98682
▁እያንዳንዱ	-9.98686
▁እነሱ	-9.98755
▁በአሰልጣኝ	-9.98829
▁የአሰልጣኝ	-9.98909
▁እያካሄደ	-9.98936
▁ያቀረበው	-9.98937
▁የእግርኳስ	-9.98956
▁እንደሚገባው	-9.98972
▁ማህበሩ	-9.98995
▁በመድረኩ	-9.99046
▁አይችልም	-9.99114
▁በመገንባት	-9.99124
ቲ	-9.9917
▁ለሁለተኛ	-9.99207
▁የእድሜ	-9.9921
▁ከአገር	-9.99212
▁የሚኒስትሮች	-9.99226
▁በሀይሉ	-9.99274
ፍፁም	-9.99279
▁ሁለቱን	-9.99284
የአለም	-9.99291
▁ከመሆኑ	-9.99317
▁መሆኑንና	-9.9935
▁እንዲፈጠር	-9.99411
▁በተካሄደ	-9.99427
▁አስኪያጁ	-9.99442
▁ለመሰብሰብ	-9.99446
▁ቤቱን	-9.99464
▁ካፒታል	-9.99471
▁900	-9.99485
▁ለሚሆኑ	-9.99516
▁ምትክ	-9.99619
▁ዘርፉን	-9.99724
▁ልደታ	-9.99762
▁አድሀኖም	-9.99771
▁ሀገራቱ	-9.99774
▁የሶማሊያ	-9.99786
▁ከእስር	-9.99801
ታቸው	-9.99806
▁አማራጮች	-9.99836
▁ለምሳሌ	-9.99849
▁በአገራችን	-9.99849
▁በሚለው	-9.99859
▁በመሄድ	-9.99872
▁የጀመሩት	-9.99956
▁በከተማው	-9.99965
▁አስፈፃሚው	-10.0001
ጥቂት	-10.0002
▁የተዘጋጀው	-10.0008
▁አመልክተው	-10.0011
▁የሚገባው	-10.0012
▁ግዛው	-10.0015
▁ገብረሚካኤል	-10.0015
▁ስፍራው	-10.0015
▁ሚዲያዎች	-10.0017
▁እሴቶች	-10.0018
▁ተከላካዮች	-10.0024
▁መስጠቱን	-10.0025
ሆኖም	-10.0033
▁አንበጣ	-10.0035
▁ያመለከቱት	-10.0039
▁መምራት	-10.0042
▁በትክክል	-10.0044
▁በተገቢው	-10.0045
▁ተናግረው	-10.0046
▁ላለ	-10.0046
▁ብቁ	-10.0047
▁ይዘት	-10.0048
▁በሀይል	-10.0049
▁አቡበከር	-10.0054
▁ሆና	-10.0064
▁ኑሮ	-10.007
▁የመማር	-10.0078
▁አማካዩ	-10.0079
▁በተሰጠው	-10.0085
▁የግድ	-10.0085
▁ባለሙያዎችን	-10.0087
▁ስደተኞችን	-10.0089
▁በተጠናቀቀው	-10.0093
▁በዩናይትድ	-10.0095
▁የክስ	-10.0097
▁አደገኛ	-10.0105
▁የአመራር	-10.0106
▁Cup	-10.011
▁እንድ	-10.0111
▁ቁሳቁሶች	-10.0115
▁አይነቶች	-10.0118
▁ጠቅሷል	-10.0126
▁ጠቃሚ	-10.0128
▁የሚንቀሳቀሱ	-10.0136
▁ካፍ	-10.0136
▁ለማስከበር	-10.014
▁አለማቀፍ	-10.014
▁የአሰራር	-10.014
▁he	-10.0141
በአዲስ	-10.0143
▁ግዛቶች	-10.0145
▁ወረርሽኙ	-10.0146
▁ለመወጣት	-10.0147
▁የተሰኘው	-10.0148
▁አቡነ	-10.0151
▁ሩጫ	-10.0161
▁ግራ	-10.0164
▁በመቃወም	-10.0179
▁አብደላ	-10.0179
▁እናቶች	-10.0182
▁እርሻ	-10.0185
▁ዩጋንዳ	-10.0191
▁ይኖርበታል	-10.0193
▁ህዝበ	-10.0197
ቢ	-10.0202
▁ከተ	-10.0202
▁አስታውሷል	-10.0207
▁አስተዳደሮች	-10.0211
▁ቆይቶ	-10.0211
▁ሆ	-10.0212
▁ቃሊቲ	-10.0212
▁ለዘመናት	-10.0215
▁ዘነበ	-10.0215
▁ተመጣጣኝ	-10.0216
▁እቅዱ	-10.0227
▁መደረግ	-10.0227
▁ገለልተኛ	-10.0229
▁ችግኞችን	-10.0229
▁ጊኒ	-10.0232
▁የእንግሊዝ	-10.0234
▁እንዲኖረው	-10.0245
▁ሀውስ	-10.0247
▁በስፍራው	-10.0249
▁I	-10.0255
▁ውጥረት	-10.0255
▁የሰላምና	-10.0256
▁ሄኖክ	-10.0258
▁የአባይ	-10.0268
▁አቅጣጫዎች	-10.0271
▁እውነት	-10.0277
▁የእንስሳት	-10.028
▁ከመስመር	-10.0281
▁የፊት	-10.0283
ያን	-10.0286
▁መወጣት	-10.0287
▁የአምስት	-10.0288
▁ስምምነቱን	-10.0294
▁የሚደርስ	-10.0294
FBC	-10.0302
▁እርምጃዎችን	-10.0302
▁የአደጋ	-10.0307
▁ነክ	-10.0308
▁የተሰጠውን	-10.0313
▁ይዞታ	-10.0316
▁የወጪ	-10.0317
▁የዋስትና	-10.0349
▁ያስተናገደው	-10.0349
▁የተለያየ	-10.0351
▁ማከናወን	-10.0353
2017	-10.0362
▁ጥናቱ	-10.0372
▁ሜዳሊያ	-10.0374
▁ለማስወገድ	-10.0381
2015	-10.0381
▁የሞከረው	-10.0393
▁ለውጦች	-10.0395
▁በግድቡ	-10.0395
▁ሴቶችን	-10.0396
ቻቸው	-10.0398
ቃ	-10.0405
▁በራስ	-10.0411
ቡ	-10.0412
▁በመጠቆም	-10.0417
▁የቆዩት	-10.0418
ነገር	-10.0429
▁ስለነበር	-10.0429
▁የሳይንስና	-10.0431
▁ሀብረተሰቡ	-10.0435
▁ወንድ	-10.0435
▁ሁኔታዎችን	-10.0445
▁ጎዳና	-10.045
▁አስመልክተው	-10.045
▁ማኔጅመንት	-10.0451
▁ያስታወቁት	-10.0451
▁ልደቱ	-10.0451
▁እሳት	-10.0452
▁ዮሴፍ	-10.0453
▁ባህሪ	-10.0457
ቆ	-10.0458
▁መገርሳ	-10.0461
▁ቦጋለ	-10.0461
▁ኪሳራ	-10.0464
▁በውሀ	-10.0466
▁የመጣውን	-10.0466
▁የጎዳና	-10.0467
▁ካርታ	-10.0471
▁አሳልፏል	-10.0477
▁lead	-10.0478
▁የሚገመት	-10.0487
በተለይም	-10.049
▁ተስማምተዋል	-10.0497
▁የመሳሰሉ	-10.0498
ስተናግዶ	-10.0498
▁ጉዳተኞች	-10.0498
▁አይን	-10.0502
▁አለኝ	-10.0504
▁የኢፌዲሪ	-10.0511
▁የቀረቡ	-10.0514
▁ቀጠና	-10.0517
ጎ	-10.0519
▁እልባት	-10.052
▁የሀብረተሰብ	-10.0522
ክርሮ	-10.0526
▁አባላቱ	-10.0529
▁ዩኒቨርሲቲው	-10.0533
▁ለመጀመርያ	-10.0534
▁የአንበጣ	-10.0539
▁ልብ	-10.054
▁መዋላቸውን	-10.054
▁ከንቲባው	-10.0544
▁ተቋማቱ	-10.0544
▁ይህንንም	-10.0545
▁በፅህፈት	-10.0548
▁ፈተናዎች	-10.0549
▁እየተንቀሳቀሰ	-10.0554
▁እንዲችሉ	-10.0555
▁ማነስ	-10.0555
በር	-10.0556
▁ባይደን	-10.0564
▁የሚቆይ	-10.0564
▁ዲሲ	-10.0567
▁ሳላዲን	-10.0567
▁መሰረትም	-10.0568
▁ተቃዋሚ	-10.0586
▁ቡናዎች	-10.0588
▁ለማለፍ	-10.059
2019	-10.0592
ንግ	-10.0593
▁ብሄሮች	-10.0594
▁በማካሄድ	-10.0596
▁ቱርክ	-10.0602
▁ውስጥም	-10.0604
▁ህሙማን	-10.0607
▁ድጋፉ	-10.0607
▁መጀመር	-10.0621
▁ጀምረዋል	-10.0623
▁ገረመው	-10.0625
▁ቁርጠኝነት	-10.0628
▁ፈቃደኛ	-10.0629
▁የሞት	-10.0633
▁በአባይ	-10.0634
▁የሚታዩ	-10.0637
▁የውድድሩ	-10.0639
▁ፍተሻ	-10.0643
▁ጥናቶች	-10.0646
▁እነ	-10.0648
▁መያዛቸውን	-10.0649
▁1000	-10.0654
▁አርባ	-10.0662
▁ዲላ	-10.0664
▁ከስድስት	-10.0664
▁ማስፈፀሚያ	-10.0665
▁መሄድ	-10.0669
▁የሚያደርጉትን	-10.0674
▁half	-10.0696
▁ስትሆን	-10.0696
▁በመጫወት	-10.0701
▁ኖሮ	-10.0709
▁ቁጥራቸው	-10.0718
▁S	-10.0722
▁በደረሰው	-10.0729
▁የተሻሉ	-10.0731
ዝርዝሩ	-10.0732
2020	-10.0733
▁አቀባዩ	-10.0736
ትን	-10.0738
▁ከመከላከያ	-10.074
▁በዚያ	-10.0742
▁ፕሬዝዳንቱ	-10.0744
▁እርሳቸው	-10.0747
▁አጥ	-10.0747
▁ፓርላማ	-10.0755
▁ባሉበት	-10.0761
▁ለመውሰድ	-10.077
▁የወዳጅነት	-10.077
▁አባት	-10.0771
▁ሚልዮ	-10.0772
እስካሁን	-10.0785
▁ግብአቶች	-10.0786
▁ስለሚ	-10.0787
▁የት	-10.0791
▁በሽታዎች	-10.0795
▁ውሳኔውን	-10.0796
▁34	-10.0797
▁coach	-10.0801
▁ገደማ	-10.0801
▁ክረምት	-10.0803
▁ደበበ	-10.0803
▁ፈታኝ	-10.0804
▁አቅራቢያ	-10.0808
▁በነፃነት	-10.0815
▁መመርያ	-10.0825
▁አምባሳደሩ	-10.0826
▁መፅሀፍ	-10.0827
▁ይገልፃል	-10.0828
▁ኤን	-10.0835
▁እንዲቆም	-10.0838
▁ስፖርታዊ	-10.0845
▁በለይቶ	-10.0845
▁አንተነህ	-10.0848
▁ድርጊቱን	-10.0855
▁በቴክኖሎጂ	-10.0856
▁በኢኮኖሚ	-10.0859
▁የሚገባ	-10.086
▁ማለፉ	-10.0862
▁በአልን	-10.0863
▁ዲኤታ	-10.0864
▁እንዲያ	-10.0864
▁መግቢያ	-10.0865
▁መዘገባችን	-10.0873
▁የሚጠበቅ	-10.0873
▁League	-10.0873
▁እመቤት	-10.0875
▁በፖሊስ	-10.0875
▁ካምፕ	-10.0876
▁ኢንዱስትሪዎች	-10.088
▁መሳይ	-10.0884
ኔ	-10.0887
▁እንክብካቤ	-10.0891
▁የፍርድ	-10.0893
▁ነዉ	-10.0894
ጅ	-10.0909
▁ጥቁር	-10.091
▁ሚንስትሩ	-10.0912
▁የቅርብ	-10.0916
▁ማሀበራት	-10.092
▁የገጠር	-10.092
▁ሰንደቅ	-10.0925
ናቸው	-10.0926
▁ተይዞ	-10.0938
▁ባል	-10.0945
▁አጠናክረው	-10.0946
▁ለመቀየር	-10.0947
▁ከብሄራዊ	-10.095
▁ቫይረስን	-10.0951
▁የሚችለውን	-10.0955
▁ተመላክቷል	-10.0955
▁እንደሚገኝም	-10.0958
▁ቀጥተኛ	-10.0958
▁በቦታው	-10.0959
▁ልኡካን	-10.096
▁ይነገራል	-10.0967
2018	-10.0971
▁ሀሳባቸውን	-10.0972
▁ማስታወቂያ	-10.0975
35	-10.0976
▁መጠለያ	-10.0979
▁በፌስቡክ	-10.0986
▁minutes	-10.0987
▁ዮናስ	-10.0989
▁መለያ	-10.0996
▁የተፈናቀሉ	-10.0997
▁ባለሙያው	-10.0998
ሁለቱ	-10.0999
▁ለክለቡ	-10.1003
▁እድሜያቸው	-10.1006
▁ግደይ	-10.1018
▁አረጋ	-10.102
▁መሰራት	-10.102
ላይ	-10.102
▁ሲቪል	-10.1031
▁የደረጃ	-10.1032
▁ተጠቃሚዎች	-10.1035
▁ሁሌም	-10.1036
▁በዞኑ	-10.1036
▁የሚጠጉ	-10.1038
▁ፍሰት	-10.1043
▁የፌዴሬሽኑ	-10.1043
▁ራሱ	-10.1049
▁club	-10.105
▁አመለካከት	-10.1051
▁ተከስቶ	-10.1055
▁አረጋግጧል	-10.1061
▁የደም	-10.1067
በዛሬው	-10.1072
▁የጅማ	-10.1072
▁ግድቡን	-10.1077
▁የተሳካ	-10.1078
▁አልባሳት	-10.108
▁ከአማራ	-10.1092
▁ቃሲም	-10.1092
▁እንደሚሆኑ	-10.1093
▁በየትኛውም	-10.1093
▁ሂደቱን	-10.1093
▁ማሻሻል	-10.1093
▁ታላላቅ	-10.1094
2016	-10.1094
▁በደንብ	-10.1095
▁መካሄድ	-10.1095
▁መስዋእትነት	-10.1096
▁ካሬ	-10.1098
▁ከኦሮሚያ	-10.11
▁ከድር	-10.1106
▁በክረምቱ	-10.1106
▁ተዘግቧል	-10.1124
▁ላቀ	-10.1125
▁አሳይቷል	-10.1128
▁ሰራሽ	-10.113
መልስ	-10.1134
▁ነች	-10.1137
▁ህይወቱ	-10.1156
ፕሬዚዳንቱ	-10.1157
▁የዲፕሎማሲ	-10.1166
▁ብዙዎች	-10.1169
ዩናይትድ	-10.1172
▁የቀረበውን	-10.1179
▁በሶማሌ	-10.118
▁ሳኡዲ	-10.1181
▁የፌዴሬሽን	-10.1181
▁የተሰኘ	-10.1189
▁የወላይታ	-10.1192
▁መንበር	-10.1197
▁ባለመቻሉ	-10.1203
▁የእጅ	-10.1204
▁ፈረንሳይ	-10.1206
▁ተወስኗል	-10.1206
▁ሲሰጥ	-10.1208
▁መቼ	-10.121
▁ሀጫሉ	-10.1212
▁አድርገን	-10.1215
▁ጄነራል	-10.1222
▁የፖሊሲ	-10.1223
▁ሀላፊነታቸውን	-10.1225
▁ህዝብና	-10.1226
▁ሚስተር	-10.1231
▁አረንጓዴ	-10.1235
▁የስልክ	-10.1243
▁መዳረሻ	-10.1244
▁እንደተገኘባቸው	-10.1249
▁36	-10.1257
▁ስታ	-10.126
▁ለብሄራዊ	-10.1263
▁ትገኛለች	-10.1265
▁የእስራኤል	-10.1267
▁በርካቶች	-10.1271
▁ይጀምራል	-10.1277
▁ከፋዮች	-10.1277
▁ወለጋ	-10.1279
▁ተነሳሽነት	-10.128
▁by	-10.128
▁አብዲሳ	-10.1281
▁የመሪዎች	-10.1282
▁ፕሬዝደንት	-10.1285
▁ረፋድ	-10.1285
▁ህንድ	-10.1286
▁ለአመታት	-10.129
a	-10.13
▁በፍፁም	-10.1309
▁የተቃውሞ	-10.1313
▁ትክክል	-10.1315
▁ነባራዊ	-10.1316
▁an	-10.1316
▁ግድ	-10.1316
▁ወጥተው	-10.1317
ቁ	-10.1319
▁እንደሌለው	-10.132
▁ኦነግ	-10.1322
ሰን	-10.1324
500	-10.1326
▁600	-10.1327
▁ስትል	-10.1329
▁በፈረንጆቹ	-10.1331
▁እንዳለበትም	-10.1334
▁ሲያ	-10.1335
▁ብረት	-10.1335
▁ማስጨበጫ	-10.1337
▁ተጠሪ	-10.1339
▁መስፈርት	-10.1355
▁ሀይለማሪያም	-10.1356
▁ደመወዝ	-10.1365
▁የምእራብ	-10.1366
▁በመቐለ	-10.1368
▁በመጠበቅ	-10.137
▁የወጡ	-10.1372
▁የገቢዎች	-10.1376
▁ዳሽን	-10.1381
▁ተመራጭ	-10.1381
▁ጋና	-10.1383
▁በተከሰተው	-10.1384
▁ሻምፒዮና	-10.1387
▁ለማስቆም	-10.139
▁አይገባም	-10.1394
▁የአጥቂ	-10.1395
▁ታዬ	-10.1397
▁የቫይረሱን	-10.1397
▁በሚፈለገው	-10.1404
▁ሰሌዳ	-10.1408
▁ሀይማኖታዊ	-10.141
▁ከግብ	-10.1413
▁ከእነዚህም	-10.1419
0	-10.142
▁የራሳቸውን	-10.1426
▁የራሱ	-10.1429
▁ይዟል	-10.1429
ፉ	-10.1429
ሪያ	-10.143
▁ውዝግብ	-10.1432
▁ቆሻሻ	-10.1442
▁ከበሽታው	-10.1443
▁መገለጫ	-10.1446
ፕ	-10.1453
▁የታየበት	-10.1455
▁የፈጠራ	-10.1462
▁መንግስትም	-10.1462
▁መጠበቂያ	-10.1463
▁ማዳበሪያ	-10.1464
▁ተነስቶ	-10.1466
▁ማምጣት	-10.1468
▁ኮሚቴዎች	-10.1468
▁ፈራሚ	-10.1468
▁ሀይቅ	-10.1469
▁ኤም	-10.1474
እ	-10.1474
▁season	-10.1476
▁ከሆኑ	-10.1481
▁እየተደረገላቸው	-10.1483
▁ስፋት	-10.1484
▁ናይጄሪያ	-10.1488
▁ከቀናት	-10.149
▁ልቦና	-10.1491
▁በህብረተሰቡ	-10.1494
▁ጥረቶች	-10.1499
▁የተጫዋቾች	-10.1505
▁በመነጋገር	-10.1505
▁ተቋርጦ	-10.1505
▁ተጫዋቾቹ	-10.1509
ኢዜአ	-10.151
▁መብራቱ	-10.1514
▁ለውጡን	-10.1518
▁ሊጉን	-10.1524
በተመሳሳይ	-10.1535
▁ግሩፕ	-10.1544
▁የወጣ	-10.1553
▁Sidama	-10.1554
▁በምድብ	-10.1564
▁አማረ	-10.1568
ዉን	-10.1574
▁እንዲከበር	-10.1578
▁መረጃው	-10.158
▁two	-10.1582
▁መርምሮ	-10.1582
▁ሊትር	-10.1585
▁ሶዶ	-10.1586
▁በአቻ	-10.1587
▁ኮርያ	-10.1592
▁በልማት	-10.1593
▁ይናገራል	-10.1595
▁ጉምሩክ	-10.16
▁እንደዚህ	-10.1601
ግብ	-10.1601
▁በተዘጋጀው	-10.1603
▁ክብረ	-10.1604
k	-10.1605
▁ፕሬዘዳንት	-10.1613
▁ሊሆኑ	-10.1622
▁ለመቀበል	-10.1622
▁ሲናገሩ	-10.1624
▁በርከት	-10.1625
▁እኮ	-10.1628
▁ሲታይ	-10.1629
▁የመጀመሪያውን	-10.1634
▁በያዝነው	-10.1635
▁ስንዴ	-10.164
▁የዘርፉ	-10.164
▁አስከባሪ	-10.1643
▁አት	-10.1643
▁በጉባኤው	-10.1644
▁የሌሎች	-10.1646
▁የእለት	-10.1651
▁ያስረዳሉ	-10.1653
29	-10.1655
▁ላሉ	-10.1656
▁ጨዋነት	-10.1656
▁ወረርሽኙን	-10.1656
▁ይጠናቀቃል	-10.166
▁ማወቅ	-10.166
▁ባቀረቡት	-10.166
▁በጥልቀት	-10.1661
▁አዱኛ	-10.1662
▁የቅጣት	-10.1666
▁አዘጋጅነት	-10.167
▁እየተሳተፉ	-10.1678
አብመድ	-10.1683
▁ቁሳቁሶችን	-10.1689
▁አምበል	-10.1692
▁ልማቶች	-10.1696
ሰው	-10.1698
▁እንዲጠናቀቅ	-10.1701
▁ለሌላ	-10.1701
▁ከሚገኘው	-10.1705
▁ፎቶ	-10.171
▁በሚያደርጉት	-10.1719
▁በፌደራል	-10.173
▁ሴራ	-10.1735
ፍርድ	-10.1736
▁ተይዘው	-10.1738
ጉ	-10.1739
▁ማሳየት	-10.174
▁ጉድለት	-10.1741
▁እንደሚጀምር	-10.1742
▁በመግለጫቸው	-10.1743
▁የሚጠበቀው	-10.1745
▁ማምሻውን	-10.1747
▁የሚታወቅ	-10.1747
▁አብዛኛዎቹ	-10.175
በክልሉ	-10.1753
▁ከሰአት	-10.1754
▁እንደነበርም	-10.1755
▁በቅዱስ	-10.1759
▁38	-10.1759
90	-10.176
▁በመልካም	-10.1763
▁የደን	-10.1772
▁በተፈጠረ	-10.1773
▁ተቀምጧል	-10.1776
አፋጣኝ	-10.1778
▁ለማገዝ	-10.178
▁ወስደው	-10.1782
▁አገልግሎቱ	-10.1789
▁42	-10.1793
▁እንዲቆዩ	-10.1796
▁ታዳጊዎች	-10.1798
▁ውይይቱ	-10.1798
▁ታይቷል	-10.1799
▁በስነ	-10.18
▁ሲገባ	-10.1801
▁ቻምፒዮና	-10.1803
▁ዝግ	-10.1809
▁ጎብኝተዋል	-10.1813
▁አሳልፎ	-10.1817
▁ወልዴ	-10.1817
▁መጥቷል	-10.1817
▁ወጣ	-10.182
▁አርሲ	-10.1823
▁የሚፈጥር	-10.1824
ቲን	-10.1825
▁የአመቱ	-10.1827
▁በመላክ	-10.1827
▁አደም	-10.183
▁44	-10.1831
▁ተሰጥቶ	-10.1832
▁አንድነትን	-10.184
▁በተባለው	-10.1842
▁ተሽከርካሪ	-10.1843
▁ስለሆነም	-10.1843
▁ጥፋተኛ	-10.1844
▁ብላ	-10.1845
▁እንዲሰራ	-10.1846
▁back	-10.1859
▁መያዛቸው	-10.186
ተው	-10.1865
▁የነበሩትን	-10.1865
80	-10.1871
▁የአድዋ	-10.1874
▁አቻቸው	-10.1877
▁የሚጠይቅ	-10.1882
▁በሙስና	-10.1885
▁ከተጀመረ	-10.1889
▁ማር	-10.1894
▁በመጀመርያው	-10.1894
▁ሞክሮ	-10.1896
▁ለመታደግ	-10.1899
▁እምብዛም	-10.1899
▁ብለዋልበ	-10.1903
▁ብ	-10.191
▁በጋምቤላ	-10.191
▁ልብስ	-10.191
▁ከሜዳው	-10.1925
▁እንዲገባ	-10.1933
▁ልት	-10.1933
▁መሳሪያዎችን	-10.1935
▁ገበየሁ	-10.1936
▁ፖስት	-10.1937
▁የሁለተኛ	-10.1938
▁ፍለጋ	-10.1938
▁ለማሸነፍ	-10.1939
▁ደርሰዋል	-10.1939
▁ያለበትን	-10.1939
▁ተመልሶ	-10.194
▁የእንኳን	-10.1943
▁በመሀል	-10.1943
▁የደረሰባቸው	-10.1948
ባህር	-10.1952
▁ሆኑ	-10.1954
▁በጅማ	-10.1957
▁65	-10.1963
▁እንዲሰፍን	-10.1966
▁ይገባዋል	-10.1977
▁ለማስተካከል	-10.1977
▁ያነጋገራቸው	-10.1977
▁በመነሳት	-10.1978
▁ለማየት	-10.1979
▁አይደሉም	-10.1979
▁ኮንፈረንስ	-10.198
▁ተሻጋሪ	-10.1983
▁ሰብል	-10.1984
▁አቅሙ	-10.1985
▁አወል	-10.1987
▁ገልፀዋልበ	-10.1987
▁ጀርመን	-10.1991
▁የሚመሩት	-10.1993
▁የገለፁ	-10.1994
▁የዞኑ	-10.1994
▁የመድሀኒት	-10.2005
▁who	-10.2006
▁ምርጫውን	-10.2012
▁ተጠርጣሪ	-10.2016
▁እንዲቻል	-10.2017
▁ለማክበር	-10.2018
▁ጳውሎስ	-10.2021
▁ሲገቡ	-10.2022
ቻ	-10.2033
▁በጎንደር	-10.2037
▁2020	-10.2054
▁ማሰልጠኛ	-10.2055
▁የተሳሳተ	-10.206
▁እንደገለፀው	-10.2062
▁እያንዳንዳቸው	-10.2065
▁በሁለተኛ	-10.2066
▁መከበር	-10.207
▁ጥናትና	-10.2089
▁we	-10.2092
▁የወቅቱ	-10.2094
▁win	-10.2095
▁በታሪክ	-10.2096
▁መሰብሰብ	-10.2098
▁ክፍሌ	-10.2099
▁ተለዋጭ	-10.2099
በዚሁ	-10.21
▁እየሰጡ	-10.2101
The	-10.2101
▁ከፌዴራል	-10.2105
የአማራ	-10.2105
33	-10.2106
▁ጆን	-10.2109
▁ወልድያ	-10.2112
ይሁን	-10.2118
▁ፊልም	-10.2118
▁የጎርፍ	-10.2125
▁ድጋፉን	-10.2129
▁ግንባታዎች	-10.2129
ምድብ	-10.213
ሻ	-10.2133
ነህ	-10.2134
▁ዘወትር	-10.2136
▁ቆይታቸው	-10.2138
▁የጥራት	-10.2143
▁በስድስት	-10.2148
▁እንሰራለን	-10.2148
▁የሶማሌ	-10.215
▁እያደረገች	-10.2151
▁ይጠቁማል	-10.2163
የአፍሪካ	-10.2164
▁ከአውሮፓ	-10.2177
▁ጥናታዊ	-10.2185
▁ተኩስ	-10.2186
▁አመራሮችና	-10.2186
ዚ	-10.2193
▁ያስቆጠረው	-10.2203
▁በምክር	-10.2205
▁ለመያዝ	-10.2208
▁አማ	-10.2212
▁እንደሚጀመር	-10.2221
▁እንዲቀርቡ	-10.2222
▁players	-10.2222
▁መፈፀም	-10.2223
▁ነ	-10.2227
▁ስምምነቶች	-10.2228
▁እየተሰጠ	-10.2229
▁ደሞዝ	-10.2231
▁ከፍተኛው	-10.2233
▁ነገሌ	-10.2234
▁አላ	-10.2239
▁እጩዎች	-10.224
▁ጨዋታቸውን	-10.224
▁ትግበራ	-10.2252
▁መግባታቸውን	-10.2253
ገ	-10.2254
▁time	-10.2259
▁150	-10.2262
▁ሰራተኞችን	-10.2262
▁እንዲያገኝ	-10.2263
▁ቫይረሱን	-10.2263
▁ቦታው	-10.2264
▁ኪራይ	-10.2271
ማስጠንቀቂያ	-10.2272
▁ጃፓን	-10.2274
▁ኢትዮጵያና	-10.2277
▁አስተላልፏል	-10.2285
▁ስን	-10.2286
አለም	-10.2288
▁የግብር	-10.2289
▁ህብረተሰቡን	-10.2291
▁ጉባኤውን	-10.2292
▁ይግባኝ	-10.2296
u	-10.23
ተኛ	-10.23
▁ለማስቻል	-10.2304
▁በማስመልከት	-10.2305
▁አዲግራት	-10.2308
▁አልቻልንም	-10.2309
▁እንደሚቀጥሉ	-10.2311
▁ሱራፌል	-10.2318
▁አደረገ	-10.232
▁ጠባቂዎች	-10.2323
▁ምክንያቱ	-10.2327
▁ቆጠራ	-10.2328
▁ለማውጣት	-10.233
▁አጋርነት	-10.2332
▁ሽብር	-10.2333
▁ከቤት	-10.2333
▁የምታደርገውን	-10.2344
▁Bank	-10.2345
▁home	-10.2345
▁ብለዋልየ	-10.2346
▁ለማጥፋት	-10.2347
▁ቅናሽ	-10.235
▁ድርጊቶች	-10.2353
▁ትልልቅ	-10.2357
▁ፀጋ	-10.236
▁ፈንታ	-10.236
▁የተቀላቀለው	-10.2361
▁የሚባለው	-10.2362
▁ለሀገሪቱ	-10.2363
▁43	-10.2363
▁መጀመሩ	-10.237
▁ዩሮ	-10.2378
▁እኔም	-10.2378
▁ያደርገዋል	-10.2387
▁እንዲቀጥሉ	-10.2389
▁ለገበያ	-10.2399
▁አራቱ	-10.2402
▁በግብ	-10.2403
ዴ	-10.2406
▁ስማቸው	-10.2409
ኖች	-10.2411
ጨዋታው	-10.2416
▁ከትምህርት	-10.2416
ጂ	-10.2417
▁አዋጁን	-10.2418
▁መንግስቱን	-10.242
▁የአሁኑ	-10.2422
▁ስነስርአቱ	-10.2431
▁ተኮር	-10.2433
▁ቀርተዋል	-10.2437
▁ቢንያም	-10.2441
▁ሀላባ	-10.2442
ፋ	-10.2446
▁የፈረንሳይ	-10.2452
▁ሁኔታው	-10.2452
▁የተባሉት	-10.2454
▁የጁንታው	-10.2454
ፈ	-10.2458
▁ድርድሩ	-10.2463
▁የተፈፀመው	-10.2464
በአጠቃላይ	-10.2471
▁ፈፅመዋል	-10.2471
▁የፀጥታው	-10.2472
ድርጅቱ	-10.2474
▁የላብራቶሪ	-10.2475
▁መስኖ	-10.2476
▁በቤኒሻንጉል	-10.2479
▁በለጠ	-10.248
▁የስኳር	-10.2482
▁ጥቃቱ	-10.2483
▁ዋነኛው	-10.2491
▁ግራም	-10.2499
▁ለማስቀረት	-10.2514
▁በመቀነስ	-10.2515
▁ከመ	-10.2516
▁ማሰባሰብ	-10.2517
▁ቡክ	-10.2517
▁ማድረስ	-10.2517
▁አስተናጋጅነት	-10.2518
▁የተደረጉ	-10.2519
▁ኦዲት	-10.2519
▁ሀሳቦችን	-10.2521
▁እንዳላት	-10.2524
▁አውሮፕላኖች	-10.2526
ወ	-10.2528
▁ወይንም	-10.2528
▁Wolait	-10.2529
▁የያዘው	-10.2529
▁በቦሌ	-10.253
▁ስላሴ	-10.2537
▁ጤንነት	-10.2544
▁መጨመር	-10.2553
በሁለተኛው	-10.2553
▁ፋብሪካው	-10.2554
▁አለመኖሩን	-10.2559
▁ቀሪዎቹ	-10.256
▁ማጥፋት	-10.256
▁ንፁህ	-10.2561
▁it	-10.2564
▁አፈወርቂ	-10.2565
ጉዳት	-10.2573
▁ታራሚዎች	-10.2574
▁የአቶ	-10.2577
▁ብሩ	-10.2578
▁በሽታው	-10.2585
▁ፊርማ	-10.2585
▁የረጅም	-10.2595
▁ተጠቅመው	-10.2599
▁ይፈጥራል	-10.2599
▁አውስተዋል	-10.2602
▁በከፊል	-10.2603
▁መቀየር	-10.2604
ነቱን	-10.2611
▁የሚባሉ	-10.2613
32	-10.2614
▁ሲቲ	-10.2616
በሽታው	-10.2617
▁አምባሳደሮች	-10.2623
▁እንዲኖራቸው	-10.2633
▁ህፃናትን	-10.2633
▁ያለፈው	-10.2635
▁የአሜሪካው	-10.2636
▁ማግስት	-10.2642
▁ስምሪት	-10.2643
▁ሞሮኮ	-10.2644
▁የቱሪስት	-10.2644
▁የጥናት	-10.2644
▁የዘገበው	-10.2645
▁የህብረተሰቡን	-10.2646
▁ኦፍ	-10.2651
▁ትምህርታቸውን	-10.2651
▁ጉልበት	-10.2657
▁በሰፊው	-10.2659
▁የካፍ	-10.2663
▁የተካሄደ	-10.2663
▁ንፁሀን	-10.2672
▁አብ	-10.2674
▁አፅድቋል	-10.2676
▁የፈፀመው	-10.2677
▁እስ	-10.268
▁ያገኘው	-10.268
▁አፋጣኝ	-10.2685
▁ባለመኖሩ	-10.2685
▁ለመመስረት	-10.2685
▁ታመነ	-10.2689
▁የንፅህና	-10.269
▁ወሬ	-10.2695
▁800	-10.2696
▁የተጀመሩ	-10.2698
▁ውህደት	-10.2701
▁ዲና	-10.2707
▁አስተዳደርና	-10.2708
▁ስራቸው	-10.271
▁ማግኘቱን	-10.2711
▁የተሰጠ	-10.2711
▁በምርጫው	-10.2715
▁ጋ	-10.2724
▁ለመቋቋም	-10.2729
▁መፅሄት	-10.2729
▁ገልፃለች	-10.2729
▁ተስተውሏል	-10.273
▁ለማዘጋጀት	-10.273
▁ማሳካት	-10.2732
በሀገሪቱ	-10.2732
▁ሞ	-10.2734
▁የቤተሰብ	-10.2735
▁ተከሳሽ	-10.2739
▁አመፅ	-10.2739
▁በክሱ	-10.2744
▁ቅርሶች	-10.2745
▁ሀገሪቱን	-10.2746
▁ደረጃዎች	-10.2752
▁ከመስከረም	-10.2756
▁2017	-10.2756
▁ወረራ	-10.2765
▁መቀመጫ	-10.277
▁የዛሬው	-10.277
▁እንችላለን	-10.2772
▁ያደረግነው	-10.2772
▁54	-10.2774
▁በማሀበራዊ	-10.2776
▁ለመቆየት	-10.2778
▁የተገኘውን	-10.278
እሁድ	-10.2803
▁የኳስ	-10.2806
▁የዜጎች	-10.2807
ያቸው	-10.2807
▁ታይቶ	-10.2816
▁ጣሰው	-10.2816
▁አስከፊ	-10.2817
▁ለማስቆጠር	-10.2819
▁በየቀኑ	-10.2819
36	-10.282
▁ከፀጥታ	-10.2822
▁ስጦታ	-10.2824
▁de	-10.2827
▁አንድም	-10.2842
▁አካባቢውን	-10.2845
▁ማእድን	-10.2848
▁የቀረቡት	-10.2857
▁የእድገት	-10.2857
▁ለልማት	-10.2859
▁አቅርበው	-10.286
▁ሊያደርግ	-10.286
▁ተፈሪ	-10.2861
የደቡብ	-10.2871
▁ሆቴሎች	-10.2871
▁በጊዜ	-10.2875
▁ፕሮግራሞች	-10.2876
▁ዲፕሎማቶች	-10.2877
▁መወሰኑ	-10.2879
ሚኒስትሩ	-10.2881
▁ኮማንድ	-10.2889
▁ተጨዋቾችን	-10.289
▁በጥንቃቄ	-10.289
▁የአካባቢውን	-10.2891
▁ማይክ	-10.2902
▁ቅስቀሳ	-10.2906
▁የቆየውን	-10.2908
▁ከጤና	-10.2909
▁መላ	-10.2909
▁የመጡት	-10.2914
▁ጀርባ	-10.2915
▁ስልት	-10.2921
▁የሚታወቀው	-10.2922
▁ክፍሉ	-10.2924
▁ዳኛቸው	-10.2924
▁የተሟላ	-10.2924
▁አይነቱ	-10.2924
▁ሊደረግ	-10.2927
▁የሳኡዲ	-10.2929
▁ተሸላሚ	-10.2929
▁እኩልነት	-10.2929
▁ሊቢያ	-10.294
▁አቀፋዊ	-10.2942
▁ቁርጠኛ	-10.2942
▁መንደር	-10.2945
▁ሲደርሱ	-10.2949
▁ሲጠበቅ	-10.2949
▁እንግዳ	-10.2949
ጌ	-10.2954
▁ግዢ	-10.2955
▁በማከናወን	-10.2956
▁በፍርድ	-10.2957
▁እሱ	-10.2957
▁የአፋር	-10.2959
▁ያክል	-10.2962
▁መቆም	-10.2962
▁ካሉት	-10.2963
▁አለን	-10.297
▁ድህነት	-10.2972
▁37	-10.2973
▁አምስተኛ	-10.2974
▁ማቅረባቸውን	-10.2975
▁በሲዳማ	-10.2982
▁ዴኤታው	-10.2985
▁በቤት	-10.2986
▁አድርገናል	-10.2992
▁በመቀበል	-10.2992
▁የመጠጥ	-10.2995
▁የሀብት	-10.2997
▁ለመከላከልና	-10.2997
▁የአቅም	-10.2998
▁በእግር	-10.2998
▁ተቋማዊ	-10.2999
▁ኤርሚያስ	-10.3
▁ለምክር	-10.3001
▁ጠበቃ	-10.3001
▁የሴካፋ	-10.3004
▁እንጅ	-10.3007
▁2006	-10.3008
▁አርአያ	-10.3016
▁ከህብረተሰቡ	-10.3018
▁ከዚያም	-10.3019
▁ምሳሌ	-10.302
▁ቤቶቹ	-10.302
▁እየወሰደ	-10.3025
▁በደረሰ	-10.303
▁ምስክር	-10.3032
▁እይታ	-10.3033
▁የደረሰውን	-10.3035
▁መመልከት	-10.3038
▁ማርቆስ	-10.3039
▁በመፈፀም	-10.3039
▁በመቀየር	-10.3042
▁የእኛ	-10.3048
▁ከክልል	-10.3048
የኦሮሚያ	-10.3051
▁በስልጣን	-10.3053
▁ዳ	-10.3053
▁ጊዜው	-10.3055
▁ተግዳሮቶች	-10.3057
▁ህልውና	-10.3064
▁መፈፀሙን	-10.3064
ሳምንቱ	-10.3081
▁አብዱላሂ	-10.3082
▁እንደሚሰራም	-10.3084
▁ደረጀ	-10.3084
▁የሚችሉበት	-10.3086
▁ፕላን	-10.3089
▁የሶስትዮ	-10.309
▁አፈጉባኤ	-10.309
▁የማንነት	-10.3093
▁የመክፈቻ	-10.3093
▁ሳጥን	-10.3101
400	-10.3105
▁በህወሀት	-10.3106
▁የተሰሩ	-10.3108
▁2016	-10.311
▁ኮርፖሬሽኑ	-10.3114
▁ሲልም	-10.312
▁ካሚል	-10.3127
▁ማስቀጠል	-10.3128
▁አውደ	-10.313
▁ብጥብጥ	-10.3133
▁ከትግራይ	-10.3136
ጨ	-10.3136
▁ቢኒያም	-10.3137
▁የአቋም	-10.314
▁off	-10.3152
▁ቦታዎችን	-10.3155
▁የተሰጣቸው	-10.3159
▁በተደረጉ	-10.3159
▁መጥፎ	-10.316
▁ተነስቷል	-10.3163
▁አግኝቷል	-10.3164
▁ራእይ	-10.3171
▁አጠናቆ	-10.3172
▁የተመለከተው	-10.3172
▁Nig	-10.3172
▁መረዳት	-10.3173
▁ያልተ	-10.3177
ጫ	-10.3179
▁A	-10.3181
▁ውጊያ	-10.3183
▁የኖቤል	-10.3187
▁ገባ	-10.3187
▁የስልጠና	-10.3192
▁የሚቀጥል	-10.32
▁መስፋፋት	-10.3206
▁አማራጮችን	-10.3209
▁በመምጣቱ	-10.3216
▁ባወጡት	-10.3217
▁አልያም	-10.3219
▁አሽከርካሪዎች	-10.3219
▁አይሆንም	-10.322
▁በመሳተፍ	-10.3221
▁በድል	-10.3241
▁አገልግሎቶችን	-10.3248
ተር	-10.3248
ጃ	-10.3249
▁ቀርቶ	-10.3262
▁እንደዘገበው	-10.3264
▁ፈይሳ	-10.3264
▁በማግኘት	-10.3265
▁ብይን	-10.3268
▁ይጠቁማሉ	-10.3271
▁ኮ	-10.3272
▁የሚኖረው	-10.3273
▁ኮንግረስ	-10.3273
▁ማህበረሰቡ	-10.3273
▁ከቅዱስ	-10.3273
▁ፕሬዚዳንታዊ	-10.3276
የፌዴራል	-10.3283
▁ሰምተናል	-10.3286
▁ካል	-10.3289
▁የሴቶችን	-10.3289
▁መቆየቱ	-10.3293
▁ወዳጅነት	-10.3293
▁ሁላችንም	-10.3294
▁በእንዲህ	-10.3296
es	-10.33
ኮሚሽኑ	-10.3309
▁ተቋቁሞ	-10.331
▁አድማሱ	-10.3311
▁ዉስጥ	-10.3311
አምባሳደር	-10.3312
▁በገጠር	-10.3316
▁የአረብ	-10.3316
▁እንደሆነና	-10.3317
▁ArbaMinch	-10.332
▁ለማለት	-10.3321
ታቸውን	-10.3323
▁ክህሎት	-10.3335
▁ሰለባ	-10.3335
▁ወልደ	-10.3339
▁ሙ	-10.3344
▁ሳለ	-10.3344
▁ማስፋፊያ	-10.3348
▁አጠናቋል	-10.3355
▁ውድመት	-10.3356
▁አምርቶ	-10.3357
▁በሌሎችም	-10.3358
▁ዲዛይን	-10.336
▁ሆስፒታሎች	-10.336
▁ሻሸመኔ	-10.3361
▁የባህልና	-10.3363
▁ሊሰሩ	-10.3363
▁ሆን	-10.3366
▁ለመላው	-10.3367
▁ሙያዊ	-10.3369
▁የሆኑትን	-10.337
ነታቸው	-10.3371
▁ውድ	-10.3372
▁ምርትና	-10.3374
▁ያስ	-10.3382
▁የበርካታ	-10.3393
▁የተገነባው	-10.34
▁እንዲራዘም	-10.3401
▁ለመለየት	-10.3402
▁በብቃት	-10.3405
▁የተጠናከረ	-10.3405
▁የሞባይል	-10.3406
▁የክብር	-10.3406
▁መክፈል	-10.3407
▁ከአስር	-10.3407
▁ምስጋናቸውን	-10.3409
▁55	-10.341
ሮች	-10.341
▁ለከፍተኛ	-10.3423
▁ፖለቲከኞች	-10.3427
▁በአስር	-10.3437
▁ተፈፃሚ	-10.3438
▁ማታ	-10.3442
▁ድርጊቱ	-10.3447
▁ማልማት	-10.3449
▁የመጠቀም	-10.3453
▁ውበቱ	-10.3453
▁ዲቪዚዮን	-10.3455
▁መብራት	-10.3456
▁ሶስተኛው	-10.3459
▁ከህግ	-10.3459
ባቸዋል	-10.3468
▁ችላለች	-10.3471
▁የአእምሮ	-10.3482
▁በተባለ	-10.349
ቫይረሱ	-10.3492
▁እንዲሳተፉ	-10.3495
▁ይገባሉ	-10.3496
▁ተመልሷል	-10.3497
▁ድልድል	-10.3498
▁ለማስተናገድ	-10.3499
▁በዝግጅት	-10.3501
▁ኬንያታ	-10.3503
▁እጥፍ	-10.3503
r	-10.3506
▁አካላዊ	-10.3507
▁አገሪቱን	-10.3508
▁ገ	-10.3509
▁ለአገሪቱ	-10.3509
▁የቻሉት	-10.3513
▁የሚከናወን	-10.3516
▁አመራሩ	-10.3528
▁ገበያው	-10.3539
▁ወረቀት	-10.3544
▁ደረጄ	-10.3545
▁ታንዛኒያ	-10.3546
▁ጋዝ	-10.3547
▁ገጭቶ	-10.3547
▁መምጣት	-10.3548
▁በኢንቨስትመንት	-10.3549
▁አይቀርም	-10.3549
▁ዩ	-10.3549
▁ለአምስት	-10.3551
ለዚህም	-10.3553
▁በድንበር	-10.3556
▁ከግማሽ	-10.3562
▁በቅድሚያ	-10.3563
▁በተመለከተም	-10.3566
▁የቱርክ	-10.3567
▁ክብረወሰን	-10.3568
▁51	-10.3572
▁በቀጣዮቹ	-10.3578
ቀ	-10.3585
▁52	-10.3585
ውያን	-10.3585
▁የሚከበረው	-10.3587
▁ፈጥሯል	-10.3589
▁last	-10.3589
▁ያስታወሰው	-10.3589
▁ለመግዛት	-10.3591
▁ውሎ	-10.3592
▁የኮንስትራክሽን	-10.3594
▁በአላት	-10.3594
▁ለፊት	-10.3597
▁አቃቂ	-10.3597
ብኝ	-10.3599
▁ለማዋል	-10.3602
▁በቡድኑ	-10.3605
▁ለህዝቡ	-10.3612
▁በዘመናዊ	-10.3619
▁2015	-10.362
▁ካቢኔ	-10.3622
▁የሰጡ	-10.3622
▁ያመለክታሉ	-10.3624
ዚሁ	-10.3624
▁እጦት	-10.3636
▁እንድትሆን	-10.3636
▁ስቴት	-10.3637
▁ሀሳቡን	-10.3642
▁የአማካይ	-10.3642
▁ሜዳው	-10.3647
▁መሰጠቱን	-10.365
▁ኮምቦልቻ	-10.3651
▁የኮሚሽኑ	-10.3652
st	-10.3654
▁በግራ	-10.366
▁39	-10.3663
▁በግማሽ	-10.3663
▁ለሆኑ	-10.3669
▁እየሰራች	-10.3675
▁Aba	-10.368
▁0900	-10.3682
▁እንደሚያስችል	-10.3684
▁ለማስፈረም	-10.3685
▁ልን	-10.3686
▁ከጥቂት	-10.3688
▁ባራክ	-10.3692
▁ያስረዱት	-10.3693
▁ሮበርት	-10.3697
▁መቀጠሉን	-10.3705
▁የተለመደ	-10.3706
▁ወንድወሰን	-10.3711
▁ፆታ	-10.3716
▁አዘጋጅ	-10.3717
▁ሊኖር	-10.3719
በቅርቡ	-10.3719
▁ኦሮሞ	-10.3724
▁ታጣቂ	-10.3728
ሚኒስቴሩ	-10.373
▁ያግዛል	-10.3732
▁አድዋ	-10.3732
▁ሊካሄድ	-10.3733
ዶር	-10.3733
▁ሀምሳ	-10.3736
▁ህፃናትና	-10.3746
▁ከተጠናቀቀ	-10.3747
▁ንጉስ	-10.3748
▁ሰልፉ	-10.3749
የኢፌዴሪ	-10.3753
▁ተናግረዋልበ	-10.3758
▁የእለቱ	-10.3758
▁ጥሪውን	-10.3759
▁ተባባሪ	-10.3766
▁ተጀመረ	-10.3772
▁ቢሮዎች	-10.3777
75	-10.3779
▁አልተቻለም	-10.378
▁ሳህሌ	-10.378
▁ተገኝቷል	-10.378
▁ፈፅሞ	-10.378
▁ኢንጂነሪንግ	-10.3781
ስት	-10.3782
▁ለማስመዝገብ	-10.3783
▁ዲሞክራሲያዊ	-10.3784
▁go	-10.3785
▁የበረራ	-10.3787
▁የእስልምና	-10.3787
▁ማስመዝገብ	-10.3787
▁ተገኝ	-10.3789
▁Jimma	-10.3789
▁ኳስን	-10.379
▁ኢጋድ	-10.3797
▁እስከአሁን	-10.3798
▁ነውበ	-10.3798
▁ሮይተርስ	-10.3806
▁ያም	-10.3809
▁አበባው	-10.381
▁ሲደርስ	-10.3812
▁ሸኔ	-10.3815
▁መብታቸው	-10.3815
▁የሚወጡ	-10.3817
▁የሚታየው	-10.3819
ዎቹን	-10.382
▁የሀገራችን	-10.3821
▁እንዲያቀርቡ	-10.3825
▁የተባለውን	-10.3826
▁ተቃዋሚዎች	-10.3827
▁ለውጡ	-10.3827
▁በማስተባበር	-10.3828
▁መቀበል	-10.3828
▁ቪ	-10.3829
▁አንስተው	-10.383
▁ፋሲካ	-10.3835
▁ቡድናችን	-10.3844
▁ሹም	-10.3847
▁በመጨረሻ	-10.3848
▁ከመሆኑም	-10.3851
▁over	-10.3852
▁በሚቀጥሉት	-10.3863
▁የያዙ	-10.3864
▁መታሰቢያ	-10.3864
▁ተፈናቃዮች	-10.387
▁በእርግጥ	-10.3871
▁የመንግስትን	-10.3874
▁በመፍታት	-10.3876
▁የበረሀ	-10.3877
▁የሚውሉ	-10.3877
▁ለማሟላት	-10.3877
▁እየተገነባ	-10.3877
▁ብርቱ	-10.3878
▁ተለይተው	-10.3878
▁አመላክቷል	-10.3879
▁አቅርቦ	-10.388
▁በመገንዘብ	-10.388
▁ህንፃዎች	-10.3882
▁በአቶ	-10.3882
▁ጥሩነህ	-10.3883
▁ተቀዳሚ	-10.3885
ናሽናል	-10.3885
▁አድማስ	-10.3886
▁ለቢቢሲ	-10.3887
▁ገቢዎች	-10.389
▁በነበሩ	-10.389
▁ለክልሉ	-10.389
ፋሲል	-10.3898
▁ከነበሩት	-10.3899
▁በፕሪምየር	-10.3906
▁ሳኒ	-10.3907
▁የሚሆነውን	-10.3907
▁ግሩም	-10.3912
▁ማስተካከያ	-10.3914
▁ያለባቸውን	-10.3917
▁ሀገራችን	-10.392
የካቲት	-10.3922
▁የግራ	-10.3922
▁የተጀመረ	-10.3923
▁ቲ	-10.3924
▁በማጠናቀቅ	-10.3926
▁ለማስጀመር	-10.3926
▁አስፈርሟል	-10.3926
ፈረንጆች	-10.3926
▁ተገዷል	-10.3928
▁ሲንቀሳቀሱ	-10.3928
▁የተኩስ	-10.3928
▁የሚሳተፉ	-10.3929
▁የታክስ	-10.3931
▁ይኸው	-10.3932
▁የግድቡን	-10.3933
▁ለሶስተኛ	-10.3935
▁ክህደት	-10.3935
▁የአውሮፕላን	-10.3938
▁ፀሀይ	-10.3943
▁ግጭቱ	-10.3952
▁ዲፕሎማሲ	-10.396
▁ሰፈር	-10.396
▁አመቺ	-10.397
▁መንገደኞች	-10.3971
▁አግኝተዋል	-10.3972
▁እናደርጋለን	-10.3974
▁ይጀመራል	-10.3975
▁700	-10.3975
▁በሚቻልበት	-10.3975
▁ማጣራት	-10.3976
▁መቋቋም	-10.3976
▁የሚያግዝ	-10.3976
▁ለአገልግሎት	-10.3978
▁አፍሪካውያን	-10.3979
▁የፕሬስ	-10.398
▁የመግባቢያ	-10.3981
▁አር	-10.3985
▁እየመራ	-10.3986
▁ወይስ	-10.3987
▁ማሰብ	-10.3988
▁ታምራት	-10.399
▁ቢን	-10.3991
▁መሰብሰቡን	-10.3998
▁የሚታይ	-10.3999
▁ሙዚቃ	-10.4001
▁የውል	-10.4003
▁አድርጋለች	-10.4003
▁ዘዴ	-10.4007
ይህም	-10.4012
ረው	-10.4013
▁እንዲሰጣቸው	-10.4026
▁በተፈጥሮ	-10.4026
▁ገብረመድህን	-10.4027
▁የመስራት	-10.4027
▁የንፁህ	-10.4027
▁ጥያቄውን	-10.4036
▁ማምረቻ	-10.4036
▁የታየው	-10.4043
▁ኪም	-10.4044
▁ተከሳሾቹ	-10.4048
▁ናሙና	-10.4052
▁ይታያል	-10.4061
▁መቆየታቸውን	-10.4062
▁መለኪያ	-10.4067
▁መንገዶችን	-10.4069
አንድ	-10.407
ጡ	-10.407
▁ይዘዋል	-10.4071
▁ሙፍቲ	-10.4073
▁እህል	-10.4074
▁ደረቅ	-10.4075
▁እንደሚችልም	-10.4077
▁በማድረስ	-10.4078
▁ህገመንግስታዊ	-10.4079
▁ፍሳሽ	-10.4079
▁እድሉ	-10.4082
▁ተስተካካይ	-10.4083
▁በመስኖ	-10.4083
▁ሜጀር	-10.4087
▁አክሱም	-10.4092
▁የዘር	-10.4097
▁72	-10.41
▁ግብዣ	-10.4101
▁እየሰራን	-10.4107
▁መንገሻ	-10.411
▁የተመራ	-10.411
▁አያይዘው	-10.4111
▁ተቋማትና	-10.4114
▁ሌሎቹ	-10.4118
▁ነዋሪዎቹ	-10.4118
▁ነውየ	-10.4118
▁ደን	-10.4118
▁ከሀዋሳ	-10.4119
▁በደብዳቤ	-10.412
▁ፋውንዴሽን	-10.4125
▁ለመተግበር	-10.4125
▁ሆናለች	-10.4128
▁አፍሪካን	-10.4136
▁ጥላ	-10.4139
▁በተወሰነ	-10.414
የተጫዋች	-10.4146
▁የጎንደር	-10.4146
▁መጀመራቸውን	-10.4146
▁ሰብሳቢነት	-10.4148
ጥንቃቄ	-10.4158
ሯ	-10.4163
▁እንድን	-10.417
▁በመደበኛ	-10.4171
▁መኩሪያ	-10.4173
▁መሪዎቹ	-10.4174
▁ጂ	-10.4175
▁አዎንታዊ	-10.4175
▁በወረርሽኙ	-10.4177
▁ቴክኒክ	-10.4177
▁ሲጀምር	-10.4178
▁ንኡስ	-10.4179
ኛውን	-10.418
▁ጋምቤላ	-10.418
▁አክሎ	-10.4182
▁ዘመቻው	-10.4185
▁በወንጀል	-10.4188
▁ከሳምንት	-10.4191
▁ምስረታ	-10.4191
▁የመንግስታቱ	-10.4196
ቤ	-10.4196
▁ከሆኑት	-10.4202
▁ሳይቀር	-10.4203
▁ይገመታል	-10.421
▁መቀሌ	-10.4212
▁ግንባታውን	-10.4217
▁ግድብን	-10.4219
▁ማሰባሰቢያ	-10.422
▁አጠናክራ	-10.4223
▁ጠንክረ	-10.4223
▁በቋሚነት	-10.4225
▁መደገፍ	-10.4225
▁የከተሞች	-10.4226
▁ለማስፈፀም	-10.4229
▁ለአራት	-10.4232
▁ከጨዋታ	-10.4234
▁በበጎ	-10.4239
▁ኢትዮጵያዊው	-10.4254
▁ገልፀዋልየ	-10.4256
▁ሲመራ	-10.4257
ለች	-10.4261
▁ከሀገሪቱ	-10.4261
▁ሀገርን	-10.4269
▁ይጠይቃል	-10.4274
▁በማረጋገጥ	-10.4274
▁ዘለቀ	-10.4274
▁ለማሳየት	-10.4275
▁ተመልካች	-10.4276
▁መገኘት	-10.4276
▁የቢዝነስ	-10.4278
▁ጀኔራል	-10.428
ቷል	-10.4281
▁ወንበር	-10.4281
▁ተናግረዋልየ	-10.4285
ግሩም	-10.4286
▁ፅዮን	-10.4286
▁ሰላሳ	-10.4288
ከባድ	-10.4296
▁ያገኙትን	-10.4297
▁ከፍታ	-10.43
▁በዛ	-10.4301
▁ያደረጉትን	-10.4305
▁መስማማታቸውን	-10.4307
▁ሰልፎች	-10.4316
▁መሆኗ	-10.4318
▁ተጠርጣሪዎቹ	-10.4321
▁በመመለስ	-10.4325
▁ድጋፎችን	-10.4325
ጥሮስ	-10.4326
▁ለመቀጠል	-10.4326
▁አህጉር	-10.4327
▁አህጉራዊ	-10.4328
▁የክረምት	-10.4328
▁ኢላማ	-10.4328
▁የቴሌቪዥን	-10.4332
▁የኢንተርኔት	-10.4332
▁የኦነግ	-10.4332
▁የተያያዙ	-10.4333
▁48	-10.4334
▁አልጀዚራ	-10.4334
▁ጣሊያን	-10.4336
ዘ	-10.4341
▁በኢትዮ	-10.4346
▁ቀጥታ	-10.4347
▁በመቶው	-10.4353
▁አቅራቢ	-10.4353
▁በሳኡዲ	-10.4357
2004	-10.4363
▁2018	-10.4365
▁ሰነዶች	-10.4371
▁በወላይታ	-10.4372
▁ቁጥሩ	-10.4374
▁ባለቤቶች	-10.4377
▁በሚባል	-10.4381
▁መተግበር	-10.4381
▁አላስፈላጊ	-10.4382
▁ይልቁንም	-10.4387
▁በመወከል	-10.439
▁የመኪና	-10.439
▁እያሳየ	-10.4391
▁ዴ	-10.4393
▁ለጤና	-10.4394
▁በደል	-10.4395
▁ቢኖሩም	-10.4399
▁በወጣው	-10.4399
▁በበአሉ	-10.4404
▁የአይን	-10.4404
▁ካደረጉ	-10.4405
▁የኢትዮጵያውያን	-10.4412
▁መድረሱንም	-10.4412
ላቸዋል	-10.4418
▁56	-10.4418
▁አምራቾች	-10.4423
▁ብላለች	-10.4427
▁47	-10.4427
▁አስፋው	-10.4429
▁ወዳጅ	-10.4431
▁በመቀናጀት	-10.4431
▁አመስግነዋል	-10.4432
▁የትኩረት	-10.4434
▁ናትናኤል	-10.4435
▁ኖት	-10.4436
▁ኪር	-10.4454
▁ቀርበዋል	-10.4462
አናት	-10.447
▁ዲባባ	-10.4471
▁ምናልባት	-10.4474
▁not	-10.4478
▁ቦምብ	-10.448
▁መስኮቱ	-10.448
▁አጠራጣሪ	-10.448
▁ማስገባት	-10.4481
▁ማቋቋም	-10.4483
▁በደረጃ	-10.4483
▁የመስጠት	-10.4484
▁አሳ	-10.4493
▁ውሳኔዎችን	-10.4495
▁እንደምን	-10.4497
▁46	-10.4501
▁ግለሰቡ	-10.4504
▁ዝርጋታ	-10.4506
▁አስመራ	-10.4513
▁የመልሶ	-10.4516
▁ግንኙነታቸውን	-10.4521
▁ገፆች	-10.4526
▁ተምሳሌት	-10.4527
▁በአለማችን	-10.4528
▁በህዝቡ	-10.4529
▁አቅዶ	-10.453
▁በኢትዮጵያና	-10.4534
▁ትጥቅ	-10.4535
ክፉኛ	-10.4536
▁85	-10.4539
▁መጠነኛ	-10.454
▁ወራቤ	-10.4548
▁ፓርቲዎቹ	-10.455
ከር	-10.4553
▁የማእከላዊ	-10.4553
የተባበሩት	-10.4555
800	-10.4558
fore	-10.4558
▁ኳሱን	-10.4566
▁ደማቅ	-10.4569
▁ፊርማው	-10.4574
▁ይኖርባቸዋል	-10.4576
▁አደራ	-10.4581
▁መኖሩ	-10.4581
▁ይገባቸዋል	-10.4582
▁የቁጥጥር	-10.4585
▁ርዝመት	-10.4586
▁የደረሱ	-10.4586
▁ሌሊት	-10.4587
▁ግብሮች	-10.4587
▁በመምጣት	-10.4589
▁እንግሊዝ	-10.4601
▁ከነበሩ	-10.4601
▁ኮንፌዴሬሽን	-10.4603
▁ችሎ	-10.4608
▁የመቐለ	-10.4611
ተከሳሾቹ	-10.4614
▁ያን	-10.4624
▁ምልከታ	-10.4633
▁ምቤት	-10.4635
▁አልበሽር	-10.4635
▁እንደሚከተለው	-10.4635
▁ወላጆች	-10.4637
▁በመውጣት	-10.4637
▁ድረገፅ	-10.464
▁ከቅጣት	-10.4641
▁ግብአቶችን	-10.4642
ዲን	-10.4644
▁የሚታየውን	-10.4649
▁57	-10.4651
▁ሰንጠረ	-10.4651
▁63	-10.4653
▁የተቀመጡ	-10.4664
▁ባዬ	-10.4665
▁ከመጡ	-10.4667
▁የነበረበት	-10.4669
▁የህብረቱ	-10.4669
▁በካፍ	-10.467
▁ድጋፎች	-10.4686
▁እንዳል	-10.4687
▁draw	-10.4687
▁መቆጣጠሪያ	-10.4688
▁በቁርጠኝነት	-10.4689
▁መስተዳደር	-10.4689
▁ሊጠናቀቅ	-10.469
▁ለማጎልበት	-10.469
▁በማሳየት	-10.4691
ኦ	-10.4693
▁እስልምና	-10.4694
ቸዋል	-10.4696
▁ህግና	-10.4701
▁በመንገድ	-10.4702
▁ኢንተርፕራይዞች	-10.4705
▁በመካከለኛው	-10.4708
▁የጀርመን	-10.4716
▁የህዳሴው	-10.472
▁ቀስ	-10.4721
▁ወግ	-10.4725
▁አቤ	-10.4726
▁ውጤቶችን	-10.4729
▁ከከፍተኛ	-10.4735
▁መግባቱን	-10.4735
▁ለመርዳት	-10.474
▁በመሰብሰብ	-10.474
▁through	-10.4741
▁እንዳይሆን	-10.4741
▁ይኖራል	-10.4741
▁የደመወዝ	-10.4742
▁ወስዷል	-10.4742
▁በማምረት	-10.4743
▁ኡሁሩ	-10.4744
▁የንብረት	-10.4744
▁ለመሄድ	-10.4746
▁የስድስት	-10.475
▁ለሞት	-10.4751
▁ዳዋ	-10.4756
▁ራስን	-10.4761
▁የጋምቤላ	-10.4761
ላችሁ	-10.477
▁ባደረገ	-10.4772
▁በኢንዱስትሪ	-10.4774
▁ነበረች	-10.4782
▁120	-10.4784
▁ለግብ	-10.4785
▁ቆይታው	-10.4788
ጉባኤው	-10.4789
▁አውጥቶ	-10.4791
▁ተነስተው	-10.4794
▁በሚያስችል	-10.4797
▁እየተባለ	-10.4799
▁ጥንካሬ	-10.48
▁እንዲያቀርብ	-10.4801
▁ከባለድርሻ	-10.4801
▁ውለው	-10.4804
▁አዲሱን	-10.4804
▁ሚዛን	-10.4805
▁ለአካባቢው	-10.4807
▁ለዜጎች	-10.4809
▁ፋና	-10.4816
ዋይት	-10.4821
ሚያደርገው	-10.4823
▁በማንኛውም	-10.4824
▁የተቋቋመ	-10.4826
ጥቅምት	-10.4829
▁ተደራሽነት	-10.4832
▁መገደላቸውን	-10.4839
▁አስርት	-10.4843
▁አሳውቋል	-10.4847
▁እንገኛለን	-10.4847
▁እየተካሄዱ	-10.4847
▁መቆጠር	-10.4847
▁እራሱን	-10.4848
▁ለመግለፅ	-10.4848
ጭ	-10.4848
▁ሜ	-10.4853
▁መስመሮች	-10.4854
▁ዋሽንግተን	-10.4858
▁ሀላፊነቱ	-10.4861
▁Dawa	-10.4861
▁ማጣት	-10.4862
▁ሙሀመድ	-10.4863
▁ቢሆኑም	-10.4863
▁አጥቂዎች	-10.4868
▁ከወራት	-10.4872
▁ሰርተዋል	-10.4872
▁የተጫዋች	-10.4873
▁ከግብፅ	-10.4873
▁በሚደረጉ	-10.4875
ሰንደቅ	-10.4877
▁ሏላዊነት	-10.488
▁አፍንጫ	-10.4881
ግቡ	-10.4882
▁ኡጋንዳ	-10.4893
▁ከአ	-10.4899
▁አግኝተው	-10.4899
▁የመኖር	-10.49
▁ግሽበት	-10.4901
▁ተሰማርተው	-10.4901
▁national	-10.4902
▁የተመረጡ	-10.4902
▁እየተስፋፋ	-10.4903
ፊ	-10.4907
▁የግሉ	-10.4909
▁ትላልቅ	-10.491
▁በምግብ	-10.4911
▁መካከልም	-10.4911
▁አርበኞች	-10.4916
▁ከነዚህ	-10.4917
▁በትላንትና	-10.4917
ቀዳማዊት	-10.4917
▁በቀኝ	-10.4919
▁ዳኛው	-10.4921
▁ከሀምሌ	-10.4925
▁በጥቂት	-10.4932
▁ኳሶችን	-10.4934
ነሽ	-10.4935
▁ምርታማነትን	-10.4944
የሀገሪቱ	-10.4947
▁ሊሰራ	-10.4949
▁አላማው	-10.4955
▁መጥተው	-10.4956
▁ንግድና	-10.4958
▁ቤተሰቦቻቸው	-10.4962
▁የእምነት	-10.4964
▁በመባል	-10.4965
▁ሀረር	-10.4965
▁የወረዳ	-10.4965
▁ብርጋዴ	-10.4967
▁በክልሎች	-10.4967
▁ለሚደረገው	-10.4968
▁ኪ	-10.4971
▁በተቃራኒው	-10.4977
ጣ	-10.4991
▁የዩኒቨርሲቲው	-10.4991
▁እውነተኛ	-10.4996
▁ታሪኩ	-10.4996
የጤና	-10.5
▁ካርቱም	-10.5002
▁የተደረገውን	-10.5002
▁የተሰማው	-10.5003
▁የተፈፀመ	-10.5004
▁ድልድይ	-10.5009
▁ለማስተዋወቅ	-10.5009
▁እሳቤ	-10.5009
▁የሚረዳ	-10.501
▁ለመጨረሻ	-10.5012
▁ምትኩ	-10.5013
▁ባቀረበው	-10.5014
2003	-10.5016
▁አከባበር	-10.5017
▁በተያዘለት	-10.502
ኖክ	-10.5021
በተያያዘ	-10.5021
▁ከቀኝ	-10.5022
▁ውድድሮችን	-10.5023
▁ማስ	-10.5025
▁የመሰረት	-10.5025
▁እድሳት	-10.5026
▁ታይተዋል	-10.5027
▁አገልግለዋል	-10.5029
▁አባልነት	-10.5033
▁ግለሰቦችን	-10.5049
▁M	-10.5051
▁ወለድ	-10.5054
▁81	-10.5054
▁ማመንጨት	-10.5063
▁መትቶ	-10.5063
▁በቶሎ	-10.5065
▁ላፍቶ	-10.5066
▁በማሻሻል	-10.5066
▁ለመምራት	-10.5067
▁መሳተፍ	-10.5068
ሁለተኛው	-10.5069
▁ሲጫወት	-10.5072
▁በቀር	-10.5072
▁ለአብነት	-10.5075
▁የጥምቀት	-10.5075
▁while	-10.5076
▁መጥፋት	-10.5076
▁ውበት	-10.5077
▁በባህርዳር	-10.5077
▁ኡመድ	-10.5078
▁በሰራው	-10.508
▁agains	-10.5083
▁የነበረችው	-10.5091
ሪፖርተር	-10.5092
▁በህዝቦች	-10.5101
▁ስላለ	-10.5102
▁ተወያይቶ	-10.5105
▁አስታውቃለች	-10.5106
▁በስፖርት	-10.5111
▁ተሟጋች	-10.5113
▁አደረሳችሁ	-10.5118
▁በበላይነት	-10.5119
ትናንት	-10.5119
▁ለማምረት	-10.512
▁ክፍፍል	-10.512
▁እንደሚጠናቀቅ	-10.5121
▁የሀሰት	-10.5123
▁ተካልኝ	-10.5123
▁የሚጠጋ	-10.5125
1000	-10.5126
▁የመጫወት	-10.5126
2014	-10.5127
▁ሙገር	-10.5128
▁የግብይት	-10.513
▁የከተማዋን	-10.5142
▁ከነሀሴ	-10.5142
ለዝርዝሩ	-10.5146
▁በእውቀት	-10.5152
▁የወጣውን	-10.5155
ቀደም	-10.5155
▁ለተ	-10.5156
▁በግንባታ	-10.5158
▁በጋዜጣው	-10.5164
▁የጀመረውን	-10.517
▁እንደማይችል	-10.517
▁የሀገራቱ	-10.5174
▁በመረዳት	-10.5174
▁ደብረፅዮን	-10.5175
▁የክፍያ	-10.5176
▁ግፊት	-10.5176
▁ተወያዩ	-10.5181
▁መከላከልና	-10.5182
▁መፍጠሩን	-10.5183
▁01	-10.5183
▁የሀሳብ	-10.5187
▁ማሳ	-10.5192
▁የጃፓን	-10.5194
▁ሜትሪ	-10.5195
▁አንድነትና	-10.5196
ፎ	-10.5203
▁በሚያደርገው	-10.5206
▁የኢራን	-10.5206
▁ማሊ	-10.5209
▁የተሰራ	-10.5209
▁የተመረጡት	-10.5211
▁በዜጎች	-10.5211
ደር	-10.5212
▁የነፃነት	-10.5214
▁ጥቃቱን	-10.5216
▁ለማስፋፋት	-10.5229
▁የማቅረብ	-10.5229
▁ድሪባ	-10.5229
▁ገብረማርያም	-10.523
ሌላው	-10.5231
▁በድምቀት	-10.5231
▁እየተመራ	-10.5231
▁ተከታዩን	-10.5232
▁ሰሚ	-10.5234
▁ርምጃ	-10.5237
▁በጎርፍ	-10.5237
▁ወኪል	-10.5238
▁በመምራት	-10.5238
▁አስተያየቶች	-10.5239
▁Dire	-10.524
▁ተመራማሪዎች	-10.5242
▁ከጀመረ	-10.5245
▁የእውቅና	-10.5245
▁በከተሞች	-10.5247
▁ግንኙነትና	-10.5249
▁In	-10.5253
▁ባይሆንም	-10.5259
▁ከከተማ	-10.5268
▁ዘገባዎች	-10.5274
▁በአሁን	-10.5275
▁ማጠናቀቁን	-10.5278
▁ወስዶ	-10.5284
▁ማስወገድ	-10.5285
▁ብርሀነ	-10.5286
▁ሪፎርም	-10.5287
▁ተጠናክረው	-10.5288
▁ብርቱካን	-10.5289
▁ለፌዴራል	-10.5291
▁በመካሄድ	-10.5291
▁ጫላ	-10.5292
▁ጀመረ	-10.5292
▁እለትም	-10.5293
▁መምጣቱ	-10.5296
▁games	-10.5297
▁እድሉን	-10.5297
▁ሙሏለም	-10.5297
▁አገራችን	-10.5298
▁በቅድመ	-10.5298
በተለይ	-10.5298
▁ገዥ	-10.5302
የቀድሞው	-10.5312
▁የሚያስችለውን	-10.5315
▁አለመኖር	-10.5316
▁የኦሊምፒክ	-10.5316
▁የሚስተዋሉ	-10.5317
በአለም	-10.5318
▁መገኘታቸውን	-10.5318
▁ክፍተቶችን	-10.5321
▁የእርዳታ	-10.5323
▁መደረሱን	-10.5325
ህን	-10.5329
▁ተርታ	-10.5342
▁ጭምብል	-10.5343
▁መጠየቅ	-10.5344
▁ጠላት	-10.5348
▁ሎዛ	-10.5348
▁ጎጃም	-10.5349
▁ውሉን	-10.5349
▁ከመጀመሪያው	-10.5351
▁ያደረገውን	-10.5352
▁ክሱን	-10.5356
▁ፕረዚዳንት	-10.5356
▁ሰከንድ	-10.5361
▁ኢኮኖሚያዊና	-10.5362
▁ከዚሁ	-10.5383
▁ኢትዮጵያውያንን	-10.5393
▁የሊጉን	-10.5397
▁ግጭቶችን	-10.5398
▁ሰንጠረዥ	-10.5398
▁እንደሚያመለክተው	-10.5398
▁ለመዋጋት	-10.5399
▁ሀውልት	-10.54
▁የሚቀርቡ	-10.54
▁ናይሮቢ	-10.54
በደቡብ	-10.5401
▁ጊዮርጊሶች	-10.5401
▁የማጣሪያ	-10.5401
▁ሁኔታውን	-10.5406
▁የዞን	-10.5406
▁በመስመር	-10.5407
▁መጠኑ	-10.5411
ኬ	-10.5413
▁ምርታማነት	-10.5414
▁በመተው	-10.5417
▁የተነሳው	-10.5421
▁የተማሪዎች	-10.5424
▁የፓርላማ	-10.5425
▁2019	-10.5428
▁ሳይንስና	-10.544
▁እንዲቀርብ	-10.5445
▁በገበያ	-10.5446
▁ተገኝቶ	-10.545
▁ጉግሳ	-10.5455
▁ቆይተው	-10.5455
▁አንበሳ	-10.5458
▁በቡድን	-10.5461
▁ነገርግን	-10.5461
▁የልብ	-10.5464
▁ቤቶችና	-10.5466
▁የቀብር	-10.5466
▁የፕሮጀክቱ	-10.5469
▁የሚቻለው	-10.5469
▁አንዳንዶቹ	-10.547
nt	-10.5473
ዮን	-10.5474
▁ከአካባቢው	-10.5475
▁ከመጋቢት	-10.5479
▁አፍሪቃ	-10.5479
▁ከሌላው	-10.548
▁ለቡድኑ	-10.5481
▁ካደረገ	-10.5482
▁አለቃ	-10.5486
አርባምንጭ	-10.5486
▁ምስ	-10.5486
▁ሀይሎችን	-10.5487
▁ሆነን	-10.549
▁የመን	-10.5491
▁ለማስፋት	-10.5492
▁ይጠቀሳሉ	-10.55
▁ስብሰባውን	-10.5501
▁እንዲመጣ	-10.5503
ድሬዳዋ	-10.5507
▁ስርአተ	-10.5508
▁የፅህፈት	-10.551
▁ግልጋሎት	-10.5512
▁እየተከበረ	-10.5512
▁መዋእለ	-10.5514
▁ይረዳል	-10.5514
▁የተመለከተ	-10.5515
▁በጊዜያዊነት	-10.5515
▁እየተነገረ	-10.5515
31	-10.5517
▁በእቅድ	-10.5518
▁በግሉ	-10.5519
▁ኦሎምፒክ	-10.552
▁ለሚካሄደው	-10.552
▁ገብነት	-10.5523
▁ከድሬዳዋ	-10.5524
▁በበቂ	-10.5525
▁አቅማቸው	-10.5525
▁አመራሮችን	-10.5527
▁ጤናማ	-10.5527
▁የወሰደው	-10.553
▁በመቀሌ	-10.5531
▁ጎረቤት	-10.5533
▁መግባታቸው	-10.5534
▁ቀ	-10.5534
▁ከኬንያ	-10.5537
▁የካ	-10.554
▁የተያያዘ	-10.5544
▁ከፖለቲካ	-10.5548
▁ውለዋል	-10.5555
▁መና	-10.5555
▁አስፈላጊነት	-10.5555
▁እንደሚያ	-10.5564
▁ውስብስብ	-10.5567
▁አስነብቧል	-10.5567
▁ማጠናቀቅ	-10.557
▁አሊያም	-10.5571
▁የአትሌቲክስ	-10.5571
▁ለየት	-10.5572
▁ከጥር	-10.5574
34	-10.5574
▁ግርግር	-10.5576
▁በሺዎች	-10.5577
ረጅም	-10.5579
ኪ	-10.5582
▁የተሰማቸውን	-10.5583
▁አመታትን	-10.5584
▁መተማመን	-10.5584
▁ቃጠሎ	-10.5585
▁ህይወቱን	-10.5586
▁የህንድ	-10.5586
▁ማለታቸው	-10.5587
▁ለመከላከያ	-10.5588
ዬን	-10.5597
ምንም	-10.5598
had	-10.5599
▁የተጫወተው	-10.56
▁የገባ	-10.5605
▁ባስ	-10.5606
▁የህዝብን	-10.5606
▁በሶስቱ	-10.5609
▁ድጋፍና	-10.5612
▁ውሀና	-10.5612
▁ግንባታቸው	-10.5616
▁እንዳለባቸውም	-10.5618
▁ገብረስላሴ	-10.5627
ሸ	-10.5629
▁አስተዳደራዊ	-10.5631
▁ከነበረበት	-10.5633
▁ዴቪድ	-10.5634
▁ከድህነት	-10.5634
▁ቢሾፍቱ	-10.5636
▁ኪዳኔ	-10.5638
▁ፈጥረው	-10.5639
▁በሁለትዮሽ	-10.5643
▁ስፖርተኞች	-10.5643
▁አእምሮ	-10.5651
▁ሊወጣ	-10.5655
▁አማን	-10.5662
▁ከኤርትራ	-10.5663
▁ተፈፅሟል	-10.5668
▁play	-10.5681
▁የመጨረሻው	-10.5684
▁እንደሌላቸው	-10.5685
▁ተደራጅተው	-10.5687
▁ደምሴ	-10.5687
▁ቀይሮ	-10.5688
▁ለመረዳት	-10.5688
▁በመከተል	-10.569
▁ቢዝነስ	-10.5691
▁በስኬት	-10.5691
▁የተቃዋሚ	-10.5691
▁ማራኪ	-10.5692
▁ከፌደራል	-10.5694
▁የመብራት	-10.5694
▁ሀጂ	-10.57
▁ፍጆታ	-10.57
▁ፅሁፎች	-10.5701
▁ሼክ	-10.5701
▁የዋሉት	-10.5703
▁የተመዘገቡ	-10.5703
▁የኔ	-10.5704
▁ከግራ	-10.5704
▁ለፋና	-10.5704
▁መቻሉ	-10.5706
▁መከሰቱን	-10.5707
የር	-10.5711
▁አሉት	-10.5719
▁ድህነትን	-10.5721
▁ቀዳሚው	-10.5725
▁የተለዩ	-10.5726
▁up	-10.5726
▁የበሽታው	-10.5728
▁የተመሰረተው	-10.5729
▁ያሉበት	-10.5733
▁እናት	-10.5739
▁E	-10.574
▁ተካሂዶ	-10.5743
▁ለመትከል	-10.5744
i	-10.5744
▁በመቆም	-10.5745
▁ተፈጥሯዊ	-10.5747
▁ከመቼውም	-10.5747
▁ድርጅታዊ	-10.5748
▁የተሾሙት	-10.5754
የአሜሪካ	-10.5759
▁ቀጣና	-10.5759
▁ስህተቶች	-10.576
ሹ	-10.5762
▁የኤጀንሲው	-10.5763
▁ወንድም	-10.5766
▁እፅ	-10.5767
▁ማሀበሩ	-10.5768
▁ሊደርስ	-10.5769
▁ኩራት	-10.5772
▁ቋንቋዎች	-10.5774
▁በተጀመረው	-10.5775
▁ስልጠናው	-10.5775
▁በቀድሞው	-10.5776
▁የተደራጀ	-10.5781
▁ብቻውን	-10.5787
▁ዘብ	-10.5792
በመድረኩ	-10.5796
▁ፍራፍሬ	-10.5797
▁ተጠባባቂ	-10.58
▁አና	-10.5803
▁ፍሰሀ	-10.5804
▁አድናቆት	-10.5804
▁አስገዳጅ	-10.5805
▁ቀያቸው	-10.5805
▁አይኖርም	-10.5806
▁እንደማይቻል	-10.5806
▁አዋሳኝ	-10.5808
▁በስፖርቱ	-10.5808
▁ወይዘሪት	-10.5809
▁ቦረና	-10.581
▁ምስል	-10.581
▁አደሮችን	-10.5811
▁የግጭት	-10.5812
▁አልፈው	-10.5813
▁250	-10.5814
▁በዛብህ	-10.5816
▁ጆርጅ	-10.5816
▁ሙጂብ	-10.5818
▁ከቀኑ	-10.5818
▁ተቋራጮች	-10.5826
▁እንደሚረዳ	-10.5829
▁እስክንድር	-10.5834
ቅዱስ	-10.5839
ማእዘን	-10.5848
▁ጅማሮ	-10.5849
▁ፀሎት	-10.5851
▁ከጅማ	-10.5851
▁የታወቀ	-10.5852
▁እንዲፈታ	-10.5852
39	-10.5855
▁አፋር	-10.5858
▁ይመስለኛል	-10.5862
▁እንዳይገቡ	-10.5862
▁ሲያገለግሉ	-10.5863
▁እንደምትቀጥል	-10.5863
▁የተደገፈ	-10.5863
▁ተደርገው	-10.5863
▁ቅርስ	-10.5865
▁የመብት	-10.5866
▁ቶማስ	-10.5867
▁ካይሮ	-10.587
▁ውላቸው	-10.587
▁የፕሪሚየር	-10.5871
▁ቅሬታቸውን	-10.5878
▁መክፈቻ	-10.5881
▁አብርሀ	-10.5882
▁የተከናወኑ	-10.5884
▁ቦይንግ	-10.5885
▁አንጋፋ	-10.5888
▁ፍቅሩ	-10.5889
37	-10.5889
▁ነበረው	-10.5897
▁እሱን	-10.5904
▁ያወጣውን	-10.5904
65	-10.5904
▁score	-10.5905
▁እንግልት	-10.5906
▁ያለፉት	-10.5908
48	-10.5909
▁ቡድናቸው	-10.5909
▁ፕሮግራሙ	-10.5909
▁ጥያቄው	-10.5921
▁ፍስሀ	-10.5921
▁ለማልማት	-10.5922
▁አፍ	-10.5922
▁ሲያልፍ	-10.5922
▁የማጣራት	-10.5923
▁የባለስልጣኑ	-10.5924
▁ለማዘመን	-10.5925
▁የሚችልበት	-10.5925
▁የማምረት	-10.5925
▁ሲጀመር	-10.5926
▁ማንኛውንም	-10.5928
▁ወጭ	-10.5934
▁በቀጠናው	-10.5934
▁53	-10.5934
▁በነበረበት	-10.5934
▁ጋቶች	-10.594
ቸ	-10.594
▁የአራት	-10.5942
▁አሜሪካውያን	-10.5948
መር	-10.5954
▁ድርጅቶችን	-10.5955
▁ድብደባ	-10.5966
▁ፈረሰኞቹ	-10.5971
▁49	-10.5972
▁71	-10.5976
▁በፍቅር	-10.5978
▁ተይዟል	-10.5978
▁ማስተላለፍ	-10.5982
▁እንዳይኖር	-10.5982
▁እንደሚውል	-10.5983
▁ትእግስት	-10.5984
▁የሱፍ	-10.5984
ክለቡ	-10.5985
▁የዝግጅት	-10.5986
▁በማስታወስ	-10.5986
▁ውስንነት	-10.5986
▁የጥላቻ	-10.5989
▁በክብር	-10.5989
▁በንግግራቸው	-10.5989
▁የታገዘ	-10.5991
▁የሚካሄዱ	-10.5994
▁በተቻለ	-10.5996
▁ሀኪም	-10.5998
▁66	-10.6
▁ቀኝ	-10.6
▁ከሶከር	-10.6001
▁ተወዳዳሪዎች	-10.6001
▁አርቲስት	-10.6003
▁ቅርንጫፎች	-10.6004
▁ፍኖተ	-10.6004
▁62	-10.6005
▁ኳሱ	-10.6006
▁አስደናቂ	-10.6007
▁ዘመናት	-10.6008
▁በመሰረተ	-10.6012
▁አግዳሚ	-10.6018
▁መረጃና	-10.6023
▁የህዝብና	-10.6023
▁B	-10.6025
ዶች	-10.6033
▁የሶስቱ	-10.6034
▁ሳተላይት	-10.6036
ተገኘባቸው	-10.6036
ፋኖስ	-10.6042
▁አሻሞ	-10.6042
▁ሲራጅ	-10.6043
▁ኢንቨስት	-10.6043
▁ያው	-10.6043
▁የደሀንነት	-10.6044
▁እንዲሰጠው	-10.6045
▁ስነምግባር	-10.6045
▁ማክበር	-10.6046
▁ንፋስ	-10.6048
▁ለችግር	-10.6049
▁የሰብል	-10.6049
▁ከመስጠት	-10.6049
▁ጎሎችን	-10.605
▁ዝርዝሩ	-10.6054
ይህን	-10.6055
▁ቢል	-10.6056
▁ቅርብ	-10.6057
▁ክቡር	-10.6066
▁መድሀኒቶች	-10.6067
▁የተመድ	-10.6069
▁በሀይማኖት	-10.6071
▁ለገሰ	-10.6072
▁ተጨዋች	-10.6082
▁በቀረበው	-10.6085
▁ሳን	-10.6085
ስሁል	-10.6086
▁እቅዱን	-10.6093
▁የተሰራው	-10.6096
▁አስቆጥረዋል	-10.6102
▁ሴክሬታሪያት	-10.6102
▁ቀለም	-10.6103
▁ቦ	-10.6103
▁አቋርጠው	-10.6103
▁ለማስተላለፍ	-10.6104
▁በማምጣት	-10.6104
▁አመተ	-10.6104
በጨዋታው	-10.6105
▁ለጨዋታው	-10.6105
▁የሂሳብ	-10.6105
▁ልማቶችን	-10.6106
▁ቀረጥ	-10.6107
▁ለመገናኛ	-10.6107
▁ማዘጋጀት	-10.6107
ብናል	-10.6111
▁የፋሲል	-10.6113
የዩናይትድ	-10.6115
▁የኮንትሮባንድ	-10.6115
▁ምናልባትም	-10.6116
▁የሰጠ	-10.6116
▁በወንዶች	-10.6118
▁ሽረዎች	-10.612
▁ጠር	-10.6124
▁ሲመጣ	-10.6127
▁በዘገባው	-10.6128
▁የተመለከቱ	-10.6132
▁የካቢኔ	-10.6137
▁መታወቂያ	-10.6139
ኗ	-10.6141
▁በጅቡቲ	-10.6143
▁ፌደሬሽን	-10.6143
▁መታቀዱን	-10.6145
▁እንዲጠቀሙ	-10.6149
▁ያቀረበውን	-10.6157
▁ከነ	-10.6161
▁ፈጥሮ	-10.6161
▁እንዲመለስ	-10.6162
▁ተዳርገዋል	-10.6164
▁ጥርጣሬ	-10.6164
▁በአብላጫ	-10.6164
▁played	-10.6167
▁እዮብ	-10.6167
▁በማሰባሰብ	-10.6168
ፌ	-10.6169
▁የጀመረ	-10.6173
▁ካለፉት	-10.6174
▁ሰሎሞን	-10.6177
▁በቀይ	-10.618
ራቸው	-10.6183
▁አንዲት	-10.6189
600	-10.6192
▁ፊፋ	-10.6192
▁በተጓዳኝ	-10.6196
▁እንደሌለበት	-10.6197
▁በህጋዊ	-10.6204
ጦ	-10.6206
▁ህብረቱ	-10.6207
▁የገጠመው	-10.6213
ሀል	-10.6217
▁ሀላፊዎችና	-10.6218
▁ጥይት	-10.6222
▁kick	-10.6222
▁ይጠበቅባቸዋል	-10.6224
▁ወልደጊዮርጊስ	-10.6224
▁ያሻገረው	-10.6224
▁በቀዳሚነት	-10.6225
▁ድባብ	-10.6225
▁ታስረው	-10.6225
▁ማስተካከል	-10.6227
▁ጎርፍ	-10.6229
▁ኢንተርፕራይዝ	-10.6229
▁እቃዎችን	-10.6232
▁የሚገልፁት	-10.6232
▁የተመዘገበው	-10.6234
▁ለወጣቶች	-10.6237
▁ክፍሎችን	-10.6238
▁ሱዳንና	-10.6243
▁አስናቀ	-10.6247
▁መናገር	-10.6249
▁ያቀረቡትን	-10.6252
▁ቤቱም	-10.6252
▁እርቅ	-10.6252
▁አባላትና	-10.6258
▁ፀሀፊው	-10.6258
▁በእጅ	-10.6262
▁ተመስርቶ	-10.6267
▁ቀልጣፋ	-10.6273
▁መልእክታቸውን	-10.6276
▁ተጠቃሚነትን	-10.6283
▁እንቅስቃሴዎችን	-10.6283
▁ሏላዊ	-10.6284
▁ጊዮርጊስን	-10.6284
▁ተጀምሮ	-10.6286
▁እንዲያድግ	-10.6286
▁ክከተማ	-10.6286
▁ሊሰጥ	-10.629
▁በሀላፊነት	-10.6292
▁ስልጠናዎች	-10.6292
▁የዩኒቨርሲቲ	-10.6293
▁ደረጃቸውን	-10.6293
▁የጭነት	-10.6293
▁በወጣቶች	-10.6295
የፌደራል	-10.6297
▁በቢሾፍቱ	-10.6298
ብሄራዊ	-10.6299
▁ስጋ	-10.63
▁መረጋገጡን	-10.6301
▁የተያዘ	-10.6302
▁ሄደው	-10.6304
▁ሻ	-10.6307
በውይይቱ	-10.6308
▁ለትምህርት	-10.6308
▁የሴት	-10.6308
▁የጣና	-10.631
▁አረም	-10.6311
▁ከአዳማ	-10.6313
▁ተመልሰዋል	-10.6313
▁ልማትን	-10.6314
▁መልእክተኛ	-10.6318
▁ማህበራዊና	-10.6319
▁ሰባ	-10.6324
it	-10.6328
▁መቃወሚያ	-10.6333
▁በየአካባቢው	-10.6334
ገባ	-10.6339
▁በውል	-10.6343
▁አጋዥ	-10.6344
▁ምግባርና	-10.6345
▁በመኖሩ	-10.6348
▁አስገራሚ	-10.6349
▁እንደሚገቡ	-10.635
▁አሸብር	-10.635
▁ለማሰባሰብ	-10.635
▁በማቋቋም	-10.6351
▁ሀኪሞች	-10.6353
▁የመሆን	-10.6354
▁ለዘርፉ	-10.6355
▁ተመልሰው	-10.6355
▁ወደኋላ	-10.6356
▁የተጠናቀቀ	-10.6356
▁ሲሰጡ	-10.636
▁አሰራሮች	-10.6364
▁አድርጋ	-10.6364
▁የተነሱ	-10.6369
▁ያገኘ	-10.6375
▁We	-10.6376
▁ወደፊትም	-10.6377
▁የሚያስ	-10.6377
▁ታወቀ	-10.6377
▁የምታ	-10.6379
▁ማዋል	-10.6383
38	-10.6383
▁መኖራቸው	-10.6388
▁ሊያደርጉ	-10.6391
▁የማሻሻያ	-10.6393
▁የሚገነባው	-10.6397
55	-10.6397
▁የሚሰጠውን	-10.6398
▁የተረጋጋ	-10.6399
▁የአቃቤ	-10.6401
▁የአንደኛ	-10.6403
▁ማሳየቱን	-10.6405
▁የተፈጠረ	-10.641
▁አንጋፋው	-10.6411
▁ተወላጅ	-10.6411
▁ግብጠባቂ	-10.6412
▁አሳዛኝ	-10.6413
▁አድንቀዋል	-10.6413
▁ምኞት	-10.6414
▁መረራ	-10.6414
▁ውስን	-10.6415
▁ተመራማሪ	-10.6415
▁ፌደራል	-10.6417
▁ያቀረቡ	-10.6418
▁ድንጋጌ	-10.6418
▁አስቀምጧል	-10.6419
▁እንዲመሩ	-10.6421
▁ቀድመው	-10.6421
▁የጥገና	-10.6421
▁ማስተናገድ	-10.6424
▁እስላማዊ	-10.6428
▁ልምምዱን	-10.6429
▁እኩይ	-10.643
▁59	-10.643
▁መለሰ	-10.6431
ተከላካዮች	-10.6435
▁እየተወሰደ	-10.6437
▁መኮንኖች	-10.644
▁ተከናውኗል	-10.6448
ኩባንያው	-10.6449
ሁን	-10.6451
አቃቤ	-10.6454
▁ያገኘውን	-10.6458
▁እንደምት	-10.6464
▁አላት	-10.6465
ፕሬዝዳንት	-10.6469
▁ወገኖችን	-10.6472
የብሄራዊ	-10.6473
▁ኢሳይያስ	-10.6474
▁Premier	-10.6474
▁ስፖርቶች	-10.6475
▁እንደሚወስድ	-10.6477
▁ዘርአይ	-10.6478
▁ሽልማቱ	-10.6478
▁ግፍ	-10.6483
▁ትራፊክ	-10.6487
▁የዘመን	-10.649
ዘጋቢ	-10.6494
▁ግንባታና	-10.6495
▁የጉምሩክ	-10.6497
▁ቀሪው	-10.6498
▁ፅጌ	-10.6502
▁ፓርኩ	-10.6502
▁የላቸውም	-10.6502
▁ያስቆጠረ	-10.6503
▁የምግብና	-10.6508
▁የደደቢት	-10.651
▁ተፈራርመዋል	-10.6511
▁ዋ	-10.6518
በአፍሪካ	-10.652
ሽን	-10.6521
▁one	-10.6521
▁ዝግጅታቸውን	-10.6523
▁በመወያየት	-10.6537
▁ያቀርባል	-10.6537
▁ኦዲተር	-10.6538
▁መለየት	-10.6539
▁ቁጠባ	-10.654
▁በመገምገም	-10.654
▁ያላ	-10.6541
▁መሀሪ	-10.6541
▁መታየት	-10.6544
▁የፍቅር	-10.6545
▁ክትትልና	-10.6545
▁ሰርቶ	-10.6548
▁የሚቆጠር	-10.6549
▁እንደሚሆንም	-10.6551
▁ኳታር	-10.6558
▁የተቋሙ	-10.6561
▁አንዱን	-10.6562
▁ሁንዴሳ	-10.6568
▁ንብረታቸው	-10.6574
▁ለሴቶች	-10.6575
▁እንዲቋረጥ	-10.6601
▁ሀይለስላሴ	-10.6602
▁73	-10.6602
▁በኩልም	-10.6602
▁አልተሳካም	-10.6605
▁በጥብቅ	-10.6606
▁በሚጠራው	-10.6606
▁ቤተመንግስት	-10.6607
▁በተናጠል	-10.6607
▁የህዝቡ	-10.6609
▁እያሱ	-10.6609
▁ቱሪስቶች	-10.6609
▁ጣቢያው	-10.6609
▁ቡድኖችን	-10.6611
▁የዘንድሮ	-10.6611
▁በመገናኛ	-10.6613
▁ቻምፒየን	-10.6615
▁የያዙት	-10.6616
▁ሲከበር	-10.6618
▁ፖል	-10.6621
▁የቻሉ	-10.6624
▁በሪፖርቱ	-10.6627
▁እንደማ	-10.6631
▁ጳጉሜን	-10.6638
▁የአገራችን	-10.6645
ሚኒስትሯ	-10.665
▁አብሮነት	-10.6651
እነዚህ	-10.6652
▁መዋሉን	-10.6661
▁በየመን	-10.6662
▁ተገቢው	-10.6663
▁ቀጠናው	-10.6663
▁ይከበራል	-10.6664
▁ባለመቻላቸው	-10.6665
▁አቀራረብ	-10.6665
▁ለማሸጋገር	-10.6665
▁የቡድኑን	-10.6669
▁ቅርፅ	-10.6671
▁የመሩት	-10.6673
▁ይዛ	-10.6674
▁ቅኝት	-10.6676
▁ፒተር	-10.6677
▁ዝም	-10.6677
▁በመዲናዋ	-10.6683
▁የቴሌኮም	-10.6684
▁እድገትና	-10.669
▁ራ	-10.6694
▁ሸ	-10.6694
▁ቤ	-10.6698
▁መስጠቱ	-10.67
ራት	-10.6702
▁ከባለፈው	-10.6703
ባንኩ	-10.6711
▁ለቀው	-10.6712
▁የተደረገበት	-10.6718
▁ወቅቱ	-10.6721
▁ያገኙት	-10.6721
▁የፕሬዚዳንት	-10.6726
▁የፈፀሙት	-10.6729
▁ይሳተፋሉ	-10.6729
▁ተጫውቷል	-10.6729
▁ማስጠበቅ	-10.6729
▁ፖስቱ	-10.6729
▁ኢንስፔክተር	-10.673
▁የኮሙዩኒኬሽን	-10.673
▁ዳይሬክተሯ	-10.6733
▁በመድረስ	-10.6734
▁ባለሀብቶችን	-10.6734
▁የእውቀት	-10.6735
▁በአዋጅ	-10.6735
▁ወጥተዋል	-10.6736
▁ወንድሜ	-10.6736
▁የተያዘው	-10.6737
▁ወጣቶቹ	-10.6738
ኙ	-10.6739
▁አልጄሪያ	-10.674
▁95	-10.6746
▁በግንባር	-10.6747
▁በኤሌክትሪክ	-10.6749
ቺ	-10.6751
▁የተካሄደውን	-10.6755
lso	-10.6756
▁ክልሎችና	-10.6758
▁ስርአቶች	-10.6764
▁በመተከል	-10.6764
▁ባለሞያዎች	-10.6767
▁ምእመናን	-10.6769
▁ትኩረቱን	-10.6771
የትግራይ	-10.6783
▁ሎክ	-10.6785
▁ማሻሻያዎች	-10.6787
▁በሜዳ	-10.6791
▁እየፈጠረ	-10.6792
▁በመታገዝ	-10.6794
▁እርግጠኛ	-10.6795
▁የሚጠቀስ	-10.6796
▁ይስሀቅ	-10.6796
▁ስለዚህም	-10.6796
▁እምቅ	-10.6796
▁እየተፈፀመ	-10.6797
ዱላ	-10.68
▁ያደረገችው	-10.6801
ችንን	-10.6802
▁ዋሺንግተን	-10.6803
▁የህብረት	-10.6804
▁ሌተናል	-10.6804
▁ውጤታማነት	-10.6807
▁ፕሮጀክቱን	-10.6809
▁መድረሳቸውን	-10.6816
አሜሪካ	-10.6821
▁ጊዜያቸውን	-10.6823
▁እንዲያውም	-10.6824
▁መልእክቶች	-10.6831
▁ምርቱን	-10.6832
▁ከማ	-10.6836
▁ለእኛ	-10.6838
2000	-10.6843
▁top	-10.6845
▁ተለያይቷል	-10.6847
▁በማሳተፍ	-10.685
▁አስቆጣሪ	-10.685
▁ይታመናል	-10.6859
▁እፈልጋለሁ	-10.6859
▁ከሰሜን	-10.686
▁ተለያይተዋል	-10.686
▁አፅንኦት	-10.686
▁መቅረብ	-10.6861
▁የቆዳ	-10.6861
▁በብድር	-10.6862
▁ጫፍ	-10.6863
▁በአነስተኛ	-10.6864
▁ወክለው	-10.6864
▁ያለችው	-10.6865
▁በሽታውን	-10.6865
▁በመምታት	-10.6865
▁በተቀመጠው	-10.6866
▁በማስፋት	-10.6867
▁ተጠርጣሪው	-10.6868
▁መዘናጋት	-10.687
▁ይውላል	-10.6871
▁እጃቸውን	-10.6876
▁በመሬት	-10.6876
▁የቤኒሻንጉል	-10.6877
▁ምርጫዎች	-10.688
▁ዋለልኝ	-10.6883
▁ህብረ	-10.6883
▁ሆስፒታሉ	-10.6884
▁የግማሽ	-10.6885
▁ፍፃሜው	-10.6891
▁ተገቢነት	-10.6898
▁ዜናዊ	-10.6903
▁ስልጠናዎችን	-10.6904
▁መሞታቸውን	-10.6906
▁ኡ	-10.6906
▁ያመለከተው	-10.6909
▁ግል	-10.6916
▁አብያተ	-10.6917
▁ህጉን	-10.6918
▁አዋጅን	-10.6919
▁ያሉበትን	-10.6925
▁አይችሉም	-10.6928
▁ደጀኔ	-10.6928
▁አቀረቡ	-10.6928
▁የዳኝነት	-10.6929
▁እንቅስቃሴው	-10.6929
▁የሩሲያ	-10.6931
▁ተጭነው	-10.6931
▁በእንቅስቃሴ	-10.6932
A	-10.6934
▁ግኝት	-10.6935
▁ከሁለቱ	-10.6935
▁አብዛኛውን	-10.6936
ገኝ	-10.6941
▁ምዘና	-10.6942
▁የበአሉ	-10.6946
▁እንደሚፈጥር	-10.6947
1500	-10.6947
▁የኢጋድ	-10.695
▁የወረዳው	-10.6956
▁ሀሳብን	-10.6956
▁ከጥቅምት	-10.6957
▁በማረሚያ	-10.6958
▁እየተዘጋጀ	-10.6964
▁ካፕ	-10.6965
ሳል	-10.6967
▁78	-10.6968
▁ስላ	-10.6975
▁አፍሪካዊ	-10.6979
▁እንዲጠናከር	-10.6984
▁መግለፁ	-10.6985
▁እንፈልጋለን	-10.6991
▁ክምችት	-10.6992
▁ማሟላት	-10.6992
▁እየተደረጉ	-10.6992
▁እንደሻው	-10.6995
▁ለኮሮና	-10.6995
▁ለግል	-10.6996
▁ኤንድ	-10.6997
▁ለገጣፎ	-10.6997
▁እንደሚፈልጉ	-10.6997
▁አሰራርን	-10.6997
▁በተቀናጀ	-10.7002
▁አራዳ	-10.7005
▁በተገኘ	-10.7006
▁ይገባ	-10.7007
▁የባለሙያዎች	-10.7008
▁CAF	-10.7011
▁ለቤት	-10.7013
▁58	-10.7015
▁ብፁእ	-10.7017
▁ፈ	-10.702
▁መዘጋጀታቸውን	-10.7023
▁ልገሳ	-10.7023
▁የቻይናው	-10.7025
▁ስልጣናቸውን	-10.7025
▁አሰራሮችን	-10.7028
▁ውክልና	-10.7031
ጥር	-10.7033
▁መጠናቀቁ	-10.7033
▁በህዳሴ	-10.7039
▁በደደቢት	-10.7043
▁ካለበት	-10.7043
በተለያዩ	-10.7047
▁ዝግጅቱ	-10.7047
የጠቅላይ	-10.7051
▁ሩስያ	-10.7055
▁በንቃት	-10.7058
▁እየተንቀሳቀሱ	-10.7059
▁ሳይሆኑ	-10.7059
▁ሀምዶክ	-10.7059
▁በተመረጡ	-10.706
▁ባዘጋጀው	-10.7061
▁አሀዝ	-10.7062
▁ማቆም	-10.7063
▁bo	-10.7063
▁ለህክምና	-10.7063
▁በውስጡ	-10.7065
▁በመተግበር	-10.7066
▁ምክርቤት	-10.7067
▁ከዘርፉ	-10.7072
▁የሙቀት	-10.7073
▁የመሳሰሉት	-10.7075
▁የአርሶ	-10.7077
▁ከሰኔ	-10.7082
▁የማጣርያ	-10.7085
▁ያገኙ	-10.7086
▁ከጅቡቲ	-10.7088
▁እጅጉን	-10.7088
▁ፌዴሬሽኖች	-10.7089
▁ማቅረቡን	-10.7094
ለይቶ	-10.7095
▁ዘመናቸው	-10.7099
▁በባህል	-10.7101
ይህንን	-10.7103
ኪንግ	-10.7104
▁ድ	-10.7107
▁ሽታ	-10.7108
▁ከህዝቡ	-10.7108
▁የነበራቸውን	-10.7111
ቃል	-10.7112
▁በቀድሞ	-10.7115
▁በእኩል	-10.7119
▁የሚገባውን	-10.712
▁መካሄዱን	-10.7122
▁የሁለቱም	-10.7125
▁አዳጋች	-10.7125
▁ተሻገር	-10.7126
▁ክፉ	-10.7126
▁በፌስ	-10.7127
▁ኪሎሜትር	-10.7127
▁ለመወሰን	-10.7127
▁እክል	-10.7127
▁ዘግይቶ	-10.7128
▁የሚሰራው	-10.7128
▁ውሀን	-10.7131
▁በተገናኘ	-10.7131
▁ፅንፈኛ	-10.7131
▁ፌዴራላዊ	-10.7132
▁ወዘተ	-10.7132
▁አባባል	-10.7133
▁አካባቢያዊ	-10.7139
▁ከገባ	-10.7142
▁ለቀጣዩ	-10.7144
▁እያደረሰ	-10.7144
▁ባለሜዳዎቹ	-10.7145
▁ረጃጅም	-10.7145
▁የመስቀል	-10.7152
▁ሪ	-10.7154
▁ያደረሰው	-10.7156
▁በፈረንሳይ	-10.7157
▁ሱዳንን	-10.7159
▁አሸንፈው	-10.716
▁ነውአዲስ	-10.7166
▁የራስ	-10.7169
▁ቤተሰቡ	-10.7171
▁ስፖርቱ	-10.7172
▁እስረኞች	-10.7175
▁ለቫይረሱ	-10.7176
ለሁ	-10.7182
▁መጪው	-10.7184
▁ኒው	-10.7187
▁ተዘጋጅቶ	-10.7189
▁ምክንያታዊ	-10.7189
▁ተጠያቂነት	-10.719
▁ምኒልክ	-10.7193
▁ለመቀላቀል	-10.7193
▁እንዳመለከተው	-10.7193
▁ማመላለሻ	-10.7193
ኳስ	-10.7195
▁በተደራጀ	-10.7197
▁ይልማ	-10.7198
▁ራስ	-10.7199
▁በማስመዝገብ	-10.7205
▁ያመራው	-10.7205
▁የዋንጫ	-10.7209
▁የልዩ	-10.7212
▁የእኔ	-10.7214
▁ተካሄደ	-10.7217
▁በበኩሏ	-10.7217
▁የተረጋገጠ	-10.7218
▁ባቱ	-10.7225
▁ጎ	-10.7227
▁ብቸኛው	-10.7227
▁64	-10.7236
▁የሚመለከተው	-10.725
▁ለኢዜአ	-10.7251
▁ተከፍሎ	-10.7255
▁ማደግ	-10.7262
▁ሳኑሚ	-10.7263
▁የተሻገረለት	-10.7265
▁መማር	-10.7265
▁የእቅድ	-10.7265
▁አውጥቷል	-10.7266
▁ርጭት	-10.7266
▁ተጠናቀቀ	-10.7273
▁የአፍሪቃ	-10.7273
ቷን	-10.7274
▁የተፋሰሱ	-10.7274
▁ሊቀመንበሩ	-10.728
▁ኢን	-10.7282
▁ፋንታ	-10.7287
▁ሶ	-10.7288
▁የሚያስፈልጉ	-10.7289
▁ባለሙያዎቹ	-10.729
ዞ	-10.7293
ኢ	-10.7295
▁በአካባቢ	-10.7296
▁አከባቢ	-10.7302
▁አቡ	-10.7305
▁የተዘጋጁ	-10.7308
▁የፈፀሙ	-10.7309
▁ነዋሪዎችን	-10.731
▁እንደሚሳተፉ	-10.7311
▁አሸንፈ	-10.7311
▁ብክለት	-10.7311
▁ምስክሮች	-10.7312
▁የሚሳተፉበት	-10.732
▁ይገባልም	-10.7321
▁እርሱ	-10.7322
ዱልከሪ	-10.7324
▁ጥቃቶችን	-10.7326
▁ይከናወናል	-10.7329
▁መመሪያዎች	-10.733
▁ሲያሸንፍ	-10.733
▁መፈናቀል	-10.733
▁ተደርጎላቸዋል	-10.7331
▁ጅግጅጋ	-10.7332
▁ያልተገባ	-10.7333
▁ባለስልጣኖች	-10.7333
▁የድርድር	-10.7333
▁በመቶውን	-10.7334
▁የቢሮ	-10.7334
▁ሚንስቴር	-10.7335
▁በመጫን	-10.7335
▁መጓዝ	-10.7335
▁የወደፊት	-10.7336
▁ማለቱን	-10.7337
▁ሙሉቀን	-10.7339
▁አንዴ	-10.7339
▁በመጨመር	-10.7339
ሼህ	-10.734
▁የወባ	-10.734
▁goals	-10.7342
▁round	-10.7348
▁አፈወርቅ	-10.735
▁አዛ	-10.7353
▁ሰማያዊ	-10.7355
▁ችሎቱ	-10.7355
ጠ	-10.7356
▁ማቀዱን	-10.7356
▁በአደጋው	-10.7357
▁የፊፋ	-10.7357
▁ንፅህና	-10.7359
እጩነት	-10.7362
▁የሚጠበቅባቸውን	-10.7366
▁መመስረት	-10.7371
▁አጋሮች	-10.7374
▁ምቶች	-10.7377
▁መናገራቸው	-10.7378
▁መግለፃቸው	-10.7379
▁መሪው	-10.7381
▁አቅጣጫዎችን	-10.7382
▁በተፈፀመ	-10.7383
▁በእስራኤል	-10.7384
▁አፈፃፀሙ	-10.7388
▁መያዙ	-10.7398
▁ማስተላለፊያ	-10.7398
▁ተደርገዋል	-10.7398
▁የመፍጠር	-10.7398
▁ተገናኝቶ	-10.7398
▁እየተባባሰ	-10.7399
▁እንዲችል	-10.74
▁አሰቃቂ	-10.7401
▁ሙሴ	-10.7401
▁ጠበቆች	-10.7402
▁አማርኛ	-10.7402
▁ተመዝግቧል	-10.7402
▁ሰይድ	-10.7402
▁አንስቷል	-10.7403
▁ልኡል	-10.741
▁በዚያው	-10.7411
▁መፈጠሩን	-10.7416
▁ሻምፒዮን	-10.7417
▁ለፌዴሬሽኑ	-10.7418
▁እንደሚከናወን	-10.7418
▁በአገልግሎት	-10.7418
▁የስምምነት	-10.7418
በአገሪቱ	-10.7419
▁በዋሽንግተን	-10.7422
▁ከመሆን	-10.7422
▁የሚረዱ	-10.7423
▁የታዩ	-10.7423
▁የፍፃሜ	-10.7425
▁ለፖሊስ	-10.7425
▁ከተከሰተ	-10.7428
▁የተጎዱ	-10.7431
▁head	-10.7431
▁ለአደጋ	-10.7431
▁ቢኖርም	-10.7432
▁በነበሩት	-10.7433
ጆ	-10.7435
▁በተባሉ	-10.7439
▁የትራምፕ	-10.7439
▁ይሁንታ	-10.744
▁ዝግጁነት	-10.7443
▁ከተደረገ	-10.7444
▁መነቃቃት	-10.7448
▁መር	-10.745
ባቸውን	-10.745
▁ጀግኖች	-10.7453
▁በፌዴሬሽኑ	-10.7453
ወይዘሮ	-10.7454
▁ማግባት	-10.7455
▁የምና	-10.7455
▁አምስቱ	-10.7457
ለታል	-10.746
▁ሙስሊሙ	-10.7467
▁ሙፈሪያት	-10.7468
▁በመሆኗ	-10.7468
▁እንደሚያግዝ	-10.7468
▁ሲገልፁ	-10.747
▁አመታቸው	-10.7471
▁ፕሮፌሰሩ	-10.7474
▁ሳንቲም	-10.7475
▁ማንሳት	-10.7476
▁የተጫወተ	-10.7477
▁በጥራት	-10.7481
▁በቁጥር	-10.7481
▁የሳይንስ	-10.7482
▁ዮናታን	-10.7483
▁ነበረበት	-10.7483
በርካታ	-10.7484
▁ነቀምት	-10.7486
▁የዘለቀው	-10.7487
▁ዋልያዎቹ	-10.7488
▁ዝርያ	-10.7493
▁በሰዎች	-10.7502
▁ካናዳ	-10.7508
▁ጥሬ	-10.7508
▁የደረሰበት	-10.7512
▁የሚገልፅ	-10.7518
▁ያገለገሉ	-10.7518
▁በጥናቱ	-10.7518
▁የሚካሄደውን	-10.752
ኤ	-10.752
▁መከላከያዎች	-10.7521
▁የሚያስፈልገው	-10.7524
▁ታማኝ	-10.7525
▁ለሰው	-10.7525
▁ሀገሩ	-10.7527
▁ተጫዋቾቼ	-10.753
▁ባለሀብት	-10.7534
▁አሳሰቡ	-10.7538
▁ይኖርብናል	-10.7538
መልበሻ	-10.7538
▁በሚቻልባቸው	-10.7538
▁የሚመለከት	-10.7539
▁ስምኦን	-10.7539
▁በማደራጀት	-10.754
▁ቆይታለች	-10.7542
▁ከሚኖሩ	-10.7542
▁እየደረሰ	-10.7545
▁የምርጫው	-10.7548
▁ኢሬቴድ	-10.7549
▁Fasil	-10.7553
▁በኢፌዴሪ	-10.7553
▁ሙቀት	-10.7555
▁ከሰባት	-10.7555
▁የገንዘብና	-10.7557
▁አቀረበ	-10.7559
900	-10.756
▁የሚጫወቱ	-10.7561
▁የተመለሰው	-10.7563
▁ያሳየ	-10.7564
አያይዘውም	-10.7571
▁ከመቐለ	-10.7573
▁ዜ	-10.7573
▁ድቻዎች	-10.7575
ኤል	-10.7583
▁ያጡ	-10.7586
▁ለተፈናቀሉ	-10.7586
▁ጎብ	-10.7587
▁እንደሚሰጡ	-10.7596
▁ስምምነቶችን	-10.7597
▁ከምንም	-10.7601
▁ከተባለ	-10.7605
▁የምስክር	-10.7605
▁አለመቻሉን	-10.7606
▁እንዲነሳ	-10.7607
▁ተሸንፎ	-10.7608
▁በዘለለ	-10.7608
▁እንዲቋቋም	-10.7609
▁ጥሎ	-10.761
▁አገሪቷ	-10.761
▁ለደረሰባቸው	-10.7611
▁እንቅስቃሴን	-10.7611
▁አስታውቀው	-10.7612
▁ፓውንድ	-10.7612
▁አጠናቀው	-10.7612
▁striker	-10.7613
▁አደሩን	-10.7613
ሪል	-10.7613
▁በተጠናከረ	-10.7614
▁ጠ	-10.7615
▁ዘመነ	-10.7615
▁በዝግ	-10.7618
▁አላችሁ	-10.7619
▁የጣሊያን	-10.7625
▁የወሰን	-10.7632
▁ጎልቶ	-10.7633
▁የኢሬቻ	-10.7637
▁ኮትዲ	-10.7639
▁የሚያሳዩ	-10.7641
▁ከሲዳማ	-10.7648
▁መካከለኛው	-10.7649
▁የተደራጁ	-10.7651
▁በበለጠ	-10.7655
▁አደረጉ	-10.7664
ማን	-10.7665
▁f	-10.7666
▁ኤምባሲው	-10.7669
▁አጥነት	-10.7674
▁ሰነዱ	-10.7675
ድጋፉ	-10.768
▁በተወሰኑ	-10.768
▁ያብራሩት	-10.7681
▁አሰባሰብ	-10.7684
▁ውብ	-10.7684
▁ሊሰጠው	-10.7686
▁የኬሚካል	-10.7687
▁በድርጅቱ	-10.7688
▁አብዮት	-10.7689
▁በፊትም	-10.7691
▁የሚከተሉት	-10.7692
▁ያሳየው	-10.7692
▁የአፈር	-10.7692
▁የኩባንያው	-10.7693
▁ለአርሶ	-10.7693
▁ገዢ	-10.7695
▁በሊቢያ	-10.7697
▁ላደረጉት	-10.7698
▁የተሻገረው	-10.7702
▁ሀይልና	-10.7704
72	-10.7705
▁ጠብቀው	-10.7706
▁ከውጪ	-10.7706
▁አሰምተዋል	-10.7707
▁አድርገውላቸዋል	-10.7707
▁ፕሮጀክቶቹ	-10.7714
▁ፓኖም	-10.772
▁ዋንጫው	-10.7722
▁ይሄንን	-10.7723
▁ህፃን	-10.7723
▁የተፈፀመውን	-10.7725
▁ሰጠ	-10.7727
▁መከናወኑን	-10.7728
▁ተቀላቅሏል	-10.7732
▁ብራዚል	-10.7736
▁ሰብሎች	-10.7736
▁መንጋው	-10.7736
▁ዘጋቢ	-10.7744
▁ብቅ	-10.7745
▁በቀስ	-10.7748
ቀረው	-10.7748
በመጨረሻም	-10.775
▁week	-10.7752
▁ክ	-10.7752
▁ለማራዘም	-10.7753
▁ማክስ	-10.7754
ያለሁ	-10.7754
▁የሰነድ	-10.7754
▁የማሀበራዊ	-10.7756
▁ደረሰ	-10.7757
▁አልጋ	-10.7757
▁ታካሚዎች	-10.7759
▁በመንቀሳቀስ	-10.776
▁የደስታ	-10.7762
▁EthioElectric	-10.7762
▁ኒውስ	-10.7763
▁ለግድቡ	-10.7764
▁አድማ	-10.7765
▁ማሽን	-10.7766
▁የሚኒስቴሩ	-10.7768
▁ስል	-10.7769
▁ኡን	-10.7771
▁የእጣ	-10.7774
▁ገላ	-10.7777
▁ለፍትህ	-10.7778
▁የተወሰነው	-10.7779
ብር	-10.7788
57	-10.7789
▁በእንግሊዝ	-10.779
▁ነበረ	-10.7793
ሌሎች	-10.7796
▁እጃቸው	-10.7814
▁ፍልስፍና	-10.7819
▁ለማፋጠን	-10.7822
▁መጥቶ	-10.7822
▁ሳይችሉ	-10.7822
▁ሊከሰት	-10.7823
▁መውጫ	-10.7825
▁ኢማኑኤል	-10.7825
▁ኮሚኒኬሽን	-10.7826
▁ከሀላፊነታቸው	-10.7827
▁በፅሁፍ	-10.7828
▁ዘካርያስ	-10.7832
ዲሲፕሊን	-10.7834
▁በተቋሙ	-10.7835
▁ሳይንሳዊ	-10.7837
▁ድጋፋቸውን	-10.7838
▁ከመጣ	-10.784
▁መላክ	-10.7843
▁የደረሰበትን	-10.7845
▁የሚሰጣቸው	-10.7845
▁በዝውውር	-10.7847
ሰጥ	-10.7848
▁ያሳለፈ	-10.7857
ቅዳሜ	-10.7857
▁ወጣቶችና	-10.7868
ገነት	-10.7868
▁84	-10.7868
▁ሳልቫ	-10.7869
ስራ	-10.7878
▁ክሶች	-10.7879
▁68	-10.7879
▁በሆኑት	-10.788
▁ክልሉን	-10.788
44	-10.7881
▁መደበኛው	-10.7881
▁በነበሩበት	-10.7881
▁የጅቡቲ	-10.7881
▁ግንኙነቶች	-10.7882
▁መፃህፍት	-10.7883
▁ሌሎችንም	-10.7883
ቅፅ	-10.7884
▁የእንቅስቃሴ	-10.7889
▁ባልደረባ	-10.789
▁ትልቁን	-10.789
▁የሚያስችላቸውን	-10.7894
▁ተመልክቶ	-10.7895
▁ይባላል	-10.7895
▁ፍንዳታ	-10.7895
▁ሙከራዎችን	-10.7895
▁እንዲለቀቁ	-10.7896
▁ዮርክ	-10.7897
▁ድክመት	-10.7898
▁አጣሪ	-10.7898
▁ሽ	-10.7899
▁ኬሚካል	-10.7901
▁ማሳለፍ	-10.7901
▁ነጭ	-10.7902
▁ተጠቂዎች	-10.7903
ሰሜን	-10.7907
▁ተጠባቂ	-10.7908
▁ቱሉ	-10.7908
▁የቀኝ	-10.791
▁አስጠንቅቀዋል	-10.791
▁አምነስቲ	-10.7916
▁መተከል	-10.7921
▁ሀብትና	-10.7925
▁ያለነው	-10.7926
▁74	-10.7929
▁ሀገራትን	-10.7931
▁ዛምቢያ	-10.7932
▁መስጠታቸውን	-10.7933
▁ከግንቦት	-10.7933
▁የተደረሰው	-10.7938
▁ቀጥለዋል	-10.7945
58	-10.7947
▁ሀብቶች	-10.7956
▁እንደሆነች	-10.7957
▁ወንዞች	-10.7957
ቭ	-10.7958
ከዚያም	-10.796
▁ደጉ	-10.7966
▁ይጫወታል	-10.7968
▁በማቅናት	-10.7968
▁የመቆጣጠር	-10.7968
▁በመቆጣጠር	-10.7968
▁beat	-10.7968
▁መለወጥ	-10.7968
▁ለመሙላት	-10.7968
▁እንዲል	-10.7969
▁አመርቂ	-10.7969
▁ማቋቋሚያ	-10.7969
▁ያእቆብ	-10.797
▁ረሺድ	-10.797
▁እርግጥ	-10.797
▁እየተገነቡ	-10.797
▁ፌስቲቫል	-10.797
▁ፕሬዚዳንቶች	-10.797
▁ለዴሞክራሲ	-10.7972
▁ለሚገኘው	-10.7973
▁ለስድስት	-10.7974
▁የሽልማት	-10.7974
▁በቤታቸው	-10.7979
▁ተክሉ	-10.7982
▁ለተከታታይ	-10.7985
▁ዛፍ	-10.7987
▁ብት	-10.7989
ቶታል	-10.799
▁ጥበቃና	-10.7995
▁ሞላ	-10.7995
▁ለመክፈል	-10.8003
▁ከውድድሩ	-10.8003
▁ውሏል	-10.8004
▁ጫማ	-10.8008
▁የተጠበቀ	-10.8008
▁አገግመዋል	-10.8009
▁ፌ	-10.8018
▁ተጋጣሚ	-10.802
▁በአህጉሪቱ	-10.8026
▁በመቶዎች	-10.8027
ክስ	-10.8032
ተጨማሪ	-10.8039
▁ብለዋልአዲስ	-10.804
▁ተገድለዋል	-10.8041
▁ርእይ	-10.8041
▁የሚደነቅ	-10.8041
▁አቋራጭ	-10.8042
▁በደረሰበት	-10.8042
▁ሊቀጥል	-10.8043
▁የመለየት	-10.8043
▁ሬድዋን	-10.8043
▁ገበታቸው	-10.8044
▁በመግጨት	-10.8044
▁መግለፅ	-10.8045
▁እንዲውሉ	-10.8045
▁መከሰት	-10.8045
▁ታምሩ	-10.8045
▁በዝቅተኛ	-10.8045
▁ጃኮ	-10.8046
▁ሀረርጌ	-10.8046
▁የመስክ	-10.8047
▁ከመሀል	-10.8047
አዳማ	-10.8049
▁ካሜሩን	-10.8054
▁ኢንዱስትሪው	-10.8056
ወልዋሎ	-10.8059
▁ቀና	-10.806
▁football	-10.8061
ጥቃቱ	-10.8064
መራ	-10.8065
▁ዳግማዊት	-10.8068
▁አጠናቀዋል	-10.8068
▁ከሆነው	-10.807
ሰሀራ	-10.8077
46	-10.8079
▁በወረዳው	-10.8084
▁የሚከሰቱ	-10.8084
▁ጉዳቱ	-10.8091
▁እንደሚኖር	-10.8091
▁በመስከረም	-10.8091
ተጠርጣሪዎቹ	-10.8095
▁ባልቻ	-10.8097
▁መቅረቡን	-10.8097
▁ቆዳ	-10.8102
ከፍተኛ	-10.8103
▁ፍልሰተኞች	-10.8108
▁አለመሆኑ	-10.8108
ቻይና	-10.8114
ሌላኛው	-10.8114
▁ሁለተኛውን	-10.8115
▁መንግስቴ	-10.8115
▁ተሻለ	-10.8116
▁ኡስማን	-10.8116
▁በመክፈት	-10.8116
▁በማስከበር	-10.8116
▁ብርሀኔ	-10.8119
▁ሲንቀሳቀስ	-10.8119
▁የሚከተለው	-10.812
▁የሚደረግበት	-10.8121
▁ክሳቸው	-10.8122
▁ሲቀጥል	-10.8122
▁ለረዥም	-10.8123
▁የግብአት	-10.8123
▁ጋሻው	-10.8124
ታችን	-10.8126
▁C	-10.8127
▁ዳርቻ	-10.8128
▁መቆራረጥ	-10.813
▁እርከን	-10.813
▁ከነዚህም	-10.813
▁ከስምንት	-10.8134
▁የሚፈጠሩ	-10.8137
▁የሰጠውን	-10.8146
▁ከሳኡዲ	-10.8147
▁ቁጭ	-10.8151
▁ቢደረግ	-10.8152
ያስቆጥር	-10.816
▁ጊዜውን	-10.816
▁እሳቸው	-10.8168
▁የቀረበለት	-10.817
▁በሚደረግ	-10.817
▁ተይዘዋል	-10.8171
▁ተገኝቶባቸዋል	-10.8173
በቀጣይ	-10.8176
▁ውሉ	-10.8179
ለም	-10.818
▁ማቻር	-10.8182
less	-10.8182
▁አሳይተዋል	-10.8189
▁champions	-10.819
▁ደራሽ	-10.819
▁የኮሙኒኬሽን	-10.8191
▁ዳምጠው	-10.8191
▁ቅያሪ	-10.8192
▁እንደተገለፀው	-10.8192
▁Electric	-10.8193
▁ገብረክርስቶስ	-10.8193
▁አዳሙ	-10.8194
▁ሰፋፊ	-10.8194
▁ጨዋታም	-10.8196
▁ቱኒዚያ	-10.8196
▁ኢንተርኔት	-10.8197
▁ድርጅቶችና	-10.8197
▁አይናለም	-10.8197
ባል	-10.8198
▁ብልሹ	-10.8198
▁መባሉን	-10.82
▁ለወራት	-10.8203
▁በደስታ	-10.8207
▁ታድያ	-10.8209
▁ሙስናን	-10.8214
▁ለችግሩ	-10.8214
▁ከሚኒስቴሩ	-10.8217
▁ሀሳቡ	-10.822
▁ሳር	-10.822
▁የሚከናወኑ	-10.8223
▁በእኛ	-10.8226
▁የመላው	-10.8226
ማእከሉ	-10.823
▁get	-10.8233
▁በጨዋታ	-10.8236
▁ከተደረገላቸው	-10.8237
▁ተማሪዎቹ	-10.8238
ፈረንጆቹ	-10.8239
▁እራሳቸውን	-10.8242
የመንግስት	-10.8251
▁እየታዩ	-10.8253
▁ቡሩንዲ	-10.8256
▁እንዲፈፀም	-10.826
ረስ	-10.8262
▁ጀግና	-10.8263
▁ጂቡቲ	-10.8264
▁ምክኒያት	-10.8265
▁አስባለሁ	-10.8265
▁ከሳጥ	-10.8265
▁የመመለስ	-10.8265
▁ሊጎች	-10.8266
▁ይሰራሉ	-10.8266
▁ለማጣራት	-10.8266
▁አወቀ	-10.8267
▁እንዲወስድ	-10.8267
▁መዘግየት	-10.8267
▁ተግዳሮት	-10.8267
▁ተደርሷል	-10.8268
▁ሰበብ	-10.8268
▁ሬዲዮ	-10.8268
▁መነሳት	-10.8269
▁ቅነሳ	-10.827
▁እየመሩ	-10.8271
▁ባለሙሉ	-10.8271
መቶ	-10.8271
▁በሰብአዊ	-10.8271
▁የማሀበረሰብ	-10.8272
▁ዝርፊያ	-10.8273
▁በመግዛት	-10.8273
▁የፕሮጀክት	-10.8273
▁ቅሬታዎች	-10.8279
▁የተቀመጠው	-10.8281
▁የቤቶች	-10.8281
▁ቀኑ	-10.8282
▁ተራራ	-10.8282
▁ከነማን	-10.8282
▁ጨርቅ	-10.8283
▁በቴሌቪዥን	-10.8283
ሎች	-10.8283
▁በሳምንት	-10.8285
▁አርማ	-10.8289
43	-10.8291
▁ሁኔታን	-10.8292
ወርቅ	-10.8293
▁ወልዋሎዎች	-10.8293
▁ከሰው	-10.8295
▁ደደቢትን	-10.8298
▁በአገሪቷ	-10.8299
▁ራሳቸው	-10.8303
▁ልምምዳቸውን	-10.8306
▁ከፕሬዚዳንት	-10.8306
▁ቢኖር	-10.8307
▁ለጉዳዩ	-10.8308
▁እንደተቻለ	-10.8311
▁በሜዳቸው	-10.8315
ጊ	-10.8316
▁all	-10.8319
▁ጭፍጨፋ	-10.8323
▁እንደተ	-10.8323
▁ለግብፅ	-10.8324
▁እንደሚያስፈልግም	-10.8328
▁ያለንን	-10.833
▁ክስተቶች	-10.8332
▁አምርቷል	-10.8335
▁ከሶማሌ	-10.834
▁ተጠብቆ	-10.8341
▁ተጫውቶ	-10.8341
▁ይሰጣሉ	-10.8341
▁ለመክፈት	-10.8341
▁ያነሳሉ	-10.8342
▁ለማቆም	-10.8342
▁ወተት	-10.8342
▁እንዲነሱ	-10.8344
▁ድጎማ	-10.8344
▁ጁባ	-10.8344
▁ትችት	-10.8345
ሁሉም	-10.8345
▁የፌስቡክ	-10.8345
▁የትጥቅ	-10.8346
▁የኦዲት	-10.8346
▁መጠናከር	-10.8348
▁በመጀመርያ	-10.8348
▁የተገነባ	-10.8349
▁ለማድረግም	-10.835
▁61	-10.835
▁መፅናናትን	-10.8351
▁የስንዴ	-10.8352
▁በትራንስፖርት	-10.8352
▁የተያዙት	-10.8353
▁በመከታተል	-10.8354
▁thi	-10.8357
መጭው	-10.8359
▁በየእለቱ	-10.836
▁ድርጅቶቹ	-10.8362
od	-10.8362
▁ሱሉልታ	-10.8363
▁የገዳ	-10.8363
ive	-10.8365
▁መመሪያዎችን	-10.8369
▁አጎራባች	-10.837
▁ግ	-10.8381
▁ተመርጠዋል	-10.8383
▁የደረሱት	-10.8386
▁የሰጡትን	-10.8387
ዋና	-10.8388
የህዝብ	-10.8393
▁የሚያገለግሉ	-10.8397
▁ከንግድ	-10.8397
▁ዘንድሮም	-10.84
ዎቻቸው	-10.8405
ሚኖረው	-10.8415
▁አበርክተዋል	-10.8415
▁struc	-10.8415
▁በነበረ	-10.8415
▁ሳይሳካ	-10.8416
▁ቃለምልልስ	-10.8417
▁አቪዬሽን	-10.8418
▁እንደሚያቀርብ	-10.8419
▁ስለሚችል	-10.842
▁ሻለቃ	-10.8422
▁ከውድድር	-10.8423
▁ፎቅ	-10.8423
▁በፋይናንስ	-10.8423
▁83	-10.8424
▁በተለምዶ	-10.8426
▁እንዳለውም	-10.8427
▁ለብዙ	-10.8432
▁ርክክብ	-10.8439
▁ለኢትዮጵያውያን	-10.8441
▁ጥምር	-10.8441
▁ኦሞ	-10.8445
▁አገርን	-10.8446
▁የምድቡ	-10.8449
በአማራ	-10.845
▁86	-10.845
▁ያሏቸውን	-10.8453
▁ሁነኛ	-10.8453
▁በህንድ	-10.8454
▁የተሰጣቸውን	-10.8457
▁መቐለዎች	-10.8459
▁ተናግረዋልአዲስ	-10.8461
ሏ	-10.8464
▁በሚያ	-10.8464
▁እንዲመራ	-10.8467
▁ከባህር	-10.8468
▁እናንተ	-10.8476
▁76	-10.8476
▁67	-10.848
▁ገንዘቡ	-10.8482
ምራ	-10.8488
▁በኢኮኖሚው	-10.8489
▁African	-10.8489
▁መኪኖች	-10.849
▁ሱቆች	-10.849
▁አለመኖሩ	-10.849
▁ፈፅሟል	-10.8494
▁ተሰጥቷቸዋል	-10.8494
▁ማስቀመጥ	-10.8494
▁ይጠበቅበታል	-10.8494
▁ሀጎስ	-10.8494
▁ለመሰማራት	-10.8494
▁እንደቀጠለ	-10.8495
▁ተፈናቅለው	-10.8495
▁ኢትዮጵያም	-10.8496
▁እንደማይችሉ	-10.8496
▁ለመሸፈን	-10.8496
▁መአዛ	-10.8496
▁በመተካት	-10.8497
▁ጃዋር	-10.8497
▁ነጥቦችን	-10.8498
▁ለመላክ	-10.8499
▁የእስር	-10.85
▁መቻል	-10.8502
▁ሲደረጉ	-10.8503
▁አሰ	-10.8508
▁እግዚአብሄር	-10.8511
▁ግንባታን	-10.8514
▁ተጋላጭነት	-10.8517
▁ከግብርና	-10.852
el	-10.8524
▁ቀነ	-10.8524
▁በሰኔ	-10.8531
▁ዘመኑን	-10.854
▁እየተጫወተ	-10.8544
▁ፈላጊ	-10.8551
▁የሚፈፀሙ	-10.8553
▁ተጠርጣሪዎችን	-10.8553
የሰላም	-10.8554
▁የነፃ	-10.8556
ሆነችው	-10.8559
▁በማምራት	-10.8561
▁ዲሞክራሲ	-10.8565
▁ኢኮኖሚው	-10.8566
▁ምልክቶች	-10.8568
▁የሚመጣ	-10.8569
49	-10.857
▁አቅራቢዎች	-10.857
▁ለመወያየት	-10.8572
▁ጠቁሞ	-10.8572
▁ሊያስከትል	-10.8572
▁ለመለወጥ	-10.8573
▁ሴክተር	-10.8575
▁በሚያስችሉ	-10.8576
▁ተቆጣጣሪ	-10.8577
▁ለማዳን	-10.8577
▁በማድረጉ	-10.8577
▁ዝናቡ	-10.8578
▁በመመደብ	-10.8578
▁ኮሚዩኒኬሽን	-10.8579
▁እየተወጣ	-10.8579
▁ለሚመለከተው	-10.858
▁መወያየታቸውን	-10.8581
ምርጥ	-10.8581
▁እንግዲህ	-10.8582
▁የትኛውም	-10.8583
▁ቢችልም	-10.8585
▁መንግስታቸው	-10.8586
ጉዳዩ	-10.8593
▁ቻን	-10.8593
▁ሲኖሩ	-10.8597
▁የሚመሩ	-10.86
▁እዚያው	-10.8605
▁በተዘጋጀ	-10.8609
▁በጠበቀ	-10.8626
ተቋሙ	-10.8628
▁ባለቤትነት	-10.8629
▁ያስተናግዳል	-10.8632
▁ስብሰባዎች	-10.8632
▁መውሰዱን	-10.8633
▁አስፈፃሚዎች	-10.8634
እለት	-10.8643
▁መጨናነቅ	-10.8645
ፓርኩ	-10.8645
ዜ	-10.8646
▁ከዛም	-10.8647
▁እቅዶች	-10.8647
▁ሰውነት	-10.8648
▁ማፍራት	-10.865
▁ታጅቦ	-10.865
▁አቁም	-10.8651
▁እያከናወኑ	-10.8652
▁አመቷ	-10.8653
▁የስነምግባር	-10.8653
▁የዜግነት	-10.8653
▁በጉጉት	-10.8654
▁የምትገኘው	-10.8658
▁ሁልጊዜ	-10.8658
▁የሚፈፀም	-10.8658
▁ይርዳው	-10.8661
▁ላኪዎች	-10.8661
▁በቪዲዮ	-10.8662
ce	-10.8663
በቀጣይም	-10.8664
▁172012	-10.8665
▁ኢዜማ	-10.8666
▁ሱፐር	-10.8669
▁ከማል	-10.867
▁ዩኒቨርስቲዎች	-10.8673
▁መቆየት	-10.8676
▁አቅመ	-10.8677
▁ቅድስት	-10.8681
▁737	-10.8683
▁ፕሬዚዳንቷ	-10.8692
ችበት	-10.8696
▁ለውጦችን	-10.8699
▁የታጠቁ	-10.8706
▁አስፍረዋል	-10.8707
ፔ	-10.8708
▁መመለሳቸውን	-10.8708
▁በቱሪዝም	-10.8709
▁ባካሄዱ	-10.8711
85	-10.8717
52	-10.872
▁ቅንጅት	-10.8722
ሰፈሩት	-10.8722
▁የተለያየው	-10.8728
▁ገመቹ	-10.8728
▁ርስቱ	-10.8729
▁እንዲወስዱ	-10.8729
▁ማገልገል	-10.8729
▁ሰርቷል	-10.8729
▁ይኖራሉ	-10.8729
▁አመላካች	-10.8729
▁እንዲሰማሩ	-10.8729
▁ፋይሉ	-10.873
▁አንቶኒዮ	-10.873
▁በየወሩ	-10.8733
▁የተግባር	-10.8733
▁ከጠዋቱ	-10.8734
2002	-10.8735
▁አልሲሲ	-10.8736
▁ጥረቱ	-10.8737
▁ዝውውሩ	-10.8738
▁መንፈሳዊ	-10.8738
▁በድርድር	-10.8738
▁ቡራዩ	-10.8742
▁በባህላዊ	-10.8742
▁የቦታ	-10.8744
▁ራምኬል	-10.8745
ጫወት	-10.8746
▁እውነታ	-10.8747
▁ሚስ	-10.8748
▁ቪዛ	-10.8748
▁መሰለ	-10.875
▁ከሚገኙት	-10.875
▁ውይይቱን	-10.8752
▁ፆም	-10.8754
▁ከጎረቤት	-10.8758
▁ዘገባውን	-10.8765
▁መገኛ	-10.8766
▁አስተባባሪነት	-10.8772
በጉባኤው	-10.8773
ስተር	-10.8773
▁ሺዎች	-10.8775
▁የቴክኒክና	-10.8775
▁አንዳንዴ	-10.8778
▁ከአገሪቱ	-10.8781
▁የፈረንጆቹ	-10.8784
▁ህ	-10.8787
▁ሰናይ	-10.8789
ሀዋሳ	-10.8799
ኮሚቴው	-10.8799
▁የሚያረጋግጥ	-10.88
▁ያለፈውን	-10.8808
▁ይመክራሉ	-10.8808
▁ሀብታዊ	-10.8808
▁ሙስሊሞች	-10.8808
▁ገብሬ	-10.8808
▁ለመቅረብ	-10.8809
▁የሚፈልግ	-10.8809
▁አዘጋጅቶ	-10.8809
▁ቀለል	-10.8809
▁በሀገራቱ	-10.881
▁የቁሳቁስ	-10.8812
▁ፈለቀ	-10.8812
▁በቤተ	-10.8813
▁እንድታ	-10.8813
▁ገንዘቡን	-10.8813
▁ስንታየሁ	-10.8814
▁መዋቅራዊ	-10.8815
▁ደርቢ	-10.8815
▁የክለብ	-10.8815
▁አረጋዊ	-10.8817
▁ቢችሉም	-10.8817
▁በንብረት	-10.8818
▁clubs	-10.8818
▁ጌቱ	-10.8818
▁ኮንግ	-10.8825
▁ጉጂ	-10.8825
▁ኢትዮጵያውያንና	-10.8827
▁2005	-10.8827
▁የሀረሪ	-10.8829
▁ማግኘታቸውን	-10.8833
▁ሰጪዎች	-10.8833
▁እንደውም	-10.8835
▁የሁለተኛው	-10.8835
▁አልሸባብ	-10.8838
▁ክለቦችን	-10.8839
▁እንደሚገኙበት	-10.8842
▁ትዝታ	-10.8842
▁አቅምን	-10.8846
▁ግልፅነት	-10.8847
▁አሸንፈዋል	-10.8849
ቶቹ	-10.8854
▁ከፌዴሬሽኑ	-10.8854
▁የመጀመሪያዋ	-10.8855
▁በረራዎች	-10.8856
▁የፕሬዚዳንቱ	-10.8858
▁ልማቱ	-10.8861
ብኛል	-10.8865
▁እዚያ	-10.8874
▁በተሳካ	-10.8877
▁የሚገኙትን	-10.8883
▁ሀይ	-10.8886
▁መቀላቀል	-10.8889
▁የልምምድ	-10.8889
▁ከአሰልጣኝ	-10.8891
▁ጥሪያቸውን	-10.8891
▁ከታች	-10.8892
▁ይመጣል	-10.8892
▁ወለል	-10.8894
▁ታዛቢዎች	-10.8896
▁የሶሪያ	-10.8897
▁የቦንድ	-10.8898
▁ይድነቃቸው	-10.8901
▁ቦንድ	-10.8901
▁ሲመለስ	-10.8902
▁ደደቢቶች	-10.8902
▁በቅጣት	-10.8903
▁ጎራ	-10.8903
▁የኪራይ	-10.8903
▁ቅብብል	-10.8904
▁አያ	-10.8907
▁የሚከናወነው	-10.8908
▁ስንል	-10.8909
▁እንደሚከበር	-10.891
ዙ	-10.891
▁አክሏል	-10.8913
▁መቀመጫውን	-10.8914
150	-10.8916
▁በጃፓን	-10.8922
▁ከግቡ	-10.8922
▁አትሌቶችን	-10.8922
▁አጋጣሚዎችን	-10.8925
▁የግንቦት	-10.8927
▁ከየትኛውም	-10.8928
▁ማጠቃለያ	-10.893
▁መጣ	-10.893
አንዳንድ	-10.8932
▁የተጠናቀቀው	-10.8932
▁የማህበሩ	-10.8935
▁የተሳተፉበት	-10.8939
ቋት	-10.894
▁ያሳያሉ	-10.894
▁መፈፀማቸውን	-10.8941
▁እነርሱ	-10.8945
▁አምባ	-10.8946
▁መኖ	-10.8949
▁ወታደር	-10.8959
▁ፍልሚያ	-10.8961
▁place	-10.8964
▁እንደሚገኙም	-10.8966
▁ጨርሶ	-10.8969
▁ደህና	-10.8969
▁ሞክረናል	-10.8969
▁እንዲከናወን	-10.8969
▁ለመመከት	-10.8969
▁ከጀመሩ	-10.8971
▁ከመደበኛ	-10.8971
▁የማግኘት	-10.8971
▁ሊወጡ	-10.8971
▁ድርድሮች	-10.8973
▁አዋጆች	-10.8974
▁ከመጀመሩ	-10.8975
▁ሲመለሱ	-10.8976
▁ሞዴል	-10.8978
▁መራጮች	-10.8978
▁ባሻ	-10.8979
▁ፌድሬሽን	-10.8981
▁የመጀመርያውን	-10.8985
▁97	-10.8986
▁tie	-10.8986
▁ቀዳማዊ	-10.8989
▁ግርማይ	-10.899
▁እንዳደረገው	-10.8991
▁በሰባት	-10.8995
▁የጠበቁ	-10.9
▁አስከ	-10.9
▁የምታደርገው	-10.9002
▁new	-10.9003
ጤ	-10.9003
▁ሲወጣ	-10.9006
አውሮፓውያኑ	-10.9008
▁በቱርክ	-10.9008
▁ፒ	-10.902
▁102012	-10.902
▁የህብረተሰቡ	-10.9025
▁በድረ	-10.9025
▁ትርጓሜ	-10.9026
▁ሲመሩ	-10.9039
▁እየቀረበ	-10.9042
▁ህጎችን	-10.9042
▁የሚከበር	-10.9046
▁ሚዛናዊ	-10.9048
የኮሮና	-10.9049
▁fail	-10.905
▁ለማፍራት	-10.905
▁ይጠቀሳል	-10.905
▁ተቀላቅሎ	-10.905
▁አንቀፆች	-10.905
▁በመቀላቀል	-10.905
▁ለመቅጠር	-10.905
▁ተሰጥቷቸው	-10.9051
▁የአፈፃፀም	-10.9052
▁የለንም	-10.9052
▁የትግል	-10.9053
▁ተመላሽ	-10.9054
ጥይት	-10.9054
▁ረመዳን	-10.9056
▁ማቀነባበሪያ	-10.9056
▁እንዲጠብቅ	-10.9057
▁በመጓዝ	-10.9057
▁87	-10.9058
▁አቃቢ	-10.906
▁በመሸጥ	-10.9062
▁ህገመንግስት	-10.9062
▁ሀብረተሰብ	-10.9062
▁የተቀሩት	-10.9064
▁የምስጋና	-10.9065
▁መካሄዱ	-10.907
▁እንደደረሰ	-10.9072
▁ጥገኝነት	-10.9072
▁ስድስተኛ	-10.9076
▁ወደስራ	-10.9077
▁ውስጣዊ	-10.9078
▁በይነ	-10.9083
▁የኢ	-10.9085
▁ተባለ	-10.9089
▁የፓርቲ	-10.9089
▁ኤር	-10.9089
ውሉ	-10.909
▁ያሳተፈ	-10.9093
ፓርቲው	-10.9094
▁እንደማይገባ	-10.9098
▁ባልሆነ	-10.9106
▁ሶሪያ	-10.9107
▁ቡ	-10.9108
▁ጃ	-10.9108
▁ሀላፊዋ	-10.9109
▁ቁጥርም	-10.9111
▁ፋ	-10.9112
▁የቀን	-10.9119
▁በጊዜው	-10.9122
▁የሚፈለገውን	-10.9129
▁እንደሚለው	-10.913
▁ፓርላማው	-10.9132
▁ታቅዷል	-10.9132
▁እየቀነሰ	-10.9132
▁መርጃ	-10.9132
▁ሊኖረው	-10.9132
▁የገለፀ	-10.9133
▁የማን	-10.9133
▁እህት	-10.9134
▁ሄዶ	-10.9134
▁የማራቶን	-10.9135
▁እንዲቆይ	-10.9135
▁ሂደቶች	-10.9136
▁ትርኢት	-10.9137
▁በሩሲያ	-10.9137
▁መገንዘብ	-10.9138
1997	-10.9139
▁በእሳት	-10.914
▁አብረን	-10.9141
▁የማስፋፊያ	-10.9142
▁በጦር	-10.9144
▁ጥ	-10.9145
▁አፀደቀ	-10.9145
▁ፈር	-10.9147
▁የሚጠራው	-10.9147
▁ድምፃቸውን	-10.9148
▁ሲነሳ	-10.9149
▁የናይል	-10.915
▁ከአምናው	-10.9152
▁መሰራቱን	-10.9154
ኝነት	-10.9157
▁የተመሰረተባቸው	-10.916
▁አስታወቀች	-10.9162
▁የተፈጠሩ	-10.9167
▁የዋና	-10.9171
▁በማዋል	-10.9174
▁ፓርቲያቸው	-10.9176
▁የምስረታ	-10.9187
▁መቻላቸውን	-10.9191
▁የተገነቡ	-10.9191
▁የሚያወጡ	-10.9194
▁በቡና	-10.9195
▁የተዳረጉ	-10.9197
▁ያለን	-10.9198
▁አስረክበዋል	-10.9198
▁ሜዳዎች	-10.92
▁የህዝቦችን	-10.9201
59	-10.9201
ገቡ	-10.9202
▁ሀገረ	-10.9204
▁መጠነ	-10.9211
▁አሳርፏል	-10.9212
47	-10.9213
▁አንፃራዊ	-10.9214
▁ብሮድካስት	-10.9214
▁አሞላል	-10.9214
▁ጆንሰን	-10.9218
እኤአ	-10.9219
▁ሰጭ	-10.922
▁መስፈርቶች	-10.9221
▁ከተያዘ	-10.9221
▁ቅርበት	-10.9224
▁የሚሰጡት	-10.9224
▁ለከፋ	-10.9225
▁አንዳንዶች	-10.9229
ሚሊዮን	-10.923
▁ማጂ	-10.9233
▁ላላቸው	-10.9235
▁ዱ	-10.9238
▁የብዙ	-10.9239
▁ያጋጠመው	-10.9241
▁በክፍለ	-10.9242
▁የአጭር	-10.9245
▁መግባቱ	-10.9249
▁በቆይታቸው	-10.9251
▁በማእከላዊ	-10.9254
▁እነሱም	-10.9261
▁በመስቀል	-10.9262
▁ተሹመዋል	-10.9263
▁የሰራተኛና	-10.9264
ፕሬዝዳንቱ	-10.9264
▁ተዋናይ	-10.9267
▁ያለዉ	-10.9273
▁የተከናወነው	-10.9273
▁እንዲኖሩ	-10.9277
▁አገኘሁ	-10.928
ፖሊስ	-10.9282
▁እንደሚቀጥልም	-10.9283
▁የፈጠረ	-10.9286
▁በማስ	-10.9289
▁በእድሜ	-10.9289
▁ተሽከርካሪዎችን	-10.929
▁አምቦ	-10.9293
▁ማብቂያ	-10.9298
▁ጠንከር	-10.9298
▁ፍላጎቶች	-10.9298
▁ማስፋፋት	-10.9299
▁ያነሰ	-10.9299
▁ሲሞክሩ	-10.93
▁የሚያግዙ	-10.93
▁ደብረብርሀን	-10.9301
4060	-10.9302
▁የትርፍ	-10.9302
▁መምህሩ	-10.9302
▁ያገናኘው	-10.9302
▁ባስቆጠረው	-10.9302
▁መዝገቦች	-10.9303
▁የግቡ	-10.9303
▁ሀላፊነቶች	-10.9303
▁ቆሞ	-10.9305
▁የሁሉንም	-10.9305
▁ሰብሳቢው	-10.9305
▁የወንዶች	-10.9307
▁ያጠናቀቀው	-10.9307
▁አንዱአለም	-10.9308
▁በመተላለፍ	-10.931
▁ማጎልበት	-10.9311
ልተወሰነ	-10.9313
▁ሲገኝ	-10.9313
▁ሁ	-10.9313
▁በደብረ	-10.9314
ጋር	-10.9316
▁አፍሪካው	-10.9317
▁ቀልብ	-10.9317
ፅ	-10.9321
▁መስመሩ	-10.9322
▁አመራሮቹ	-10.9332
▁በደም	-10.9333
▁ሰራተኛው	-10.9337
▁ብን	-10.9339
▁ምርመራውን	-10.9341
▁በመጋቢት	-10.9343
700	-10.9344
▁D	-10.9347
▁ለማስ	-10.9349
▁ፍፃሜውን	-10.9351
መሻሽ	-10.9356
ሆ	-10.9357
▁በስብሰባው	-10.9367
▁የሚገባቸውን	-10.9368
ጅማ	-10.9378
▁ተቆጣጥሮ	-10.938
▁Girma	-10.9382
▁ተፈጥሯል	-10.9382
▁የማረጋገጥ	-10.9382
▁ገርባ	-10.9382
▁ወቅዱስ	-10.9382
▁ለመከታተል	-10.9383
▁በማደግ	-10.9384
▁አዩ	-10.9385
▁አሚር	-10.9387
▁በዩኒቨርሲቲው	-10.9387
ሀብታሙ	-10.9388
▁ተእለት	-10.9388
▁ቦታውን	-10.9389
▁በማስፈረም	-10.9389
▁የፅዳት	-10.939
▁ማስፋት	-10.9391
▁ሜክሲኮ	-10.9391
▁ቀኑን	-10.9391
▁የተሞላበት	-10.9392
▁ፎር	-10.9394
▁ቤተልሄም	-10.9394
የምክር	-10.9394
ካል	-10.9397
▁የደብረ	-10.9398
▁ያዘጋጀው	-10.9398
▁222012	-10.9399
▁ኒጀር	-10.94
▁የራሳቸው	-10.94
ደው	-10.94
▁ተጎጂዎች	-10.9401
▁እንደሚጠበቅባቸው	-10.9403
▁የሚያስፈልገውን	-10.9405
▁ነገሩ	-10.9407
o	-10.9408
53	-10.9409
▁ሰራተኞቹ	-10.9418
▁ሰፋ	-10.9419
▁አልፋ	-10.9423
▁አድን	-10.9425
ደቂቃዎች	-10.9427
▁ራሷን	-10.9428
▁ያስመዘገቡ	-10.943
▁99	-10.9432
▁la	-10.9437
▁ጆንግ	-10.9443
ራዊ	-10.9444
61	-10.945
▁እስከዛሬ	-10.9455
▁ይጀምራሉ	-10.9456
▁ያለፉ	-10.9457
▁ዝውውርን	-10.9458
ተዋል	-10.9463
▁አባቡና	-10.9465
▁ሲኖዶስ	-10.9467
▁የፍጥነት	-10.9467
▁ከመሆናቸው	-10.9467
▁ክንዴ	-10.9467
▁ተካተዋል	-10.9467
ቀድሞው	-10.9467
▁ገሚካኤል	-10.9467
▁አድርሷል	-10.9467
▁መሳካት	-10.9468
▁match	-10.9468
▁መለዮ	-10.9469
▁ዋቢ	-10.9469
▁አባላትም	-10.9469
▁ተወስዷል	-10.947
▁የሚመጥን	-10.9471
▁ባጋጠመው	-10.9471
▁የመማሪያ	-10.9471
ከሪ	-10.9473
▁ከሀላፊነት	-10.9475
▁ሚኪያስ	-10.9478
▁ለተማሪዎች	-10.9478
▁ርቀትን	-10.9479
▁አብዮታዊ	-10.948
ዳዊት	-10.9481
▁ከውሀ	-10.9481
▁ካርሎ	-10.9485
▁ያሻማውን	-10.9487
▁132012	-10.9488
▁የታዳጊ	-10.9488
▁242012	-10.9491
▁T	-10.9495
▁02	-10.9499
ለማ	-10.95
▁ሀላፊዎቹ	-10.95
▁ማክሮን	-10.9502
▁እነሱን	-10.9505
▁የአብሮነት	-10.9505
▁የሚኖረውን	-10.9508
▁ፖሊሲዎች	-10.9511
▁ቆንስላ	-10.9512
▁ግብፅና	-10.9514
ድርጊቱ	-10.9515
▁ተሰጥቶት	-10.9515
▁ኢር	-10.9515
▁ቴክኖሎጂዎችን	-10.9517
▁ገዳ	-10.952
▁ሂ	-10.9524
▁ገልፀዋልአዲስ	-10.9527
▁ኩማ	-10.953
▁የሱዳኑ	-10.9533
▁ተግባሩ	-10.9544
ኤጀንሲው	-10.9545
▁የተመዘገበ	-10.9547
ጀ	-10.9548
▁የተወሰደው	-10.9549
▁እንደሚደርስ	-10.9552
▁እንደነበረው	-10.9552
▁የቶኪዮ	-10.9552
▁ተዘጋጅቷል	-10.9552
▁ይገጥማል	-10.9552
▁ለመምረጥ	-10.9555
▁ቴአትር	-10.9556
▁ጠየቀ	-10.9556
▁የቁጠባ	-10.9557
▁በመለያ	-10.9558
ሀገራቱ	-10.9558
▁የኢንፎርሜሽን	-10.9559
▁በማክበር	-10.956
▁በመገኘቱ	-10.956
▁ቃላቸውን	-10.9564
▁ምንያህል	-10.9564
▁ጥሰቶች	-10.9564
S	-10.9565
▁Woldia	-10.9565
▁መላኩን	-10.9566
▁ፍቃደኛ	-10.9566
▁ጥለው	-10.9567
▁ተመድ	-10.9567
▁ሸቀጦች	-10.9571
▁መነሳሳት	-10.9574
▁በመረጃ	-10.9577
▁ባለሀብቱ	-10.9578
▁ልጆቻቸውን	-10.9579
▁ከኮቪድ	-10.9579
▁ሳል	-10.9582
ሰልፎ	-10.9583
▁ከማንኛውም	-10.9588
▁የተፈረመው	-10.9588
▁ማዳን	-10.9588
ግብፅ	-10.9599
አብ	-10.96
ተን	-10.9607
▁በግንቦት	-10.9609
▁የተጋለጡ	-10.961
▁ጥንታዊ	-10.9611
▁ክልከላ	-10.9612
▁ቢሆኑ	-10.9614
▁ቅፅ	-10.9615
▁ላደረጉ	-10.9616
▁የቻን	-10.9616
ሚያ	-10.9617
ጥቃት	-10.9617
መሪዎቹ	-10.9617
▁እንዴ	-10.9618
▁አልተ	-10.9618
▁አግባብነት	-10.9618
▁የቦርዱ	-10.9625
▁የለውጡ	-10.9627
▁የያዘውን	-10.9629
▁የደረሰባቸውን	-10.9636
▁ልማታዊ	-10.9637
▁ውብሸት	-10.9638
▁በማስተዋወቅ	-10.9638
▁እየተሻሻለ	-10.9638
▁እየተጣራ	-10.9639
▁እንዳይፈጠር	-10.9639
▁ጉምዝ	-10.964
▁መስተዳድሮች	-10.964
▁ወጥቶበታል	-10.9642
▁በረጅሙ	-10.9642
▁በማእድን	-10.9643
▁ተከታይ	-10.9643
▁እያካሄዱ	-10.9644
▁በድንገት	-10.9645
ሳተላይት	-10.9647
▁መቼም	-10.9648
▁ኔትወርክ	-10.965
▁ወርሀዊ	-10.9651
▁የመያዝ	-10.9652
▁እየገቡ	-10.9653
▁232012	-10.9653
▁የሶስተኛ	-10.9653
ሚኒስቴር	-10.9653
▁የስፖርታዊ	-10.9656
ሶች	-10.9657
▁ዝርያዎች	-10.9657
▁ማለቱ	-10.9657
▁የቀይ	-10.9658
▁ልዩነቶች	-10.9659
▁በምትገኘው	-10.9662
ሏቸው	-10.9662
▁የአርብቶ	-10.9662
▁በስምንት	-10.9664
▁ስደተኛ	-10.967
▁ነግረውናል	-10.967
የሁለቱ	-10.9671
▁ሴ	-10.9673
▁የሲቪክ	-10.9675
▁ከሆነም	-10.9679
▁በተፈፀመው	-10.9679
▁ተካ	-10.9683
▁የተሽከርካሪ	-10.9685
▁ትንበያ	-10.9686
ሚቀጥለው	-10.9686
▁እንደቻለ	-10.9687
▁ወንጀለኞችን	-10.9693
▁የተነገረ	-10.9693
▁ተሰላፊ	-10.9694
▁የኮርፖሬሽኑ	-10.9696
▁ተጎጂ	-10.9698
▁ታዋቂው	-10.9707
▁ችላ	-10.9708
▁እሴቶችን	-10.9709
56	-10.9713
▁የሚበልጡ	-10.9717
▁የማሸነፍ	-10.9722
▁ሮ	-10.9725
▁ይጫወታሉ	-10.9725
▁ረጋሳ	-10.9725
or	-10.9725
▁መዳረጋቸውን	-10.9726
▁የመገንባት	-10.9727
▁ጅምር	-10.9728
▁ህልፈት	-10.9728
▁ለሚመለከታቸው	-10.9728
▁ሰርተው	-10.9728
▁ሁለገብ	-10.9728
▁ድንገት	-10.9728
▁በመመልከት	-10.9729
▁በግምት	-10.9729
▁ጉድ	-10.9731
▁ታይምስ	-10.9732
▁thre	-10.9732
▁ስትራቴጂካዊ	-10.9734
ሯል	-10.9736
▁በማየት	-10.9736
▁መስማት	-10.9737
▁ከለላ	-10.9738
ዳንኤል	-10.9742
▁ንብረቶች	-10.9742
▁የተቀሰቀሰው	-10.9744
▁በፀረ	-10.9745
▁ነውከ	-10.9746
▁በማስተናገድ	-10.9746
▁ጠየቁ	-10.9748
▁አረጋውያን	-10.9749
▁በሸራተን	-10.9752
▁የኢድ	-10.9754
አለማቀፍ	-10.9755
ቱም	-10.9756
▁202012	-10.9763
▁ቀደሙ	-10.9767
ሻል	-10.9767
▁አብነት	-10.9769
▁የሰበታ	-10.9772
▁ኢሬቻ	-10.9773
▁አሸናፊው	-10.9773
▁የቤተ	-10.9775
▁ተከብሯል	-10.9777
▁የሞቱ	-10.9777
▁የገና	-10.9777
▁ሙስሊም	-10.9788
▁Ha	-10.98
▁ዋስ	-10.9803
▁የወረርሽኙ	-10.9804
ንስ	-10.9806
▁Mohammed	-10.9809
▁ይደርሳል	-10.9813
▁ይልቃል	-10.9813
▁እንደምትገኝ	-10.9814
▁ያለአግባብ	-10.9815
▁ተቋራጭ	-10.9815
▁ሲያካሂድ	-10.9815
▁ሀብቴ	-10.9815
▁ንቁ	-10.9816
▁ያሳሰቡት	-10.9816
▁የማቋቋም	-10.9816
▁የዝናብ	-10.9817
▁አንተ	-10.9818
▁ለራሱ	-10.9819
▁ማእድናት	-10.982
▁መተዳደሪያ	-10.9821
ቫ	-10.9821
▁በወር	-10.9822
▁የሰሩ	-10.9822
▁ከፊት	-10.9823
▁ተላላፊ	-10.9824
▁ጥቅሞች	-10.9829
▁ከለውጡ	-10.9832
▁የኛ	-10.9833
▁ያኔ	-10.9834
▁ቃላት	-10.9837
▁በስምምነቱ	-10.9844
▁ማዋሉን	-10.9849
▁የቀጣይ	-10.985
▁በላይነህ	-10.9852
▁ባንክን	-10.9853
▁ተኩ	-10.9855
▁የሚገባቸው	-10.9856
▁ዝ	-10.9861
▁ማልያ	-10.9865
ተጠቀሰው	-10.9866
▁ከምክር	-10.9873
▁ወታደሮችን	-10.9876
▁98	-10.9883
▁የግቡን	-10.9894
▁የተሳተፉት	-10.9894
▁በሽብር	-10.99
▁መገኘቱ	-10.9901
▁ተክሌ	-10.9902
▁እንደሚጀምሩ	-10.9902
▁ሊፈጠር	-10.9902
▁ደረሰኝ	-10.9904
▁ተሰጥቶታል	-10.9904
▁እንዲቆሙ	-10.9905
▁ሲጫወቱ	-10.9905
▁ሳላ	-10.9906
▁በእንስሳት	-10.9907
▁በተጨባጭ	-10.9908
▁ኤሌክትሪኮች	-10.9908
▁የቀረው	-10.9909
▁በማለፍ	-10.9911
ኢንጂነር	-10.9912
▁ኔታንያሁ	-10.9912
▁ማስተር	-10.9914
▁የአሰልጣኞች	-10.9915
▁አካላትም	-10.9915
▁ረሀብ	-10.9918
▁ግዙፉ	-10.9919
▁የሳይበር	-10.9919
67	-10.9921
▁ታክሲ	-10.9921
▁ፊሊፕ	-10.9921
▁መሰጠት	-10.9922
▁መቆየታቸው	-10.9925
▁ኪሜ	-10.9927
▁አሳሰበ	-10.9929
▁ያሲን	-10.993
▁የመካከለኛው	-10.9932
ነታቸውን	-10.9935
ቪ	-10.9935
▁ሽብርተኝነትን	-10.9937
▁በቃ	-10.9937
ብዙ	-10.9942
ሰሞኑን	-10.9942
▁መንገዱን	-10.9943
▁ጁንታው	-10.9945
▁ከሳምንታት	-10.9946
ምንይሉ	-10.9947
ችኋል	-10.9951
ዲስ	-10.9951
62	-10.9953
▁የህዝቦች	-10.9955
▁ማሽኖች	-10.9959
▁ስለመሆኑም	-10.9967
▁ቡናው	-10.9977
▁አነጋግረዋል	-10.9978
▁የኮሚቴው	-10.998
▁በሚሉ	-10.9981
▁ችግሮቹን	-10.9983
▁ለማበረታታት	-10.9991
▁ይስተዋላል	-10.9991
▁አስመዝግቧል	-10.9991
▁ፊ	-10.9991
▁away	-10.9991
▁መነጋገር	-10.9991
▁እየገለፁ	-10.9991
▁እየሆኑ	-10.9991
▁የሚያወጣ	-10.9992
▁እያሳዩ	-10.9992
▁ስቴትሱ	-10.9992
▁በማመን	-10.9992
▁ዝናሽ	-10.9992
▁እንዲቆጠቡ	-10.9992
▁የግዥ	-10.9994
▁ለማደስ	-10.9994
▁የተዛባ	-10.9995
▁ለማረጋጋት	-10.9995
▁ሙባረክ	-10.9995
▁ኢንሹራንስ	-10.9996
ዘን	-10.9998
▁የበአል	-10.9998
▁አምሳሉ	-10.9999
▁came	-11
▁ኤክስፖርት	-11.0002
▁ስጋቶች	-11.0011
▁ደርሰው	-11.0012
▁መጠሪያ	-11.0014
▁ኒ	-11.0015
▁አሸባሪ	-11.0019
▁192012	-11.0019
▁የክፍለ	-11.0019
▁የሚደርሰውን	-11.0021
ok	-11.0022
▁130	-11.0026
▁በህዳሴው	-11.0031
▁ለዚሁ	-11.0032
ሼ	-11.0032
▁ወቅቱን	-11.0033
▁አቅርቦትና	-11.0038
▁በመክፈል	-11.0039
▁የግብፁ	-11.0041
▁96	-11.0041
▁የታሰሩ	-11.0043
▁በውይይታቸው	-11.0047
▁ሽልማቱን	-11.0048
▁በሙከራ	-11.0057
▁በኢራን	-11.006
▁የሚመጣው	-11.006
▁ርቆ	-11.0065
▁አናሳ	-11.0066
▁ያመላክታሉ	-11.0066
▁88	-11.0073
an	-11.0074
66	-11.0078
▁በማስፋፋት	-11.0081
▁በሽተኞች	-11.0081
▁ወጥነት	-11.0082
▁ለመመልከት	-11.0082
▁ክፍላተ	-11.0083
ሰደድ	-11.0084
▁ድምቀት	-11.0085
▁ለትውልድ	-11.0085
▁ከኢፌዴሪ	-11.0086
ኝም	-11.0087
▁ላደረገው	-11.0087
▁በምርምር	-11.0089
▁አልማዝ	-11.0091
▁ሰነዶችን	-11.0091
▁በስሩ	-11.0091
▁የዳያስፖራ	-11.0092
▁ልጃገረዶች	-11.0093
ስለሆነም	-11.0093
▁ደቡባዊ	-11.0094
▁ስትራቴጂክ	-11.0094
▁አብዱ	-11.0101
▁የቢሮው	-11.0103
▁ባይኖርም	-11.0105
▁ተጓ	-11.0111
▁ዋንጫን	-11.0112
▁ከፋሲል	-11.0114
የከተማ	-11.0118
▁ተነገረ	-11.0118
▁በሰላምና	-11.0121
▁እውቀትና	-11.0121
▁በንፁሀ	-11.0123
▁አንዳች	-11.0124
▁የዳኞች	-11.0125
▁ኢቢሲ	-11.0128
54	-11.0129
▁ኬ	-11.0142
▁ለእነዚህ	-11.0144
▁እንደሚችሉም	-11.0152
▁ኤች	-11.0154
▁ከተቻለ	-11.0154
ፕሮጀክቱ	-11.0155
▁ተወዳጅ	-11.0158
▁መመሪያው	-11.0158
▁ያብራራሉ	-11.0159
▁ከተለያየ	-11.0159
እስከ	-11.0161
ዊት	-11.0162
▁መጠየቃቸውን	-11.0162
ጓዙ	-11.0166
▁77	-11.0167
42	-11.0168
▁እንዲታይ	-11.0169
▁ኢላማው	-11.017
▁ተላልፎ	-11.017
▁እንቀጥላለን	-11.0172
▁እንዳልቻሉ	-11.0172
▁ሞክረዋል	-11.0172
▁ማሸነፉ	-11.0172
▁ዳውድ	-11.0172
▁እንዳይሆኑ	-11.0172
▁እንዲሻሻል	-11.0173
▁አሳልፈው	-11.0177
▁ከቀረጥ	-11.0177
▁መልካሙ	-11.0177
▁የተፋሰስ	-11.0178
▁ጤፍ	-11.0178
▁ለገዳዲ	-11.0179
▁የኤሌክትሮኒክስ	-11.0179
▁መለያየቱ	-11.018
▁የተከናወነ	-11.018
የሱዳን	-11.0183
▁ከመሬት	-11.0184
▁ማይክሮ	-11.0186
ich	-11.0187
▁አበርክቷል	-11.0188
▁ያደገው	-11.0188
▁ገልፀዋልከ	-11.0188
▁ጥሩነሽ	-11.0188
▁ሲወጡ	-11.0191
▁በጦርነት	-11.0192
▁አውታሮች	-11.0193
▁በመወጣት	-11.0195
▁ከሰላም	-11.0195
▁በነዚህ	-11.0197
ራል	-11.0198
▁ያገኘችው	-11.0198
▁መውጣቱ	-11.0199
▁መሀላ	-11.0201
▁እድሜው	-11.0205
ካርቱም	-11.0205
▁እንዳይገባ	-11.0206
▁ስፖርቱን	-11.0208
▁ማስረጃዎች	-11.0214
▁መመለሳቸው	-11.0214
▁ማጭበርበር	-11.0215
▁ሰር	-11.0218
▁ገልፀዋልከዚህ	-11.0219
▁ቢያ	-11.022
▁አራተኛው	-11.0223
▁ሳያ	-11.0232
▁በድርድሩ	-11.0233
▁ከደደቢት	-11.0234
▁አስተዳዳሪው	-11.0234
▁አውሮፕላኑ	-11.0236
▁የካሳ	-11.024
▁መስራቱን	-11.0244
▁በግጭቱ	-11.0247
ፒ	-11.025
▁የሚጫወት	-11.0252
▁እንደሚኖሩ	-11.0255
▁እንደሚያደርግም	-11.0256
▁ተፋላሚ	-11.0258
▁ምደባ	-11.0262
ወረርሽኙ	-11.0262
▁Kenema	-11.0263
▁ተሸንፏል	-11.0263
▁ተገልጧል	-11.0263
▁ገመዳ	-11.0263
▁በማስቀመጥ	-11.0264
▁እንዲከታተሉ	-11.0264
▁ሲያከናውን	-11.0264
▁እንዲጀመር	-11.0265
▁ካውንስል	-11.0265
▁በአቅራቢያ	-11.0265
▁ለማጥቃት	-11.0266
▁ለፀጥታ	-11.0266
▁ለመጓዝ	-11.0267
▁መከታተል	-11.0268
▁በማካተት	-11.0269
▁የሚውለው	-11.0269
▁አልቀረም	-11.0271
▁የአስር	-11.0271
▁አከባቢዎች	-11.0271
▁ማስክ	-11.0271
▁ሀብታቸው	-11.0274
▁በውሰት	-11.0274
▁ነብዩ	-11.0274
▁ወሰኑ	-11.0278
▁ብሪታንያ	-11.0281
▁ክርስቶስ	-11.0282
▁የሚታወቁት	-11.0282
▁ለታላቁ	-11.0283
ሀን	-11.0288
▁አስከሬን	-11.0288
▁የባህርዳር	-11.0289
▁የተከለከለ	-11.0291
በአሉ	-11.0291
▁ዜጎቿ	-11.0292
▁122012	-11.0292
▁የሚያስፈልጋቸው	-11.0295
▁ካሸነፈ	-11.0296
▁ኮንፌድሬሽን	-11.0296
▁ማስታወቁን	-11.0297
▁የሰራተኞች	-11.0299
1996	-11.0299
▁ቡድንን	-11.0304
▁በሀገራቸው	-11.0307
▁ከቆየ	-11.0308
▁በጥቃቱ	-11.0312
▁አደንዛዥ	-11.0314
▁ከትላንት	-11.0316
▁በሜዳችን	-11.0319
▁ተስማምቷል	-11.0323
▁ካሳው	-11.0324
▁በአስራ	-11.0324
▁በመጨረሻው	-11.0324
▁በእ	-11.0325
▁ደራሲ	-11.0329
▁አቅማቸውን	-11.0336
▁በተቃራኒ	-11.0337
▁የአቻ	-11.0349
▁በዛው	-11.0356
▁አስችሏል	-11.0356
▁አላውቅም	-11.0356
▁ይግዛው	-11.0356
▁ኢብሳ	-11.0356
▁በመኖራቸው	-11.0356
▁የለኝም	-11.0357
▁የአርባምንጭ	-11.0357
▁ለመተካት	-11.0357
▁እንዲከፍሉ	-11.0357
▁በማሰልጠን	-11.0358
▁ተለያዩ	-11.0359
▁years	-11.0359
▁በሶስተኛ	-11.0359
▁ይደረግ	-11.0359
▁በርሄ	-11.036
▁ግርጌ	-11.036
▁ማመቻቸት	-11.0362
▁ተግባራቸው	-11.0363
▁አጥር	-11.0364
▁ተመላሾች	-11.0365
▁ባህሩ	-11.0365
▁ኢዴፓ	-11.0368
▁ከክልሎች	-11.037
▁ተቀናቃኝ	-11.0371
▁ይመር	-11.0371
ቄ	-11.0371
▁አታ	-11.0379
▁የመስሪያ	-11.038
▁የሰራተኛ	-11.0383
▁ሳቢ	-11.0385
▁ኢንቨስተሮች	-11.0385
▁ዋንጫውን	-11.0386
▁የዘለቀ	-11.0389
▁ከገቡ	-11.0391
▁መሞታቸው	-11.0393
▁ከመኖሪያ	-11.0395
ሀገሪቱ	-11.0399
▁ህዝቦችን	-11.0399
▁በተገኘው	-11.0402
ሚኒስትር	-11.0402
▁በማስጠበቅ	-11.0403
▁የድርሻው	-11.0404
▁ማሳወቅ	-11.0404
▁ሴኔጋል	-11.0409
▁ጋብቻ	-11.0411
▁መዝናኛ	-11.0412
ፈረሰኞቹ	-11.0412
▁መምጣታቸውን	-11.0413
▁ኢንስቲትዩቱ	-11.0414
▁ባለሙያዎችና	-11.0414
▁ሱ	-11.0416
▁በአዋጁ	-11.0418
▁ተከላው	-11.0429
▁በዋናው	-11.0438
▁አዳማዎች	-11.0442
▁የሰማያዊ	-11.0449
▁ሻይ	-11.0449
▁አያውቅም	-11.0449
▁ለመልቀቅ	-11.045
▁አድርሰዋል	-11.045
▁ስመኘው	-11.045
▁ድምፆች	-11.045
▁ተጉዞ	-11.045
▁አስቀድመው	-11.0451
▁በምክንያትነት	-11.0451
▁ይናገር	-11.0451
▁ግብሩን	-11.0452
▁የድርሻቸውን	-11.0453
▁የጥበቃ	-11.0453
▁ለማደናቀፍ	-11.0454
41	-11.0456
▁ከአፋር	-11.0457
ህገወጥ	-11.0457
▁በአደባባይ	-11.0457
ቀው	-11.0458
▁ረዥም	-11.046
▁በሚኖራቸው	-11.046
▁ሳኒታይዘር	-11.0462
▁በሰብል	-11.0465
▁ጭነት	-11.0465
ታሀሳስ	-11.0465
▁ተገልፆ	-11.0466
▁የራቀ	-11.0466
ብርሀን	-11.0466
▁በእጥፍ	-11.0468
ሺፕ	-11.0469
▁እኛን	-11.047
▁አዝማሚያ	-11.047
▁ስደተኞቹ	-11.047
▁ሀይለየሱ	-11.0471
▁መብትና	-11.0473
ስፍራው	-11.0473
▁በተሰራው	-11.0473
የመከላከያ	-11.0475
▁ጉዞው	-11.0475
▁ለውድድሩ	-11.0477
▁አገዛዝ	-11.0481
▁የጎደለው	-11.0483
▁ምርቃት	-11.0484
▁ከህወሀት	-11.0484
▁ማንነትን	-11.0487
▁ስርጭቱን	-11.0489
▁በሚችል	-11.0489
▁የኋላ	-11.0489
▁ኢትዮጵያውያኑ	-11.049
▁መደፍረስ	-11.0496
▁መነሻነት	-11.0497
▁የሚጠበቅበትን	-11.0497
▁ታች	-11.0498
▁93	-11.0499
▁የውይይቱ	-11.0501
ተኛው	-11.0503
▁ጉ	-11.0504
ጉዳቱ	-11.0505
▁ብረትና	-11.0505
▁ከአጠቃላይ	-11.0509
▁ጆሮ	-11.0513
▁ዶ	-11.0513
▁የሚቀርብ	-11.0516
▁ኤግዚቢሽን	-11.052
▁ተነስተዋል	-11.0526
▁ቢስ	-11.0526
▁መልቀቂያ	-11.0528
▁በመንግስትና	-11.0528
▁በመልእክታቸው	-11.053
▁ተጠቂ	-11.0531
▁82	-11.0538
▁አሸነፈ	-11.054
▁የዋሉ	-11.0542
▁ይታያሉ	-11.0544
▁ይፈልጋል	-11.0544
▁made	-11.0544
▁ተጋድሎ	-11.0544
▁ትላለች	-11.0544
▁የሚሸፍን	-11.0544
▁እንዳመለከቱት	-11.0545
▁አይቀሬ	-11.0545
▁እንዲረጋገጥ	-11.0545
▁በየቦታው	-11.0545
▁ያላግባብ	-11.0545
▁እንዳልቻለ	-11.0545
▁የአሳ	-11.0546
▁ገብሩ	-11.0546
▁የሚያገለግል	-11.0547
▁እንደሚያሳየው	-11.0547
▁የነሀስ	-11.0548
▁ተመራቂ	-11.0548
▁ንዋይ	-11.0548
▁መዘጋጀት	-11.0548
▁ለማንሳት	-11.0548
▁ደላሎች	-11.0549
▁የቦምብ	-11.0549
▁የሀላፊነት	-11.0549
▁ለመወዳደር	-11.0551
▁በተሟላ	-11.0551
▁በስጦታ	-11.0552
▁የንግዱ	-11.0552
▁ለትግራይ	-11.0552
▁ኦፌኮ	-11.0552
▁መነጋገሪያ	-11.0553
▁መርከብ	-11.0559
▁ከተገኘ	-11.056
ኩት	-11.0561
ፓ	-11.0561
▁ማርክ	-11.0561
▁የሰባት	-11.0562
▁ሽመክት	-11.0564
▁ከተካሄደ	-11.0564
1990	-11.0565
▁አማፅያን	-11.0567
▁ይወያያሉ	-11.0569
▁በመርታት	-11.0572
▁የዘንድሮውን	-11.0574
▁በወታደራዊ	-11.0575
▁ክላስተር	-11.0576
▁ባለቤታቸው	-11.0584
▁ብለዋልየኢትዮጵያ	-11.0591
▁ጥናቶችን	-11.0593
▁አካባቢዋ	-11.0593
▁ካልተ	-11.0593
▁አጥተዋል	-11.0595
▁አብን	-11.06
▁አትክልት	-11.0604
▁በመጣ	-11.0604
▁አለማ	-11.0605
▁የሚሰሩት	-11.0607
ቢጫ	-11.0608
ያዊ	-11.0611
▁350	-11.0611
ነዋል	-11.0611
▁ጄ	-11.0618
▁ጃን	-11.0621
▁ገቢዎችና	-11.0622
በሩ	-11.0623
▁በኢትዮጵያውያን	-11.0627
▁በመኖሪያ	-11.0628
ነበራቸው	-11.0629
▁የተመራው	-11.0633
▁የሚገነባ	-11.0636
▁ተከብሮ	-11.0636
▁ማሀበረሰቡ	-11.0637
▁የጨረታ	-11.0637
▁ተወስኖ	-11.0638
▁Federation	-11.0639
▁መሻሻሎች	-11.0639
▁እንደምታደርግ	-11.0639
▁አስገንዝቧል	-11.0639
▁ሲፈፅሙ	-11.064
ሰር	-11.064
▁ለማቃለል	-11.064
▁የአፍንጫ	-11.0641
▁ኤምሬቶች	-11.0641
▁ዊልያም	-11.0641
▁ሀትትሪክ	-11.0641
▁ለኛ	-11.0642
▁ፈጥኖ	-11.0643
▁የብቃት	-11.0644
▁ለመስማት	-11.0644
▁Dashen	-11.0644
68	-11.0644
▁የማጠቃለያ	-11.0645
▁ከታክስ	-11.0645
▁ኪዳን	-11.0646
▁ዙማ	-11.0648
▁292012	-11.0651
▁መኢአድ	-11.0652
▁በሶሪያ	-11.0653
▁በውጪ	-11.0655
▁አዴፓ	-11.0655
▁ኢኮስኮ	-11.0659
▁በንፋስ	-11.0659
▁አስቀምጠዋል	-11.0661
▁በሽር	-11.0662
▁g	-11.0663
ion	-11.0668
▁ጋዜጠኞችን	-11.0671
▁ስኬቶች	-11.0671
▁የሚያገኙት	-11.0673
▁መስማማታቸው	-11.0675
▁ሰልፈኞች	-11.0676
▁መወሰዱን	-11.0679
ፈር	-11.0685
▁እያቀረበ	-11.0686
ቻቸውን	-11.0687
▁በነሀሴ	-11.069
▁ስልጣኑን	-11.0691
▁የወጣበት	-11.07
▁ረገድም	-11.07
▁94	-11.0709
▁2014	-11.0709
▁ኢንቨስትመንትን	-11.0709
▁ከአቶ	-11.0711
▁በተካሄዱ	-11.0719
▁አስፍሯል	-11.072
▁መጨመሩን	-11.073
▁ጠባብ	-11.0731
▁ተአማኒ	-11.0733
▁ይደረጋሉ	-11.0735
▁third	-11.0735
▁መልቀቅ	-11.0735
▁ከምርጫ	-11.0735
▁ለተጎዱ	-11.0737
▁አገራቱ	-11.0738
▁ለማቆየት	-11.0739
▁የመኸር	-11.0739
▁ዘውዱ	-11.0739
▁እያቀረቡ	-11.0739
▁የአደረጃጀት	-11.0739
▁ለውይይት	-11.074
▁ball	-11.0741
መጀመሪያዎቹ	-11.0741
▁ጉዲና	-11.0744
▁መከተል	-11.0744
▁መግዛት	-11.0745
▁ከፊል	-11.0746
▁በቅርቡም	-11.0747
▁የልምድ	-11.0747
▁ዲጂታል	-11.0747
▁በድርቅ	-11.0748
▁ያቀረበ	-11.0748
▁መፅሀፍት	-11.075
▁ሆራ	-11.075
▁262012	-11.0751
▁በዘጠኝ	-11.0751
▁የማያ	-11.0751
▁አገራቸውን	-11.0752
▁ዳቦ	-11.0752
▁ለጋራ	-11.0753
ይግባኝ	-11.0754
▁ባህልን	-11.0754
▁182012	-11.0756
▁ለአማራ	-11.0757
▁ይኖሩ	-11.0762
ማግባት	-11.0764
▁ክርስቲያናት	-11.0765
▁በፍትህ	-11.0766
▁ምሁራኑ	-11.0767
▁ድሉን	-11.0767
▁ተላልፏል	-11.0768
ንድ	-11.0769
▁በሩብ	-11.077
h	-11.077
2021	-11.0773
▁ሀብቱ	-11.0773
▁ሳይጠቀም	-11.0775
▁ተሳፋሪዎች	-11.0775
▁ሀራም	-11.0776
▁የማስታወቂያ	-11.0779
▁ምረቃ	-11.0783
▁ከእስራኤል	-11.0784
▁ምንጭቢቢሲ	-11.0785
▁ሀገሪቷ	-11.0785
▁79	-11.0787
በበሽታው	-11.0787
ዌ	-11.0792
▁ያገለገሉት	-11.0795
ሽንፈት	-11.0797
▁መከራ	-11.08
▁በእያንዳንዱ	-11.0802
▁ያተኮሩ	-11.0803
▁የሚጠቀሱ	-11.0809
in	-11.0813
▁89	-11.0814
መለስ	-11.0814
▁የተመለሱ	-11.0815
▁ከፖሊስ	-11.0815
▁በድምፅ	-11.0816
ታየበት	-11.0825
▁start	-11.0829
▁አስጠንቅቋል	-11.083
▁ኮሪያው	-11.083
▁አምርተዋል	-11.0832
▁ለባሾቹ	-11.0832
▁ምህረቴ	-11.0832
▁ይኖራቸዋል	-11.0832
▁ጫኔ	-11.0832
▁አራጌ	-11.0833
▁former	-11.0833
▁በመጠናቀቁ	-11.0833
▁በመደረጉ	-11.0833
▁ደርሶባቸዋል	-11.0833
▁ተሳትፎና	-11.0834
▁ሳይችል	-11.0834
▁ችለው	-11.0834
▁እንዲጨምር	-11.0834
▁አባቶችና	-11.0834
▁የሪፎርም	-11.0835
▁አቅሙን	-11.0835
63	-11.0835
▁የመግለፅ	-11.0835
▁በትጋት	-11.0836
▁ፅንሰ	-11.0836
▁አይነተኛ	-11.0836
▁ገብረመስቀል	-11.0836
▁እርምጃው	-11.0836
▁ለመጨመር	-11.0838
▁ዳግማዊ	-11.0838
▁ተንታኞች	-11.0839
▁ዋዜማ	-11.084
▁የብሄሮች	-11.084
▁ሀገራቸውን	-11.084
▁ሲመጡ	-11.0843
▁እጁን	-11.0843
▁የሊቢያ	-11.0844
▁የታየ	-11.0846
▁ማገዝ	-11.0847
▁ተያይዞም	-11.085
ጀምር	-11.0851
▁የወልዋሎ	-11.0851
▁69	-11.0851
▁ይርጋለም	-11.0854
▁ለአብነትም	-11.0858
▁ተደረገ	-11.0859
▁አስታውቋልበ	-11.0859
▁የሚስተዋለውን	-11.086
▁ከፌስቡክ	-11.0863
▁He	-11.0864
▁ብዙዎቹ	-11.0864
▁በጠንካራ	-11.0864
▁ቢያደርጉም	-11.0867
በትግራይ	-11.0871
ማምራት	-11.0872
▁ማደጉን	-11.0873
▁ለበአሉ	-11.0874
▁ዋጋው	-11.0878
▁ቅጣቱ	-11.0879
▁ለሱዳን	-11.0879
▁ማቅረባቸው	-11.0881
▁በምንም	-11.0883
▁እንዳይከሰት	-11.0887
▁መውረድ	-11.0887
▁የሀገርን	-11.0889
▁ኢኮኖሚውን	-11.0892
▁close	-11.0901
▁ፈጠራና	-11.0903
▁እስካሁንም	-11.0905
▁ከዋና	-11.0909
▁ወንጀለኞች	-11.091
▁ክብርና	-11.091
▁ከሀያ	-11.0918
▁hand	-11.0918
▁በፈጣን	-11.0918
ረቂቅ	-11.0924
▁ኢሰብአዊ	-11.0926
▁መስ	-11.0926
▁አስደንጋጭ	-11.093
▁ኡኩሪ	-11.093
▁ታገሰ	-11.0931
▁ሞተር	-11.0931
▁ለማገልገል	-11.0932
▁የቀጥታ	-11.0933
▁በረቂቅ	-11.0933
▁ባዩ	-11.0933
▁የእርቅ	-11.0934
▁ለማስመለስ	-11.0934
▁መቀመጥ	-11.0934
▁ባገኘው	-11.0935
▁የግድያ	-11.0936
▁ለመሸጥ	-11.0936
▁ተለይቶ	-11.0936
▁እስማኤል	-11.0936
▁የማለፍ	-11.0937
▁ወራጅ	-11.0937
▁የልደት	-11.0938
▁ቀመር	-11.0938
▁መረጋገጥ	-11.0938
▁ታቦር	-11.0938
▁በጅግጅጋ	-11.0939
▁ፀባይ	-11.0939
▁በወረዳ	-11.094
▁ቀጣዩን	-11.094
▁ብሩህ	-11.094
▁ኤድስ	-11.0941
▁ኤሪክ	-11.0944
▁የትውልድ	-11.0944
▁የደሞዝ	-11.0945
▁የኪነ	-11.0946
▁በሚኒስቴሩ	-11.0956
▁ምስር	-11.0958
▁በግጭት	-11.096
▁ክትባቱ	-11.096
▁ተጋጣሚያችን	-11.096
▁በጀርመን	-11.0966
▁ክሊንተን	-11.0968
▁የታክሲ	-11.0968
ንጋ	-11.097
መሰለፍ	-11.0972
ንጅ	-11.0975
▁መዋላቸው	-11.0978
▁ዳያስፖራ	-11.0978
▁ከኢትዮ	-11.0979
ቿ	-11.0984
▁በማስተማር	-11.0986
▁እንደሚሰሩም	-11.0988
▁ተብሏልበ	-11.0989
▁አዋሽ	-11.099
▁በቤንሻንጉል	-11.0991
▁ያለኝ	-11.0996
▁የሚወጣው	-11.0996
▁ልዩነቱን	-11.0998
▁ሀይሉን	-11.0999
▁ዴሞክራሲን	-11.0999
ነሱ	-11.1
ኞች	-11.1003
▁መታየቱን	-11.1006
▁ድርጊቶችን	-11.101
ቢያ	-11.1011
▁ከልብ	-11.1014
▁በሽታን	-11.1014
በትም	-11.102
▁አስባለው	-11.1021
▁የጣለው	-11.1026
▁የፍፁ	-11.1026
▁ተከታትሎ	-11.1028
▁ትሬዲንግ	-11.1029
▁በመልቀቅ	-11.1029
▁ካልተቻለ	-11.1029
▁ተመልክተናል	-11.1029
▁ከጎናቸው	-11.1029
▁ሽኩር	-11.103
▁አንችልም	-11.103
▁ሲያቀርቡ	-11.103
▁ለመሳብ	-11.1031
▁ለመነጋገር	-11.1032
▁ይገባናል	-11.1033
▁ተደርጎበታል	-11.1033
▁ይመራል	-11.1033
▁አባይነህ	-11.1034
▁የሚፈፀመው	-11.1034
▁በጥቅሉ	-11.1035
▁ታጋይ	-11.1037
▁ገብረህይወት	-11.1037
ሱዳን	-11.1038
▁የመጣነው	-11.1038
▁የሰለጠነ	-11.1038
▁ዘገበ	-11.1038
▁የካፒታል	-11.1038
▁our	-11.1039
▁መዛመት	-11.1039
▁ያካሄዱት	-11.104
▁ኤርትራውያን	-11.1042
▁የመራጮች	-11.1043
▁ሀምበሪቾ	-11.1043
▁ጥረቶችን	-11.1044
▁ለመናገር	-11.1046
▁ጦሩ	-11.1047
▁ተለይተዋል	-11.1049
▁ለሀገራቸው	-11.1049
▁ከምሽቱ	-11.1049
ሚካኤል	-11.1053
▁አሜሪካን	-11.1053
▁ቀዶ	-11.1053
▁ለነገ	-11.1054
▁ስላለበት	-11.1054
▁ቤን	-11.1055
▁ለሚፈልጉ	-11.1055
▁ታማሚዎች	-11.1057
▁ካሜሮን	-11.1057
▁F	-11.1059
▁ሊቃነ	-11.106
▁አው	-11.1063
ዘላለም	-11.1067
▁የጠየቁት	-11.1069
▁ውይይቶችን	-11.107
▁ያስተላለፉት	-11.1071
▁ድሎች	-11.1072
▁ንግግራቸው	-11.1073
▁ዴሞክራቲክ	-11.1073
▁ማግኘቱ	-11.1075
ነሳ	-11.1075
▁አሚን	-11.1076
▁መገኘታቸው	-11.1076
▁ጳጉሜ	-11.1077
▁ከንቲባዋ	-11.1078
▁በረጅም	-11.108
▁ግለሰቦቹ	-11.1088
51	-11.109
▁አጠባበቅ	-11.109
▁የዋለው	-11.1091
▁ቁመና	-11.1091
▁ባለስልጣናቱ	-11.1091
▁አላማችን	-11.1093
▁አገልግሎትን	-11.1098
ዝርዝር	-11.1098
ሰጣቸው	-11.1101
▁የኢኖቬሽንና	-11.1104
▁የችግሩ	-11.1111
▁ንቅናቄው	-11.1112
▁un	-11.112
▁ከበርካታ	-11.1122
ሂ	-11.1125
▁አፈር	-11.1127
▁በመካከላቸው	-11.1129
▁ተሟጋቾች	-11.1129
▁የማመንጨት	-11.1129
▁አቋርጦ	-11.1129
▁ያገኛሉ	-11.1129
▁ተሰርቶ	-11.113
▁ፋኪ	-11.113
▁ሳሊሶ	-11.113
▁አደረጃጀቶች	-11.113
▁የማነ	-11.1131
▁ለማመቻቸት	-11.1132
▁የሚያበረታታ	-11.1134
▁በመጠየቅ	-11.1134
▁የሚችሉት	-11.1134
▁ሀይለሚካኤል	-11.1135
▁only	-11.1136
▁የገባነው	-11.1136
▁መቀዛቀዝ	-11.1136
ፖ	-11.1137
▁ዮርዳኖስ	-11.1138
▁የሚያሳየው	-11.1139
▁ቸርነት	-11.1142
▁አቋቋም	-11.1142
▁የመምህራን	-11.1143
ኮንክሪ	-11.1145
▁ተረፈ	-11.1145
▁ገበታ	-11.1147
▁በቀጣናው	-11.1148
▁የፈጠረው	-11.115
▁ውጣ	-11.115
▁ለሆነው	-11.1155
▁ለእኔ	-11.1159
▁የእ	-11.116
▁ኮር	-11.1163
▁እማኞች	-11.1167
▁ሲኖር	-11.1168
▁ስልጠናውን	-11.117
▁ሰልጣኞች	-11.1173
▁ፍትህና	-11.1175
ትር	-11.1176
ሞክራቲክ	-11.1178
▁እሱም	-11.1185
111	-11.1188
▁ካንሰር	-11.119
▁ምርቱ	-11.119
▁የኤርትራው	-11.119
▁ከዋልታ	-11.1193
▁ሌላውን	-11.1198
▁የሚሹ	-11.1199
▁ሰሞን	-11.1204
▁በእነ	-11.121
▁ይሄም	-11.1211
ድኦ	-11.1212
ይድ	-11.1216
▁ዱላ	-11.1217
ጩ	-11.1222
▁በአንደኛ	-11.1224
▁final	-11.1225
▁ተሀድሶ	-11.1227
▁እንደሚወሰድ	-11.123
▁Hossana	-11.123
▁በመትከል	-11.123
▁ተባብሮ	-11.123
▁አልታወቀም	-11.123
▁አስተዳድር	-11.1231
▁ተከትለው	-11.1231
▁ሲሲ	-11.1232
▁የዲሞክራሲ	-11.1233
▁አባባ	-11.1233
▁ለኢንቨስትመንት	-11.1234
▁ቤኒሻንጉል	-11.1235
▁እግድ	-11.1236
▁በልምምድ	-11.1236
▁እነሆ	-11.1237
▁ምሁሩ	-11.1239
▁የሚጫወተው	-11.1239
▁ሳሙና	-11.1242
ሆን	-11.1243
▁ነፃና	-11.1243
▁ቢኖረውም	-11.1244
▁የተቀመጠውን	-11.1245
▁ማስፈን	-11.1245
▁አበይ	-11.1245
▁ስና	-11.1252
▁እኔን	-11.1252
▁በተመጣጣኝ	-11.1253
▁ስፔን	-11.1255
▁እንደማይኖር	-11.1255
▁አንዲ	-11.1255
▁180	-11.1258
▁አለመ	-11.1263
▁እንደሚወጣ	-11.1263
▁በአውሮፕላን	-11.1266
▁ጉብኝቱ	-11.1266
▁የጉባኤው	-11.127
▁በቃል	-11.1271
▁አሰጣጡ	-11.1274
▁ማሻሻያዎችን	-11.1282
82	-11.1287
▁ጨዋታዎቹ	-11.1287
▁በተከላካይ	-11.1295
ድምፅ	-11.1299
የን	-11.1299
▁ከሶማሊያ	-11.1301
▁አለመሆናቸውን	-11.1302
አል	-11.1303
▁ጫካ	-11.131
▁ተጠቆመ	-11.1314
▁የሚያጠናክር	-11.132
▁ኤጄንሲ	-11.1326
ጀመሩ	-11.1326
▁ዳባ	-11.133
▁መሳተፋቸውን	-11.1332
▁የጀመሩ	-11.1332
▁ለማስተማር	-11.1332
▁ተገምቷል	-11.1332
▁ሰይፉ	-11.1333
▁አስታውቆ	-11.1333
▁ገብረእግዚአብሄር	-11.1333
▁መጓደል	-11.1333
▁ይቀርባል	-11.1333
▁ስለመሆናቸው	-11.1333
▁ይቻል	-11.1333
▁ያገኛል	-11.1333
▁ለማዳረስ	-11.1333
▁በእጁ	-11.1335
▁ካስትሮ	-11.1336
▁በሚኖሩ	-11.1336
▁ክብደት	-11.1336
▁መጨረሻው	-11.1336
▁መከናወን	-11.1337
▁ስታዲየሞች	-11.1337
▁ገጠር	-11.1338
▁ኢራቅ	-11.1339
▁ለመቀልበስ	-11.1339
▁መስጊድ	-11.1339
▁ከቦታ	-11.134
▁የረመዳን	-11.134
▁በገዛ	-11.134
▁won	-11.1341
▁ማሻሻያው	-11.1342
▁መቋረጥ	-11.1342
▁ዘጠና	-11.1343
▁የሲሚንቶ	-11.1343
▁አተገባበር	-11.1344
▁በተከሰተ	-11.1344
▁ልጆችን	-11.1345
▁ቡድኖቹ	-11.1347
▁ጳጳሳት	-11.1347
▁ህይወትና	-11.1348
▁ካሳዬ	-11.135
▁መልካ	-11.135
▁በካይሮ	-11.1351
▁የመልሱ	-11.1352
ትራምፕ	-11.1352
▁የቁም	-11.1356
on	-11.1357
▁በግብርናው	-11.136
▁ተናግረዋልከዚህ	-11.136
ትምህርት	-11.1361
▁በተፈጠሩ	-11.1361
▁አነጋጋሪ	-11.1362
ቤት	-11.1366
▁በችግር	-11.1367
▁የመጀመሪያዎቹ	-11.1367
▁መሪነቱን	-11.1371
▁የተቀበለው	-11.1372
77	-11.1373
▁ባለመ	-11.1374
▁ሪፖርቶች	-11.1377
▁ጋናዊው	-11.1378
▁ብክነት	-11.138
▁እድገቱ	-11.1382
በሁለቱ	-11.1384
▁ለአ	-11.1385
▁ተናግረዋልከ	-11.1388
▁ግንኙነቱ	-11.1389
▁ማቅረቡ	-11.1389
ኩም	-11.139
ማር	-11.139
▁መዘጋጀቱ	-11.1391
በከተማዋ	-11.1392
▁መረጋጋትን	-11.1394
▁ስሜ	-11.1394
▁ስንት	-11.1395
ሳይ	-11.1397
▁የተጣለበት	-11.14
▁ተከስተ	-11.1404
▁ጥቃቅን	-11.1406
ለኝ	-11.1408
▁በየካቲት	-11.1408
▁በጉብኝቱ	-11.141
▁ሮቤ	-11.1411
▁አውስትራሊያ	-11.1417
▁የእቅዱን	-11.1418
78	-11.142
▁መለወጫ	-11.1435
▁ተደምጠዋል	-11.1435
▁መትከል	-11.1435
▁ምሁር	-11.1435
▁ጥጋቡ	-11.1435
▁host	-11.1435
▁በማስወገድ	-11.1435
▁አሳውቀዋል	-11.1436
▁የማስተዳደር	-11.1436
▁ይጠበቅብናል	-11.1436
▁የመዝናኛ	-11.1437
▁Tesfaye	-11.1438
▁ኦዶንካራ	-11.1438
▁ለመጠየቅ	-11.1438
▁አሳምነው	-11.1438
▁ተሰባስበው	-11.1438
ሚስተር	-11.1438
▁በስደት	-11.1439
▁ለድርድር	-11.1439
▁ዲግሪያቸውን	-11.144
▁የፕላስቲክ	-11.1441
▁ዱቄት	-11.1441
▁ከወራጅ	-11.1441
▁ለሀገራችን	-11.1442
ጓ	-11.1445
▁የሆቴል	-11.1446
▁በማሳለፍ	-11.1446
▁ሱልጣን	-11.1449
▁እንደሚያደርገው	-11.145
▁በፓርቲው	-11.1451
▁ለኔ	-11.1452
▁የኮንትራት	-11.1453
▁ክለቦቹ	-11.1454
▁አሰላ	-11.1457
▁እንደሚኖርበት	-11.1458
▁ዛማሌክ	-11.1458
ርእሰ	-11.1462
▁ተደርጎላቸው	-11.1463
በመጀመሪያው	-11.1464
▁ጁ	-11.1466
▁የውጤት	-11.1467
▁ሚዲያው	-11.1471
▁የቋሚ	-11.1473
▁ተካሄዷል	-11.1475
▁ከአየር	-11.1476
▁መግለፁን	-11.1477
▁ለንግድ	-11.1478
▁መልእክቶችን	-11.1482
▁የሚያዙ	-11.1483
ፀ	-11.1488
▁መዝገቡን	-11.1489
▁የሚያስችለው	-11.1489
▁ያስገነዘቡት	-11.149
▁ህልም	-11.149
▁ባዶ	-11.1493
▁ከድርጅቱ	-11.1496
▁ችሎታ	-11.1497
መጨረሻዎቹ	-11.1497
▁እንዲጠበቅ	-11.1502
▁ምርጫን	-11.1502
▁ፍላጎቱ	-11.1503
መው	-11.1503
▁ከአመት	-11.1503
▁ረ	-11.1511
▁ገቢው	-11.1511
አገራቱ	-11.1511
▁ጣና	-11.1514
▁የሚመለከቱ	-11.1515
▁በማይ	-11.1516
▁ኮሮናቫይረስ	-11.1517
ጠው	-11.1519
▁ባስቀመጠ	-11.1521
▁እንደሚወያዩ	-11.1523
▁የማይችል	-11.1529
▁ብዙሀኑ	-11.1534
▁በብሄር	-11.1537
▁ተናግራለች	-11.154
▁የሀዘን	-11.154
▁ይገኝበታል	-11.154
▁እየተጠበቀ	-11.154
▁በማልማት	-11.154
▁እንዲቀጡ	-11.1541
▁በማስቀጠል	-11.1541
▁እንዳይወጡ	-11.1541
▁እያገኙ	-11.1541
▁ለመዘርጋት	-11.1543
▁ማሸነፋቸው	-11.1543
▁ከጫፍ	-11.1544
▁የፊልም	-11.1545
▁ገልፀዋልኢትዮጵያ	-11.1546
▁አካውንት	-11.1546
▁ስንቅ	-11.1547
▁በአመዛኙ	-11.1547
▁ካጋሜ	-11.1548
▁ተዋጊዎች	-11.1548
▁ዝና	-11.1549
▁ስልጤ	-11.1549
▁ታንዛንያ	-11.1549
▁በክረምት	-11.1553
76	-11.1555
▁በአውሮፓውያኑ	-11.1556
▁በሯንዳ	-11.1556
▁ግቡን	-11.1558
▁አልሻባብ	-11.1559
Ethiopia	-11.1562
ዎቻችን	-11.1563
▁ለቀረበላቸው	-11.1565
▁ያስተላለፈው	-11.1565
ደማቅ	-11.1567
▁ኩ	-11.1568
▁በዋስ	-11.1569
ዉጭ	-11.1571
▁በዘር	-11.1572
▁112012	-11.1576
ዋልታ	-11.1577
79	-11.1579
▁110	-11.158
▁ምርትን	-11.1581
ዎቻቸውን	-11.1581
71	-11.1581
▁ከግል	-11.1582
▁በጣሊያን	-11.1584
ባቱ	-11.1585
▁በነዳጅ	-11.1588
▁የአስተዳደሩ	-11.1588
▁በገባው	-11.159
ቾ	-11.1591
▁ብዙዎችን	-11.1594
▁ድንጋጌዎች	-11.1597
▁ከተማዋን	-11.1597
▁ጥላቻ	-11.1598
▁የሚነሳው	-11.1601
▁በሆስፒታሉ	-11.1601
▁ኤምባሲዎች	-11.1602
▁ነዋሪው	-11.161
▁ከምርጫው	-11.1613
▁አመራርና	-11.1613
▁ማድረሱን	-11.1614
▁ያሳዩ	-11.1614
▁መዝገቡ	-11.1619
▁ገልፀዋልእንደ	-11.1624
95	-11.1626
▁በሚሆኑ	-11.1634
የድርጅቱ	-11.1635
ፋና	-11.1637
▁በይቅርታ	-11.1638
▁የተከፈለ	-11.1638
▁እንደነበርና	-11.1638
▁ተጥሎ	-11.1639
▁አሎ	-11.1642
▁ፍራንሲስ	-11.1644
▁ክንፈ	-11.1645
▁ሌንጮ	-11.1645
▁በማስረዳት	-11.1645
▁ባለመሆናቸው	-11.1645
▁ታረቀኝ	-11.1645
▁ተቀብለዋል	-11.1645
▁እንደምትሰራ	-11.1645
▁ፀሀዬ	-11.1645
▁አጀማመር	-11.1646
▁ሲከታተሉ	-11.1646
▁እንዲቀንስ	-11.1646
▁የጀመረችውን	-11.1647
▁እየጠበቀ	-11.1647
▁አደሮቹ	-11.1648
▁በተሞላበት	-11.1649
▁አወቃቀር	-11.1649
▁ይበልጣል	-11.1649
▁ተጫዋቾቻቸው	-11.165
ላል	-11.1651
▁ተያይዘው	-11.1651
▁ሊባል	-11.1651
▁በዋነኝነት	-11.1651
▁ለተጠቃሚዎች	-11.1652
▁መሰናክል	-11.1652
▁ይወጣል	-11.1652
▁የሜዳው	-11.1653
▁ሙጋቤ	-11.1653
▁መስኡድ	-11.1653
▁ስልጣኔ	-11.1654
▁ቤጂንግ	-11.1655
▁ቅ	-11.1656
▁የዲጂታል	-11.1657
▁ቴክኖሎጂዎች	-11.166
ወላይታ	-11.166
ኡ	-11.1661
▁ጋዲሳ	-11.1664
▁ለስራው	-11.1666
▁ኢኮኖሚክ	-11.1668
▁የተወሰደ	-11.167
▁የእምነቱ	-11.1671
▁ፋይዳው	-11.1672
▁ደስታቸውን	-11.1672
▁ሀድያ	-11.1673
መለሱ	-11.1674
▁የፀሀይ	-11.1674
▁ቁጣ	-11.1676
▁በፈፀሙት	-11.1677
▁ድምፃዊ	-11.1681
▁ቡታጅራ	-11.1682
▁ከምስራቅ	-11.1683
▁በሚባለው	-11.1684
ሰራዊቱ	-11.1689
ጣት	-11.1693
▁ማሳሰቢያ	-11.1696
▁ምስክርነት	-11.1698
▁ከወር	-11.1699
▁እነዚህም	-11.1699
▁እንደየ	-11.17
አለማችን	-11.1702
▁ኤጀንሲዎች	-11.1706
▁አብራርቷል	-11.1707
▁እየወሰዱ	-11.1708
▁them	-11.1712
▁ደንቡ	-11.1712
ዘንድሮ	-11.1713
▁ያሳዩት	-11.172
▁የሚኖር	-11.1722
▁ዝግጅቶችን	-11.1723
▁ቀሪውን	-11.1723
▁መውጣቱን	-11.1724
ሱዳኑ	-11.1724
▁መዘርጋት	-11.1724
▁በጋና	-11.1732
▁የክለቡን	-11.1734
▁ለሁለቱ	-11.1737
ይሁንና	-11.174
▁የጋና	-11.174
▁ሀዋሳዎች	-11.174
▁ሚሊሻ	-11.1746
▁እንዳላቸውም	-11.1747
▁ይቀርባሉ	-11.1751
▁በማገልገል	-11.1751
▁በትንሹ	-11.1751
▁ይቀጥላሉ	-11.1751
▁ተዘዋውረው	-11.1751
▁ቢቆይም	-11.1751
▁ታምኖበታል	-11.1752
▁አሳፋሪ	-11.1752
ህዝቡ	-11.1752
▁በመርሀ	-11.1753
▁በአንዱ	-11.1753
▁ተአቅቦ	-11.1754
▁ለአስር	-11.1754
▁ሆፕኪንስ	-11.1755
▁በማስቀረት	-11.1756
ባለስልጣኑ	-11.1756
▁የብረታ	-11.1756
▁የመጠበቅ	-11.1756
ቋ	-11.1757
▁ፓሪስ	-11.1757
▁ለነበረው	-11.1757
▁ባለባቸው	-11.1758
▁ቅንጅታዊ	-11.1758
▁ለሰብአዊ	-11.1758
▁ተአማኒነት	-11.1758
▁ፓሊስ	-11.1759
▁ይችል	-11.1759
ቤል	-11.176
▁የተወጣጡ	-11.1762
▁ከታቀደው	-11.1764
▁ሙን	-11.1767
▁የበዛ	-11.1768
▁መረባረብ	-11.1769
▁ከህገ	-11.1771
ለሰባት	-11.1775
▁142012	-11.1777
▁ማዳጋስካር	-11.1779
▁ናይል	-11.1779
64	-11.178
ባሳለፍነው	-11.1781
▁የማስ	-11.1781
▁ነጋዴ	-11.1782
▁ለምርጫ	-11.1783
▁በብዙዎች	-11.1785
▁ማማ	-11.1785
▁ፓ	-11.1788
▁አብረሀም	-11.179
ሩን	-11.179
▁ያስቀመጠው	-11.1796
▁ዛ	-11.1798
▁የወሰደ	-11.1801
ማሰራጨት	-11.1802
▁ንረት	-11.1803
▁በሀምሌ	-11.1806
▁ማዘጋጀቱን	-11.1808
ለር	-11.1809
▁ሪል	-11.1809
▁ግንኙነቱን	-11.181
▁አስታወቀየ	-11.1812
▁ረዳ	-11.1812
▁የሚቻልበት	-11.1814
▁የህንፃ	-11.1815
▁የሚጎዳ	-11.1818
▁የቅርስ	-11.1819
▁የወተት	-11.1823
ፅህፈት	-11.1823
▁ፈቃዱ	-11.1824
▁እንዷ	-11.1829
▁ቅርሶችን	-11.183
▁ቢባልም	-11.1832
▁በሰበታ	-11.1832
ስምምነቱ	-11.1832
250	-11.1836
▁ለማሳደግና	-11.1836
▁ተተኪ	-11.1838
▁ሲገባው	-11.1838
▁መሰለፍ	-11.1841
▁የስብሰባ	-11.1845
ተጠርጣሪው	-11.1849
▁Kebede	-11.1859
▁ተጨምሯል	-11.1859
▁አውግዘዋል	-11.1859
▁ታግዞ	-11.1859
▁መብራቴ	-11.1859
▁following	-11.1859
▁ደርቤ	-11.1859
▁አጋጥሞ	-11.1859
▁shot	-11.1859
▁ተካፋይ	-11.1859
▁አውታር	-11.1859
▁ፋራህ	-11.1859
▁ተባብረው	-11.186
▁ወዲያውኑ	-11.1862
▁ስኬል	-11.1863
▁ማስቀረት	-11.1863
▁ቢጠበቅም	-11.1863
▁መገባደጃ	-11.1865
▁ሶማልያ	-11.1866
ተቋቋመው	-11.1866
▁ራዲዮ	-11.1867
▁የፍሳሽ	-11.1868
▁now	-11.1868
▁ከተሰጣቸው	-11.187
▁በታንዛኒያ	-11.1873
▁ከኋላ	-11.1875
▁ጫት	-11.1876
▁ስራዎቹ	-11.1876
▁የተቀመጠ	-11.1877
▁አስከባሪዎች	-11.1878
▁sides	-11.1879
▁እንደሚጠበቅም	-11.188
▁ለንደን	-11.1881
▁የተጫወቱት	-11.1883
▁162012	-11.1883
▁በጂቡቲ	-11.1884
▁ፈተናውን	-11.1887
▁ገጠም	-11.1887
በጉዳዩ	-11.1888
▁ተመልክተዋል	-11.1891
▁ገልፀዋልበዚህ	-11.1896
▁የሩስያ	-11.1897
ቀን	-11.1897
▁ቅርስነት	-11.1898
▁ኩራ	-11.1898
▁በላቀ	-11.1902
▁ግጭትና	-11.1902
ዘር	-11.1904
▁ፋሶ	-11.1907
▁የናይጄሪያ	-11.1912
▁በመኪና	-11.1913
▁ሳት	-11.1914
ቸዉ	-11.1918
▁ራሳችንን	-11.1919
▁ያሏቸው	-11.192
2001	-11.1925
▁የሚገኙበት	-11.1926
▁የነጥብ	-11.1931
የታላቁ	-11.1932
▁መቋቋሙን	-11.1935
▁እንዳደረገ	-11.194
▁መጀመራቸው	-11.1943
አመት	-11.1943
ታሪኩ	-11.1944
▁ከቀድሞ	-11.1945
በአካባቢው	-11.1946
▁የአገሪቷ	-11.1947
▁ነበራቸው	-11.1948
▁እየተጠቀሙ	-11.1949
ኮርፖሬሽኑ	-11.195
▁አንደ	-11.1952
▁የተስፋ	-11.1953
▁ብለዋልእንደ	-11.1954
▁ጥራቱን	-11.1955
▁ማድረጓን	-11.196
ፕሮፌሰር	-11.196
▁ከወጣ	-11.1962
▁interval	-11.1967
▁ተገንዝቦ	-11.1967
▁ይጨምራል	-11.1967
▁spot	-11.1967
▁ስርቆት	-11.1968
▁መርጧል	-11.1968
▁እንዳልተቻለ	-11.1968
▁አድርጓቸዋል	-11.1968
▁በሚቆየው	-11.1968
▁ተካቷል	-11.1968
▁ጠንክሮ	-11.1969
▁በማሟላት	-11.1969
▁ጫፎ	-11.1972
▁ዞኑ	-11.1973
▁የሚጥል	-11.1973
▁ሲስተም	-11.1974
▁መመርመር	-11.1974
▁የጥቁር	-11.1975
▁በመዘርጋት	-11.1976
▁ብለዋልከ	-11.1976
▁ተከተል	-11.1977
▁እንዲሳተፍ	-11.1977
▁ኤርፖርት	-11.1977
▁ወረዳው	-11.1978
▁የክለቦች	-11.1979
▁እንዳለብን	-11.198
▁የጥበብ	-11.1981
አደጋው	-11.1983
▁92	-11.1983
▁ተጫዋቾቹን	-11.1984
▁አትሌቱ	-11.1984
▁በማጎልበት	-11.1985
▁እያደረግ	-11.1987
▁ስጋታቸውን	-11.1989
▁ተገ	-11.199
▁በሀያ	-11.199
▁በጀመረው	-11.199
▁ማረጋገጡን	-11.1991
▁የጉዳት	-11.1993
▁ዮ	-11.1993
▁ከብዙ	-11.1994
▁ተገልጿልበ	-11.1995
▁አካዳሚው	-11.1995
ተቋማቱ	-11.1996
በኦሮሚያ	-11.1997
ታዳሽ	-11.1998
▁It	-11.1998
▁ኢያሱ	-11.1999
▁ባላት	-11.2001
▁በሀሳብ	-11.2004
▁ሰጥተ	-11.2006
▁ከመላው	-11.2006
▁በጤናው	-11.2014
▁ካገኘ	-11.2018
▁ከተረጋገጠ	-11.202
ለትን	-11.202
▁በውጤት	-11.2022
▁ባስቆጠራ	-11.2023
ደን	-11.2024
▁ፍቅርና	-11.2026
▁ንግግሮች	-11.2027
▁ሊገባ	-11.2028
ወጡ	-11.203
twe	-11.2031
▁በአለ	-11.2032
▁ያስመዘገበው	-11.2033
▁ታዳሚዎች	-11.2034
▁ማገገማቸውን	-11.2034
▁መቀነሱን	-11.2034
ያችን	-11.2036
▁እያደረጉት	-11.2036
ግቧ	-11.2037
▁የወጣት	-11.2042
▁ወጪዎች	-11.2043
81	-11.2044
ሸን	-11.2048
▁እየቀረ	-11.2051
▁ለተሰማሩ	-11.2053
ዋቸው	-11.2056
▁የተቀላቀሉ	-11.2057
▁እርቀ	-11.2058
▁ከሌላ	-11.2059
▁102	-11.206
▁የቀድሞውን	-11.2065
▁የቀበሌ	-11.2073
▁ያልተጠበቀ	-11.2076
▁ትሪሊ	-11.2077
▁አከናውኗል	-11.2077
▁አጥናፉ	-11.2077
▁ማትያስ	-11.2078
▁ታያቸው	-11.2079
▁ተክተው	-11.2079
ቢሮው	-11.208
▁ልምምዶች	-11.2081
▁አፍጋኒስታን	-11.2081
▁ሞባይል	-11.2081
▁የህትመት	-11.2082
▁እንዳሻው	-11.2082
▁የድርቅ	-11.2082
▁እንደሚወጡ	-11.2082
▁በመጠኑ	-11.2083
▁የመነሻ	-11.2084
▁ሲገለፅ	-11.2084
ከበር	-11.2085
▁የስርጭት	-11.2086
▁የማዳበሪያ	-11.2087
▁የቋንቋ	-11.2088
▁ጠይቀው	-11.2088
▁በመምረጥ	-11.2088
▁በሚኒስትሮች	-11.2089
▁ዘመድ	-11.2089
▁ከመከላከል	-11.2089
▁የሊዝ	-11.209
▁አስተያየቱ	-11.209
▁የወጡት	-11.2091
ረዘም	-11.2092
▁መታደግ	-11.2093
▁ያስገባ	-11.2094
ነር	-11.2098
ይደር	-11.2098
▁ብለዋልይህ	-11.21
▁ከሁለቱም	-11.2102
ወሰደው	-11.2102
▁ብለዋልከዚህ	-11.2104
▁አውቶብስ	-11.2108
ሀሙስ	-11.211
▁አምሀ	-11.2111
▁በማድረግም	-11.2111
ውል	-11.2115
▁አመለከተ	-11.2117
ሚሊዮኖች	-11.2117
▁የመድን	-11.2119
▁አለማቀፉ	-11.2119
▁በሲቪል	-11.2121
▁ህዋ	-11.2123
ብልፅግና	-11.2129
▁የወሰነው	-11.2135
▁ሌ	-11.2138
▁ጉዳቶች	-11.2139
▁ታሪፍ	-11.2141
▁ቆጠራው	-11.2141
▁ዘዴዎች	-11.2148
▁መገደላቸው	-11.2148
▁ያካሄደው	-11.2149
የተለያዩ	-11.2151
▁ይዞታዎች	-11.2152
▁ከተያዙ	-11.2152
▁91	-11.2154
▁እየተደረገባቸው	-11.2156
በወቅቱ	-11.216
▁የሚወስድ	-11.2162
▁ተወስዶ	-11.2166
▁ላጡ	-11.2168
▁ይታይ	-11.2169
▁በጨረታ	-11.2171
▁ልዩነቶችን	-11.2171
▁የባለ	-11.2173
መከላከያ	-11.218
አምባሳደሩ	-11.2188
▁ጠይቆ	-11.2188
▁ለእይታ	-11.2189
▁ፈቅዷል	-11.2189
▁የመሰብሰብ	-11.2189
▁አስመዝግበዋል	-11.2189
▁በመቅረፍ	-11.2189
▁ተቀምጠዋል	-11.2189
▁ምንድነው	-11.2189
▁ዞሮ	-11.2189
▁እንዲተላለፍ	-11.2189
▁ተመዝግበው	-11.2189
▁አድጎ	-11.219
▁እንደሚቆይ	-11.219
▁put	-11.219
▁እንደሚያስፈልገው	-11.219
▁አጠገብ	-11.2192
▁ሙስጠፋ	-11.2192
▁በአምበልነት	-11.2192
▁በማጥቃት	-11.2192
▁በመከናወን	-11.2193
▁የአመለካከት	-11.2193
▁ዛይድ	-11.2194
▁ዛቻ	-11.2195
▁ma	-11.2195
▁የትም	-11.2198
ነዋሪዎቹ	-11.2198
▁ተክለማርያም	-11.2198
▁ምስራቃዊ	-11.2198
▁ወደዚህ	-11.22
▁ሲጂቲኤን	-11.22
▁የመጨረሻውን	-11.2201
▁ቀጠናዊ	-11.2203
▁ኬሪ	-11.2203
▁ምንነት	-11.2206
▁የፌዴራልና	-11.2206
▁በአሰልጣኝነት	-11.2208
ሚድሮክ	-11.2208
▁የስምንት	-11.2208
ቆሙ	-11.221
▁ደኢህዴን	-11.2211
▁መቆጠብ	-11.2212
▁በጥር	-11.2214
ግም	-11.2217
▁ያደረገች	-11.2218
▁ከሀይማኖት	-11.2218
▁መሪዎችና	-11.2218
ቺው	-11.2219
▁የተቋረጠው	-11.2224
▁የወታደራዊ	-11.2231
▁ወቀሳ	-11.2231
▁አሶሳ	-11.2234
▁በፕሬዚዳንት	-11.2238
▁ከዳር	-11.2239
▁62012	-11.2239
▁እንደመጣ	-11.224
▁በመቀጠልም	-11.2247
▁ሳህለ	-11.2249
side	-11.2255
▁መፈናቀላቸውን	-11.2255
▁የሚተላለፉ	-11.2256
▁የስፖርቱ	-11.226
▁ምስጋናው	-11.2263
ነገ	-11.2263
▁የሟቾች	-11.2265
▁ጥራትና	-11.2266
▁ሰባተኛ	-11.2266
▁ልታ	-11.2267
▁ስርጭቱ	-11.2269
▁ተቀምጦ	-11.227
ተደረገላቸው	-11.2272
▁የተመለሱት	-11.2274
▁125	-11.2274
▁እንደሚደግፉ	-11.2277
▁የጠየቀው	-11.2287
▁የሞቱት	-11.2289
ሊን	-11.2289
ጄ	-11.2292
▁ከሌለ	-11.2294
▁የነገ	-11.2295
መጣ	-11.2296
▁Jifar	-11.2301
▁በማሰማራት	-11.2301
▁ተላልፈው	-11.2301
▁የማሳደግ	-11.2301
▁በፅናት	-11.2301
ዩኒቨርሲቲው	-11.2301
▁የባለቤትነት	-11.2301
▁ያስቀምጣል	-11.2301
▁ጥይቶች	-11.2301
▁scoring	-11.2301
▁እየመጡ	-11.2301
▁ፈጥረዋል	-11.2301
ሶሎሞን	-11.2302
▁መጓተት	-11.2302
▁ሲያገኝ	-11.2302
▁leg	-11.2304
▁ስለሆኑ	-11.2304
▁ሚኒስተር	-11.2305
▁አብደል	-11.2305
▁ገንቢ	-11.2305
▁አስተናግዷል	-11.2306
▁ሙዚየም	-11.2306
▁የክትባት	-11.2306
▁ከቀጠለ	-11.2308
▁ከስደት	-11.2309
▁የዘጠኝ	-11.2311
▁ፈፅመው	-11.2311
▁ቴክኖሎጂን	-11.2312
▁ጭንቀት	-11.2312
▁አሸናፊዎች	-11.2313
▁እንደተለመደው	-11.2314
▁ባለቤቱ	-11.2314
▁በተዘዋዋሪ	-11.2315
▁በኢንተርኔት	-11.2315
▁ያጋጠሙ	-11.2316
▁ሻምበል	-11.2317
▁በግለሰብ	-11.2318
▁የደንብ	-11.2321
▁አቅርቦትን	-11.2321
▁ምርመራው	-11.2321
▁በማድረጋቸው	-11.2323
የሀገር	-11.2325
▁ከሩሲያ	-11.2327
▁ወርዶ	-11.2329
▁በቆየው	-11.233
▁በባንክ	-11.2335
▁በእቅዱ	-11.2337
▁በሮች	-11.2337
▁በመጪዎቹ	-11.2339
▁የቀሩት	-11.234
ለትም	-11.2345
የአውሮፓ	-11.2346
ድር	-11.2347
ማክሰኞ	-11.2353
የፖለቲካ	-11.2357
ከጨዋታው	-11.236
▁ገዥው	-11.236
▁የሚጠቀሙ	-11.2362
▁የወልቂጤ	-11.2366
▁ግጥሚያ	-11.2367
▁ላንድ	-11.2369
▁አላማዎች	-11.237
▁ወሰነ	-11.2376
▁ሽብርተኝነት	-11.2379
▁ማድረጉንም	-11.2384
▁ጥናቱን	-11.2384
ሀድ	-11.239
የስራ	-11.2395
የህወሀት	-11.2397
▁እንዳይደርስ	-11.2397
▁የደረቅ	-11.2398
▁አስታውቋልየ	-11.2398
▁ወንጀሎችን	-11.2402
▁ጨዋታውም	-11.241
▁ይፈጠራል	-11.2414
▁penalty	-11.2414
▁አደርጋለሁ	-11.2415
▁ያቀርባሉ	-11.2415
▁አስታውሶ	-11.2415
▁ወስጥ	-11.2415
▁Football	-11.2415
▁አይደል	-11.2415
▁የሚያመላክት	-11.2416
▁ተስፋማርያም	-11.2416
▁እንዲመጡ	-11.2416
▁የሰራው	-11.2417
▁አምናለሁ	-11.2418
▁ስፖንሰር	-11.2418
▁ዘካሪያስ	-11.2418
▁ለውድድር	-11.2419
▁ለሚሰሩ	-11.242
▁አሀሊ	-11.242
▁በተጠባባቂ	-11.242
▁ሲጀምሩ	-11.2422
የመጀመሪያው	-11.2424
▁ለዘላቂ	-11.2424
▁ብዟየሁ	-11.2424
▁መወሰን	-11.2424
▁ለክልሎች	-11.2425
▁ትኬት	-11.2425
▁የመለያ	-11.2426
▁የመግቢያ	-11.2426
▁ጭስ	-11.2426
▁የጠቀሰው	-11.2426
73	-11.2427
▁በኦሮሞ	-11.2427
▁መገልገያ	-11.2427
▁በመጣስ	-11.2428
▁ዜማ	-11.2429
▁መድህን	-11.243
▁ላበረከቱት	-11.2431
▁መሸጥ	-11.2431
▁ለግብርና	-11.2431
▁በሀገሩ	-11.2431
ጠቅላላ	-11.2436
▁አረፋ	-11.2442
▁ጥራትን	-11.2443
▁እንደሌለባቸው	-11.2445
▁አድ	-11.2447
▁ከመጀመርያው	-11.2447
▁አኩሪ	-11.2449
ፌደሬሽን	-11.245
ሙስሊም	-11.2451
▁72012	-11.2451
▁እንደሆኑም	-11.2452
ደደቢት	-11.2454
▁ሲቀርብ	-11.2456
ፓርላማው	-11.2457
▁አይቶ	-11.2458
▁በገቢ	-11.246
▁መመዘኛ	-11.2464
▁የተቀላቀለ	-11.2465
▁የተያዘውን	-11.2475
▁ይታወሳልአዲስ	-11.2479
ኮማንድ	-11.2482
▁እፎይታ	-11.2485
▁የላከው	-11.2485
▁የጋዜጠኞች	-11.2487
▁ፍ	-11.2489
▁የትምህርትና	-11.249
▁በእኩልነት	-11.2492
▁መከሰቱ	-11.2492
▁ውድነት	-11.2497
▁ተዋጊ	-11.2497
▁ልጃቸው	-11.2499
▁ከሚል	-11.25
ተጀመረ	-11.2507
▁ካላ	-11.2508
▁የማሰባሰብ	-11.2508
▁የካናዳ	-11.2508
▁የጦርነት	-11.2509
▁የምትገኝ	-11.251
▁መታሰራቸውን	-11.251
▁ተብሏልየ	-11.2511
አገሪቱ	-11.2518
▁ማቆሚያ	-11.2522
▁የግሉን	-11.2524
ሸነፍ	-11.2525
▁መመለሱን	-11.2525
▁መስተጋብር	-11.2529
▁ከመፍጠር	-11.2529
▁አለቃቀቅ	-11.2529
▁ልኳል	-11.253
▁እንደምትችል	-11.253
▁ጠፊ	-11.253
▁ለተሻለ	-11.2531
▁ተጨዋቹ	-11.2534
▁እንባ	-11.2535
▁ደህንነቱ	-11.2536
▁አስፈሪ	-11.2536
▁ወያኔ	-11.2537
▁ብለዋልኢትዮጵያ	-11.2539
▁በዝናብ	-11.2543
▁የሚያነሱት	-11.2545
▁ቀነኒሳ	-11.2547
▁በኤጀንሲው	-11.2547
ያት	-11.2548
▁አፍሮ	-11.2549
▁የምናደርገው	-11.2549
▁የለሽ	-11.2551
▁272012	-11.2552
▁ለሚኖሩ	-11.2552
▁ለማህበራዊ	-11.2552
▁የአይ	-11.2554
▁የታሰበ	-11.2556
▁ፀድቋል	-11.2557
▁የመድረክ	-11.2558
▁ጉብኝታቸውን	-11.2561
▁የአልሸባብ	-11.2567
ተጨዋች	-11.2568
▁ጀመሩ	-11.2568
ፌዴሬሽኑ	-11.2568
ረቡእ	-11.257
▁ተወያይቷል	-11.257
▁በቀጣይነት	-11.2572
▁አማካዮች	-11.2574
▁ተከሳሹ	-11.2575
▁ለሚለው	-11.2578
▁ሳሉ	-11.2579
▁አሜሪካዊ	-11.2583
▁ባን	-11.2584
1130	-11.2585
ከል	-11.2585
▁የተወሰኑት	-11.2589
▁የህሊና	-11.2589
▁ሁነቶች	-11.2599
▁ስደት	-11.26
▁የሚፈጠር	-11.2601
እኛ	-11.2603
▁መገለፁ	-11.2603
ፐብሊክ	-11.2605
▁በማን	-11.2606
▁የሚንቀሳቀስ	-11.2608
▁በሚሰጠው	-11.2608
▁ግድቦች	-11.261
▁ማስታወቁ	-11.261
▁ላኪ	-11.2613
▁የሚፈልጉትን	-11.2613
ዶናልድ	-11.2614
ጉዳዩን	-11.2614
▁ልእልና	-11.2616
▁አውሮፕላኖችን	-11.2616
ጥሩ	-11.2619
▁የተፈፀሙ	-11.2619
▁በይፋዊ	-11.262
▁የሚያገኙበት	-11.2621
▁ድምፀ	-11.2627
▁የተሰጡ	-11.2628
▁የዛሬውን	-11.2631
▁የሚጠናቀቅ	-11.2638
▁እያስከተለ	-11.264
▁group	-11.2641
▁ወያነ	-11.2646
▁ተቀናጅቶ	-11.2646
▁four	-11.2646
▁some	-11.2646
▁ቃልአቀባይ	-11.2646
▁በመረጋገጡ	-11.2646
▁ይዛለች	-11.2646
▁እንደሚፈልግ	-11.2646
▁አስቆጥራ	-11.2647
▁እንደማይሆን	-11.2647
▁ሲከናወን	-11.2648
▁አውቆ	-11.2648
▁ሚድያ	-11.2648
▁የማስተካከያ	-11.2648
▁የማውጣት	-11.2649
▁ጉጉት	-11.2649
ወጣቱ	-11.2649
▁ለፖለቲካ	-11.2649
▁የቪዲዮ	-11.265
▁ለመጣል	-11.265
▁እንደሚቀርብ	-11.265
▁ስብከት	-11.2651
▁በሌለበት	-11.2651
▁በስልጠናው	-11.2652
▁መወሰድ	-11.2652
▁አህሊ	-11.2653
▁ይዞበታል	-11.2655
▁ሀሰት	-11.2655
▁አንጎላ	-11.2655
▁ገብርኤል	-11.2656
▁አንዋር	-11.2657
▁በጥምረት	-11.2659
▁ማረጋገጣቸውን	-11.266
▁ሞስኮ	-11.2662
▁le	-11.2663
▁ግሎባል	-11.2663
▁የማስተናገድ	-11.2663
ገር	-11.2665
▁እንደምታ	-11.2665
▁ጋቦን	-11.2676
▁ቢያደርግም	-11.2677
▁ሀገሩን	-11.2678
▁ንጋቱ	-11.2679
▁ኦኪኪ	-11.2679
▁ነጥቡን	-11.2679
▁የሸገር	-11.2681
▁ፈቃዳቸው	-11.2681
▁ሲነገር	-11.2681
▁ብትሆንም	-11.2681
▁FBC	-11.2682
▁እየተፈጠረ	-11.2684
▁የሚሰጥበት	-11.2685
▁የሰራ	-11.2687
ፈጠሩት	-11.2691
ሄ	-11.2696
▁አላዛር	-11.2698
ሙሉ	-11.2702
▁ተለያይ	-11.2709
▁ኢምባሲ	-11.271
▁ተከላካይነት	-11.2711
ገጠመው	-11.2714
ሳቸው	-11.2715
▁ገልፀዋልአቶ	-11.2717
▁የኤ	-11.2719
እንዲህ	-11.2719
▁የድርጅቱን	-11.2724
▁ከወላይታ	-11.2727
▁እየገባ	-11.2728
▁የተቻለው	-11.273
የትምህርት	-11.2731
▁ተክለ	-11.2733
▁ጎሳ	-11.2744
▁ተቋማትም	-11.2744
▁ሬ	-11.2746
▁ለተነሱ	-11.2747
▁ተግባሩን	-11.2747
አጠቃላይ	-11.2748
▁በሰፊ	-11.275
▁መመርመሪያ	-11.2753
ደረሰበት	-11.2756
ፈጠረው	-11.2758
▁የህልውና	-11.2761
se	-11.2761
▁አዲ	-11.2762
▁ጀምስ	-11.2763
▁አጨራረ	-11.2763
▁ተዘጋጅተዋል	-11.2763
▁በማሳወቅ	-11.2763
▁later	-11.2764
▁ማስቆም	-11.2764
▁ሻንቆ	-11.2764
▁እያሳደረ	-11.2764
▁እንዲጠብቁ	-11.2764
▁ሽዴ	-11.2764
▁ተስማሚ	-11.2764
▁መሸጫ	-11.2765
▁አመሰግናለሁ	-11.2765
▁ተቀራርቦ	-11.2765
▁እንዲቀላቀሉ	-11.2765
▁እንደተጠበቀ	-11.2766
▁አውሮፓውያን	-11.2766
▁ሊያገኝ	-11.2766
▁ሙሴቬኒ	-11.2766
▁ማህበረሰቦች	-11.2767
▁ወቅቶች	-11.2767
▁አብዱልፈታህ	-11.2768
▁መስተካከል	-11.2768
▁በማስመሰል	-11.2768
▁ሞጆ	-11.2768
▁በንግግር	-11.2769
▁የማይቻል	-11.277
▁ኩነት	-11.2771
▁ቀረበ	-11.2772
▁መጣል	-11.2772
▁ከእነ	-11.2773
ave	-11.2776
▁ለአል	-11.2776
pt	-11.2777
▁የቢራ	-11.2778
▁አውሎ	-11.2778
▁ብሎኛል	-11.2778
▁ከረ	-11.2778
▁ለህፃናት	-11.2779
▁ዲቪዝዮን	-11.278
▁አብራሪ	-11.2783
▁በሀሰተኛ	-11.2784
▁ከደረጃ	-11.2786
▁በህጉ	-11.2786
▁ሲጋራ	-11.2787
▁ፍሬህይወት	-11.2788
▁ጀምረው	-11.2789
▁የእርሻና	-11.279
▁ከባንክ	-11.2791
ራር	-11.2791
le	-11.2796
▁302012	-11.2801
▁ቀይረው	-11.2803
▁ከታህሳስ	-11.2804
▁ፍትሀዊና	-11.2808
▁አጥፍቶ	-11.2808
▁የኢቦላ	-11.2808
▁አድራሻ	-11.2811
▁በጠቅላላው	-11.2816
▁የሩጫ	-11.2817
ጄኔቫ	-11.282
▁ከልማት	-11.2832
ማሀበረሰቡ	-11.2836
▁የሚፈጥሩ	-11.2837
▁የሚያጋጥሙ	-11.2839
▁ተገልጿልየ	-11.2841
▁በምርት	-11.2842
ወር	-11.2843
▁የራሷን	-11.2845
▁የሚባሉት	-11.2846
▁የምትለው	-11.2852
▁ለከተማ	-11.2853
ዋንግ	-11.2857
ቆይ	-11.2858
▁የአበባ	-11.2866
▁የሚደርሰው	-11.2867
▁መድረሳቸው	-11.2867
▁የፌዴራሉ	-11.2867
▁የማእዘን	-11.2869
▁ነውከዚህ	-11.2872
▁ይሄው	-11.2875
▁አሜ	-11.288
▁የታሰሩት	-11.288
▁የሰዎችን	-11.2881
▁የታቀደው	-11.2882
ገበታ	-11.2882
occer	-11.2882
▁ፍንጭ	-11.2882
▁ትናገራለች	-11.2882
▁ለማስቀመጥ	-11.2883
▁መቅረፍ	-11.2883
የአክሲዮን	-11.2883
▁እንዳስላሴ	-11.2884
▁ማቲያስ	-11.2884
▁እንዲደርሱ	-11.2884
▁የማይተካ	-11.2884
▁ነውይህ	-11.2885
▁ለመገምገም	-11.2885
▁duel	-11.2885
▁የስለላ	-11.2885
▁እንዲከፍል	-11.2885
ነስ	-11.2887
▁ጥልቀት	-11.2888
▁የኪነጥበብ	-11.2888
▁ኑ	-11.2889
▁ኬላዎች	-11.289
▁ተጋባዥ	-11.2891
▁ለመሬት	-11.2891
ዎን	-11.2891
▁የሚያደርጋቸው	-11.2892
▁የነፍስ	-11.2895
▁ዩኔስኮ	-11.2896
▁የኒውክሌር	-11.2897
▁ትምህርትና	-11.2898
▁አምበሉ	-11.2899
▁በመግደል	-11.2901
▁ክለባቸው	-11.2902
ሹመት	-11.2904
▁የትኛውንም	-11.2906
ዋት	-11.2906
ሊቦል	-11.2907
▁በዋለው	-11.2908
▁ጥቅማቸው	-11.2909
▁ዳኞችን	-11.291
▁የቦሌ	-11.291
▁ትህነግ	-11.2911
▁ወላጅ	-11.2912
በአሜሪካ	-11.2912
▁ተመኝተዋል	-11.2913
▁የሚጀምረው	-11.2914
▁የታሰበው	-11.2915
▁የታችኛው	-11.2916
▁ፕር	-11.2917
▁መቀመጫዎች	-11.2919
▁ብቸኛዋ	-11.292
▁ለመሆኑ	-11.2924
▁መገለፁን	-11.2927
▁በጅምላ	-11.2929
▁የአምናው	-11.2929
ከኢትዮጵያ	-11.2929
▁ከፍለው	-11.2932
88	-11.2936
▁አስረኛ	-11.2936
▁የተሰበሰበው	-11.2936
▁የተሻማው	-11.2936
▁በፓርላማ	-11.2942
▁የማምረቻ	-11.2943
▁በአድዋ	-11.2945
▁የተካተቱ	-11.2947
▁የስጋ	-11.2948
ፓናል	-11.2949
▁መቀመጡን	-11.2955
ወጣቶቹ	-11.2956
▁በእኔ	-11.2957
▁አገዳ	-11.2962
▁መንደሮች	-11.2964
▁ፊልሞች	-11.2965
▁ማግኘታቸው	-11.2969
▁ወዲያ	-11.2971
▁ለፍፃሜ	-11.2974
▁ልጆቻቸው	-11.2975
▁ትግሉ	-11.2981
▁ከአንደኛ	-11.2983
ሪያድ	-11.2985
▁እንዲስፋፋ	-11.2985
ቶችን	-11.2985
▁የግንባታው	-11.2988
▁ከወልዋሎ	-11.2988
የግብፅ	-11.2988
83	-11.2993
▁ምሁራንና	-11.2995
▁ማዘውተሪያ	-11.2995
በጋዜጣው	-11.2996
▁ጥያቄያቸውን	-11.2996
▁በሚኒስትር	-11.3
▁የቀሩ	-11.3002
▁አዜብ	-11.3003
▁ቢሞክርም	-11.3003
▁fans	-11.3003
▁እንዲጎለብት	-11.3003
▁እንደምትፈልግ	-11.3004
▁እንዲጫወቱ	-11.3004
▁የእርምት	-11.3005
▁ፀድቆ	-11.3005
▁ጳጳስ	-11.3005
▁በምትኩ	-11.3005
▁የወደብ	-11.3005
▁በመቅረብ	-11.3006
▁ተመን	-11.3006
▁ካቴድራል	-11.3006
▁አልሆነም	-11.3007
▁እየተከታተለ	-11.3007
▁አለመሆን	-11.3007
▁አልነበሩም	-11.3007
▁ፈታህ	-11.3008
▁አውጥተው	-11.3008
▁ለማፍረስ	-11.301
▁ድንበሮች	-11.3011
▁እለታዊ	-11.3011
▁ማንዴላ	-11.3013
▁ያቀናው	-11.3013
▁እንደሚሰጣቸው	-11.3014
▁ሰንሰለት	-11.3014
▁የመምራት	-11.3015
▁ሚሊዬ	-11.3017
▁እየተነሳ	-11.3017
▁የዘይት	-11.3019
▁ከራሱ	-11.302
▁እንደነበራቸው	-11.3021
▁የሚሉትን	-11.3021
▁ኦፕሬሽን	-11.3021
▁መፅሀፉ	-11.3022
ዳሽን	-11.3023
▁የብአዴን	-11.3023
▁እገዳው	-11.3024
▁ስቃይ	-11.3026
ልኛል	-11.3026
▁የኢትዮጵያዊያን	-11.3028
▁ምኞታቸውን	-11.303
▁መስፈርቱን	-11.303
▁የተገደሉት	-11.303
▁በሚገኙበት	-11.3032
▁የፈጠሩት	-11.3032
▁ከቀረቡት	-11.3034
▁212012	-11.3037
▁so	-11.3037
▁የአደጋው	-11.3043
▁በተሽከርካሪ	-11.3049
▁ለግንባታው	-11.305
ሁት	-11.3053
▁የተሻል	-11.3057
▁ዜጎችም	-11.3057
▁ናሙናዎች	-11.3061
በበአሉ	-11.3062
▁ያልታወቀ	-11.3067
▁ደሞ	-11.3067
▁ከአስራ	-11.3068
▁ምግቦች	-11.3069
▁በድጋፍ	-11.307
▁ላሉት	-11.3075
ነባር	-11.3077
▁ከተመሰረተ	-11.3085
▁ጀ	-11.3089
▁ቅር	-11.309
ሰንበት	-11.3092
▁የብሪታንያ	-11.3092
ድል	-11.3092
▁ካለፈ	-11.3093
▁በደቡባዊ	-11.3098
ከእነዚህ	-11.3098
▁433	-11.3098
▁አስታ	-11.3099
ዊው	-11.3102
▁እየተከታተሉ	-11.3102
▁የሚገመቱ	-11.3102
▁የጀመሩትን	-11.3104
ቀደመው	-11.3105
▁ገዢው	-11.3106
▁የተካሄዱ	-11.3107
▁የተቆጠሩ	-11.3107
l	-11.3107
▁ይቅር	-11.3111
▁ሰራዊቱን	-11.3113
74	-11.3114
▁ማሳለፉን	-11.3116
▁ከሚሰሩ	-11.3119
▁እድልን	-11.3121
አፍሪካ	-11.3123
▁በባለቤትነት	-11.3125
▁ይወሰዳል	-11.3125
▁ለመምከር	-11.3125
▁ተሰርቷል	-11.3125
▁ማስተዋወቅ	-11.3125
▁አድኖበታል	-11.3125
▁ማርክነህ	-11.3125
▁ኳሷ	-11.3125
▁አሟልተው	-11.3125
▁ራይትስ	-11.3126
▁የሚበረታታ	-11.3126
▁የሚደግፍ	-11.3126
▁አሻድ	-11.3126
▁ተርሚናል	-11.3126
▁እፈልጋለው	-11.3127
▁ሳይቆይ	-11.3127
▁ሊሰጡ	-11.3127
▁ኮሌጆች	-11.3128
ualifier	-11.3128
▁ለምግብ	-11.3129
▁እንደሚደረጉ	-11.3129
▁የሚገልፀው	-11.3129
▁በመጠናቀቅ	-11.3129
▁ባዛር	-11.313
▁የከተማውን	-11.313
▁በግ	-11.313
▁እንደሚጠይቅ	-11.3131
▁ወዳጆች	-11.3131
▁የሚጠቅም	-11.3132
▁ኢንስትራክተር	-11.3132
▁ድረገፆች	-11.3132
▁ማበርከት	-11.3132
▁በመገኘታቸው	-11.3133
ጌትነት	-11.3133
▁በጥቁር	-11.3133
▁ሙክታር	-11.3135
▁ግዛቸው	-11.3135
ሰአታት	-11.3136
▁ካትሪን	-11.3137
▁ስምንቱ	-11.3139
▁በህብረት	-11.3139
▁የየመን	-11.3139
▁ጉድጓድ	-11.3139
▁ለአገራቸው	-11.3139
▁ጨ	-11.3141
ገኘነው	-11.3141
▁አሉላ	-11.3142
▁ከእውነት	-11.3143
▁ነፃነትን	-11.3144
ሰላም	-11.3144
▁መሾማቸውን	-11.3144
▁በድህነት	-11.3145
▁ቴክኒካል	-11.3146
▁ተግባራዊነት	-11.3148
▁የሌለ	-11.315
▁የከፈቱት	-11.3151
▁በትእግስት	-11.3153
▁ሴካፋ	-11.3158
▁ገልፀዋልየኢትዮጵያ	-11.3158
▁የሰራዊቱ	-11.3159
▁አለምን	-11.3159
▁ወዲያው	-11.316
▁ማይክል	-11.3161
ies	-11.3162
▁አልጄርያ	-11.3162
▁የፈረሙት	-11.3163
▁82012	-11.3165
▁ማከናወኑን	-11.3166
በአንፃሩ	-11.317
▁ፖሊሲና	-11.3174
▁የማሀበሩ	-11.3174
▁የክልልነት	-11.3176
▁መልሰው	-11.3176
▁የኮንጎ	-11.3178
▁ለምለም	-11.3178
▁የመላ	-11.318
▁መዋል	-11.3184
አማኑኤል	-11.3185
▁ሀርነ	-11.3185
▁ለነበሩ	-11.3185
▁man	-11.3188
ለዚህ	-11.3189
ዝምታ	-11.3193
▁ጠብ	-11.3194
ያቸውን	-11.3197
▁ያወጣ	-11.3198
▁ከፋ	-11.3199
▁መሰ	-11.3201
▁የታቀደ	-11.3202
▁ልና	-11.3202
▁በአንደኛው	-11.3204
▁የሚያቀርቡ	-11.3205
ችሎቱ	-11.3205
▁የሯንዳ	-11.3206
▁ፈቃደኞች	-11.3208
▁105	-11.3215
▁የቡሩንዲ	-11.3215
ወሩ	-11.3219
▁ድልድሉ	-11.3221
▁ድርድሩን	-11.3221
▁የአዋሽ	-11.3225
▁የቃል	-11.3226
▁የተጣለው	-11.3228
▁የሚስተዋለው	-11.3228
▁በአራተኛ	-11.3229
▁ሮድ	-11.323
▁ስድስቱ	-11.3231
▁በወቅቱም	-11.3233
▁የሀገሪቷ	-11.3234
▁መሰጠቱ	-11.3235
▁አቅርቦቱ	-11.3235
▁መስመሩን	-11.3236
▁ምዝገባና	-11.3241
▁ገዳዎች	-11.3243
▁ወዳድ	-11.3244
ሯቸው	-11.3244
▁አዋጆችን	-11.3244
▁ተደራሽነትን	-11.3246
▁ያለብን	-11.3246
▁ማነቆ	-11.3246
▁ብለውታል	-11.3247
▁አማካሪዎች	-11.3248
▁እሸቴ	-11.3248
▁አስተሳሰቦች	-11.3248
▁ተቃውሟቸውን	-11.3248
▁ፎፋና	-11.3248
▁እንዳልሆኑ	-11.3248
▁በመጠባበቅ	-11.3249
▁መፃኢ	-11.3249
▁ስታደርግ	-11.3249
▁የማልማት	-11.3249
▁ሊያደርስ	-11.325
▁ባልታወቀ	-11.325
▁ጭካኔ	-11.325
▁ዘረፋ	-11.325
▁ወርቃማ	-11.3251
▁ራማፎሳ	-11.3251
▁ሊወስድ	-11.3251
▁ፍቅረየሱስ	-11.3252
▁ደራርቱ	-11.3253
▁ለእስር	-11.3254
▁ሲሞክር	-11.3254
▁ትብብሩ	-11.3254
▁ከዚ	-11.3254
▁በይበልጥ	-11.3255
▁በማስተካከል	-11.3255
▁እግሩ	-11.3256
▁የማዘጋጀት	-11.3256
▁ሚሳኤል	-11.3257
▁ደጀን	-11.3257
▁ማስፈረም	-11.3258
▁እንዲጫወት	-11.3258
▁ምክትላቸው	-11.3258
▁ከገንዘብ	-11.3258
▁ማስተዋል	-11.3258
▁en	-11.3259
▁አካሄዱ	-11.3259
▁ከጋዜጠኞች	-11.326
▁በሀረር	-11.3261
▁በሚካሄዱ	-11.3261
▁ከዩጋንዳ	-11.3261
▁ተዘዋዋሪ	-11.3263
▁ሴንትራል	-11.3263
▁መፈጠር	-11.3263
▁የሰሩት	-11.3264
▁ጊቤ	-11.3264
▁የብዙሀን	-11.3265
▁ለተፈጠረው	-11.3265
▁ሳይኖር	-11.3267
▁ዋሊድ	-11.3268
▁ከሞቱት	-11.3272
▁ፏ	-11.3275
▁ስታደ	-11.3275
▁ባሌ	-11.3276
▁ጎዳናዎች	-11.3277
▁በባቡር	-11.3277
▁ደግ	-11.328
▁አይሻ	-11.328
ካሁን	-11.328
▁ከፈረንሳይ	-11.3284
▁ሜቴክ	-11.3285
▁መብታቸውን	-11.3285
▁የአሸናፊነት	-11.3286
▁ዳሰሳ	-11.3288
▁ፓርቲዎችን	-11.3288
ቲቭ	-11.329
▁ከየት	-11.3293
▁የሚከበረውን	-11.3295
▁ሮማን	-11.3295
ኖቹ	-11.3296
▁other	-11.3299
▁በአባልነት	-11.3299
ዋለች	-11.33
▁የአል	-11.3303
▁ካደረጉት	-11.3304
▁ውዝ	-11.3306
▁ማመልከቻ	-11.3309
ኢፌዲሪ	-11.331
▁አወዛጋቢ	-11.3315
diya	-11.3318
▁የነበረባቸው	-11.3319
▁ከከተማው	-11.3321
▁ጉዳተኞችን	-11.3321
▁አስተባባሪዎች	-11.3322
▁እዛ	-11.3324
▁ታላቁን	-11.3327
▁ብሄርን	-11.3331
▁የሚገነቡ	-11.3331
▁መመዝገቡን	-11.3331
▁ደጋፊው	-11.3334
▁ህብረተሰቡም	-11.3336
የቻይና	-11.3338
ቀጣዩ	-11.3339
ሲዳማ	-11.3341
▁ተደራዳሪ	-11.3344
▁ማስረጃዎችን	-11.3345
▁የሰውነት	-11.3345
▁ደሴት	-11.3346
▁ቁም	-11.3347
ፈፀመው	-11.3347
▁ካልሆኑ	-11.3348
▁የሚወክሉ	-11.335
▁ተገኘ	-11.3352
▁የሚያቀርብ	-11.3359
▁ሄ	-11.336
▁መድረኮችን	-11.3361
▁ጉብኝታቸው	-11.3363
▁መስፈርቶችን	-11.3363
▁ማንነታቸው	-11.3366
▁ለአንድነት	-11.3367
▁point	-11.3369
▁ቢራን	-11.3371
▁እንዲሉ	-11.3373
▁ገምግሟል	-11.3373
▁እንጠይቃለን	-11.3373
▁የምንችለው	-11.3373
▁ፍቅሬ	-11.3373
▁ሰብስቦ	-11.3373
▁አስመላሽ	-11.3373
▁ተጫውተዋል	-11.3373
▁ንዋያቸውን	-11.3374
is	-11.3374
▁ኤሚሬቶች	-11.3375
▁ጌትስ	-11.3376
▁ተቀምጠው	-11.3376
▁የሚያስፈልግ	-11.3377
በረከት	-11.3378
▁ዳኘው	-11.3378
▁የተጠየቁት	-11.3378
▁መመዝገብ	-11.3379
▁ልማድ	-11.3379
በታሪክ	-11.3379
▁ጆሴፍ	-11.338
▁የምፈልገው	-11.3381
ትላንት	-11.3381
▁በአማርኛ	-11.3382
▁EFF	-11.3383
▁የብረት	-11.3383
▁ወከፍ	-11.3384
▁በአረንጓዴ	-11.3384
▁ፌስቡክ	-11.3384
▁ሰማይ	-11.3385
▁ያረጋገጡት	-11.3386
ከተላቸው	-11.3386
▁አሰሳ	-11.3386
▁ለአካል	-11.3387
▁የጉልበት	-11.3387
▁ከወትሮው	-11.3387
▁ቶላ	-11.3388
▁ለኮቪድ	-11.3389
▁ፋሲሎች	-11.3391
▁የቆሙ	-11.3392
▁282012	-11.3392
▁ለማድረግና	-11.3392
▁የእዳ	-11.3393
▁የጥናትና	-11.3393
▁መከናወናቸውን	-11.3395
▁አባስ	-11.3395
86	-11.3397
▁የተቻለ	-11.3398
▁እውነታዎች	-11.3399
▁ያነሳው	-11.3401
▁2000	-11.3401
▁ኦህዴድ	-11.3401
▁ቀረ	-11.3404
▁ፍቤት	-11.3405
▁በሀገሪቷ	-11.3406
▁ተጠልለ	-11.3406
▁የወሰዱት	-11.3406
▁ጊዜያቸው	-11.3406
▁92012	-11.3407
▁ፕሬዚደንቱ	-11.3408
▁በወልዲያ	-11.3412
▁በአገራቸው	-11.3414
በለጠ	-11.3415
▁ለሙከራ	-11.342
▁G	-11.3421
ያሬድ	-11.3422
▁የሽያጭ	-11.3422
▁ቢሉ	-11.3423
የአሁኑ	-11.3426
▁ድሮ	-11.3429
▁የተከሰተ	-11.3431
▁በሌላው	-11.3431
▁ብድርና	-11.3432
▁ለፕሮጀክቱ	-11.3432
ሌሊቱ	-11.3435
▁ታማሚ	-11.3437
▁የመጨረሻዎቹ	-11.3438
ማስረከብ	-11.3444
▁እየገፋ	-11.3446
▁አዎ	-11.3446
▁የሚሆንበት	-11.3447
ince	-11.3448
▁ማስታወቃቸውን	-11.3448
አአ	-11.3452
▁ኤሌክትሪክን	-11.3452
▁ተናግረዋልእንደ	-11.346
▁የመንገዱ	-11.346
▁again	-11.346
▁የሚኒስቴር	-11.346
▁ኩባንያዎቹ	-11.3461
▁አህመድን	-11.3465
▁እርካታ	-11.3466
▁አካሉ	-11.3468
▁ደካሞች	-11.3468
▁እንዳሉም	-11.347
▁ጋራ	-11.347
▁መፈጠሩ	-11.3471
▁እየሄደ	-11.3472
ኢንስቲትዩቱ	-11.3472
▁አስተማሪ	-11.3474
▁ከሚገኝ	-11.3477
▁ገቡ	-11.3477
▁ኬላ	-11.3479
▁መከበሩ	-11.3479
▁ዲኤታው	-11.348
▁አራ	-11.3481
▁አዳም	-11.3482
▁ተብሏልከዚህ	-11.3482
▁በሚሰሩ	-11.3484
▁መርሆዎች	-11.3484
▁140	-11.3487
▁የታመሙ	-11.3487
ኢትዮ	-11.3488
▁የማስተዋወቅ	-11.3489
▁በእርሻ	-11.349
መረጥ	-11.3491
ታለች	-11.3492
▁አሳታፊ	-11.3493
ድጋሚ	-11.3496
▁ካርታው	-11.3497
የው	-11.3498
የአካባቢው	-11.3499
▁ስልጣንና	-11.3499
▁effort	-11.35
▁ሞገዶቹ	-11.35
▁አይታወቅም	-11.35
▁ተከስቷል	-11.35
▁ተፈናቅለዋል	-11.35
▁ማበረታቻ	-11.35
▁ደበሌ	-11.35
▁ተጠናቅቆ	-11.3501
▁ተቆጥበዋል	-11.3502
▁ከፋና	-11.3502
▁በማስተላለፍ	-11.3502
▁ላለመውረድ	-11.3503
▁በስተያ	-11.3503
▁አጣብቂኝ	-11.3503
▁ተቀናጅተው	-11.3504
▁ለማፅደቅ	-11.3504
▁Adane	-11.3504
▁ለማሳለፍ	-11.3505
አህጉሪቱ	-11.3505
▁ኤምሬትስ	-11.3505
▁ቤንጃሚን	-11.3505
▁የሚጠበቀውን	-11.3506
▁ፍራንስ	-11.3506
▁ሪከርድ	-11.3506
▁በፃፈው	-11.3507
▁ጠሚኒስትሩ	-11.3508
▁በሚችሉበት	-11.3509
▁ኦስማን	-11.3509
▁የመደመር	-11.351
ግለሰቡ	-11.351
▁ለብቻ	-11.3511
▁የመታሰቢያ	-11.3512
▁ክፍለከተማ	-11.3513
▁ሙላት	-11.3514
▁ካባ	-11.3514
▁ማስወገጃ	-11.3515
▁በኮንስትራክሽን	-11.3515
▁ተሸከርካሪዎች	-11.3517
▁ይነሳል	-11.3517
▁ማዘጋጃ	-11.3518
▁ከውሳኔ	-11.3518
▁በቤተሰብ	-11.3519
እስራኤል	-11.352
▁አልኮል	-11.352
▁በቀሩት	-11.3521
ለያዩ	-11.3522
▁ገለፁጠቅላይ	-11.3526
ሚደረገው	-11.3526
▁ከቻሉ	-11.3528
▁ያህሉን	-11.3529
▁ህዝብም	-11.3531
▁የትህነግ	-11.3533
▁አውጪ	-11.3533
▁ያስከተለው	-11.3535
▁ተፈናቃዮችን	-11.3535
▁ያገ	-11.3539
▁ሰናይት	-11.3543
▁ባለሀብቶቹ	-11.3544
▁እንዳት	-11.3545
▁ከወጪ	-11.3552
የዚህ	-11.3559
▁ማህበረሰቡን	-11.3561
ቪዥን	-11.3562
▁ማእከላትን	-11.3564
ጉን	-11.3567
▁ጁላ	-11.3568
▁የፐብሊክ	-11.3568
የውሀ	-11.3569
▁እያስ	-11.3571
▁የቀረበላቸው	-11.3575
▁ወንጀሉን	-11.3576
▁ያልቻሉ	-11.358
▁የሚችሉትን	-11.3582
ችል	-11.3583
የወቅቱ	-11.3588
▁አዟል	-11.359
▁ቺ	-11.3592
▁መዋቅሮች	-11.3596
▁በከፋ	-11.3596
ቧ	-11.3602
▁ፖሊስን	-11.3604
▁የተቀዛቀዘ	-11.3604
▁የሚሄድ	-11.3604
ቀጣዮቹ	-11.3604
ቂያ	-11.3605
ሚሰጠው	-11.3608
▁የተላለፈው	-11.3618
▁መቁሰላቸውን	-11.3624
▁ሚናቸውን	-11.3625
▁አካታች	-11.3627
▁መንከባከብ	-11.3627
▁double	-11.3628
▁ተጉዘው	-11.3628
▁አውስተው	-11.3628
▁የለብንም	-11.3628
▁ገደቦች	-11.3628
▁አቅዷል	-11.3628
▁የተጋነነ	-11.3628
▁ተጠይቀው	-11.3629
▁እንደሚደግፍ	-11.3629
▁የአትክልት	-11.3629
▁አዘል	-11.363
▁የሚናገረው	-11.363
▁ኒውዮርክ	-11.363
▁ኢንስቲቲዩት	-11.3631
▁ደምሰው	-11.3631
▁መራዘም	-11.3631
▁መሙላት	-11.3631
▁በመመስረት	-11.3631
▁በማግስቱ	-11.3632
▁range	-11.3632
▁ተቀማጭ	-11.3633
▁የሚወጣ	-11.3633
▁ፈፃሚዎች	-11.3633
ዊያኑ	-11.3635
▁በፍትሀዊነት	-11.3635
▁ሜዲካል	-11.3635
▁በፕሬዚዳንትነት	-11.3635
▁ክብካቤ	-11.3636
▁ስላላቸው	-11.3636
▁ሳይደረግ	-11.3638
▁የተረከቡት	-11.3638
▁ንጥረ	-11.3639
▁በግሌ	-11.364
▁ሳሚ	-11.364
▁መገመት	-11.3641
▁ባደረጉበት	-11.3641
▁የጋዜጠኝነት	-11.3641
▁ሼ	-11.3642
▁በተከናወነው	-11.3643
▁ህክምናውን	-11.3644
▁ተፈፃሚነት	-11.3645
▁በተሰጣቸው	-11.3645
▁በእድገት	-11.3645
▁ቴ	-11.3651
ህብረቱ	-11.3652
▁የቀጠናው	-11.3652
▁ሀቅ	-11.3653
▁በአምላክ	-11.3654
▁ፈሳሽ	-11.3654
▁በጊዜያዊ	-11.3654
▁252012	-11.3656
▁አለባት	-11.3657
▁አድርጎናል	-11.3659
▁አፍራሽ	-11.3659
▁መንገደኞችን	-11.366
69	-11.3661
▁ለችሎቱ	-11.3662
ous	-11.3663
▁የአርቲስት	-11.3663
ቂ	-11.3665
▁የፓርቲውን	-11.3666
▁ወጪው	-11.3674
▁ተመርጧል	-11.3674
ተውጣጡ	-11.3677
▁ኬኒያ	-11.3677
Kidus	-11.3679
▁ራሴን	-11.3688
aw	-11.3688
▁እንደዚሁም	-11.3689
▁52012	-11.369
▁ያረጋገጠ	-11.369
▁ቤንች	-11.3691
ሚሊየን	-11.3696
▁በተሰራ	-11.3697
▁ጠቁመዋልአዲስ	-11.3698
▁እንደገባ	-11.3708
▁ኢድ	-11.3709
▁ገልፀዋልጠቅላይ	-11.3711
▁መረጃውን	-11.3711
▁ከዋናው	-11.3717
120	-11.3722
ችሎት	-11.3727
▁የተወሰዱ	-11.3728
▁ዲሪ	-11.373
ሾ	-11.373
ተያዙት	-11.3732
▁ቅኝ	-11.3733
▁ተከላካዮችን	-11.3736
▁መዳረሻዎች	-11.3743
▁ለዛሬ	-11.3745
በጠቅላይ	-11.3745
▁ህዝባችን	-11.3745
▁መደረጋቸውን	-11.3746
▁መቋረጡ	-11.3747
▁ሀላ	-11.3748
▁ለመኖር	-11.375
▁ትራንስፖርትና	-11.3751
ሪፍ	-11.3751
▁ልማቱን	-11.3757
▁ተሰብስቦ	-11.3758
▁ይመለሳሉ	-11.3758
▁አይመስለኝም	-11.3758
▁ለማመንጨት	-11.3758
▁relegation	-11.3758
▁ትቀጥላለች	-11.3758
▁የለባቸውም	-11.3758
▁አመቻችቶ	-11.3758
▁Bira	-11.3758
▁የሚሸፈን	-11.3758
▁እንዲያገለግሉ	-11.3759
▁እንዲዘጉ	-11.3759
▁ማጠናቀቂያ	-11.376
▁አዘጋጆች	-11.376
▁በአይነት	-11.3761
▁ሲጓዝ	-11.3761
▁ለመገኘት	-11.3761
▁አጥብቀ	-11.3761
▁ይመስል	-11.3761
▁እንደሚመለሱ	-11.3762
▁መፈታት	-11.3763
▁table	-11.3763
▁በአስመራ	-11.3763
▁ኪሮስ	-11.3763
▁የበለፀገች	-11.3764
▁አይመስልም	-11.3765
ጁ	-11.3765
▁ባስከተለ	-11.3766
▁በራሷ	-11.3766
▁እየተስተዋለ	-11.3767
▁ተጠቅማ	-11.3767
▁የሀ	-11.3767
▁በመቻሉ	-11.3768
E	-11.3768
▁ሞቃዲሾ	-11.3769
▁1200	-11.377
▁ጎበና	-11.377
▁ቲለርሰን	-11.3773
▁እንዲደረግላቸው	-11.3775
▁አበባታህሳስ	-11.3776
▁ከአርባምንጭ	-11.378
▁በግለሰቦች	-11.378
▁የግንባሩ	-11.3781
▁ፀብ	-11.3784
▁ሜዳውን	-11.3785
▁ለአየር	-11.3786
▁ንግድን	-11.3786
▁የመንግስቱ	-11.3791
የኮሚሽኑ	-11.3791
▁ሀይልን	-11.3792
▁አስቴር	-11.3793
ሀር	-11.3794
▁አልማ	-11.3794
▁ምንድን	-11.3797
▁ኖርዌይ	-11.3799
▁ማቋረጥ	-11.38
▁የመነጨ	-11.3801
▁የሉም	-11.3802
▁ትንታኔ	-11.3804
እኔ	-11.3804
▁ጎበኙ	-11.3805
ሳጥኑ	-11.3808
▁ተጋጣሚያቸው	-11.3808
▁የሚታይበት	-11.381
አህመድ	-11.3813
▁ፖለቲከኛ	-11.3814
ተጠናቀው	-11.3816
▁ለጨዋታ	-11.3816
ማህበሩ	-11.3823
▁ከአመታት	-11.3823
▁አልፈዋል	-11.3826
▁የሆነች	-11.3826
▁ከህብረቱ	-11.3826
▁ቱ	-11.3827
▁ካደረገው	-11.3828
▁መብቶችን	-11.383
▁በጠቅላላ	-11.3831
▁ማካሄዱን	-11.3831
▁ሳይደርስ	-11.3832
ሄድ	-11.3835
▁በእግርኳስ	-11.3838
▁ስራዎችም	-11.3839
▁ፈተናዎችን	-11.384
▁መወሰናቸውን	-11.384
▁በቦርዱ	-11.3841
▁ስምንተኛ	-11.3842
▁የጠየቁ	-11.3844
▁አሰልጣኙን	-11.3846
▁12012	-11.3846
▁ነበርበ	-11.3847
እያንዳንዱ	-11.3847
▁በኢህአዴግ	-11.3852
▁ትርክት	-11.3853
▁ባደረጉ	-11.3856
▁ፖሊሲው	-11.3858
▁ባልተለመደ	-11.3859
▁ንግዱ	-11.3861
▁ያዘጋጁት	-11.3862
ደርስ	-11.3862
▁አባወራዎች	-11.3862
▁ደጋፊዎቻቸው	-11.3864
ሰለፍ	-11.3866
ስህተት	-11.3868
ኬንያ	-11.3869
ወቅ	-11.3871
▁ደሀ	-11.3872
▁የይቅርታ	-11.3874
ዮች	-11.3875
ሰኞ	-11.3877
▁ከብቶች	-11.388
▁የበሽታ	-11.3882
▁የሚጀምር	-11.3883
▁የችግሩን	-11.3884
▁finish	-11.3887
▁ገበያውን	-11.3888
▁በኮሚሽኑ	-11.3889
▁ይገለፃል	-11.389
▁ዶላሩ	-11.389
▁ምድቦች	-11.389
▁ሾሟል	-11.389
▁ጠፍቷል	-11.389
▁በተረጋጋ	-11.389
▁ሰይፈ	-11.389
▁በድምር	-11.389
▁ቪዲዮ	-11.389
▁ሙፈሪሀት	-11.389
▁ሲቪሎች	-11.3891
▁ኮንፍረንስ	-11.3891
▁Bekele	-11.3891
▁መጠይቅ	-11.3892
▁እንዲጀምሩ	-11.3892
▁የዳሰሳ	-11.3892
▁እንደሚያምኑ	-11.3892
▁ሊኖራቸው	-11.3892
▁እንደሚያስፈልጋቸው	-11.3892
▁ኤክስቴንሽን	-11.3893
▁Samuel	-11.3893
▁የጣሰ	-11.3893
▁አለበል	-11.3893
▁forward	-11.3894
ከቅርብ	-11.3895
▁ግማሹ	-11.3895
▁ክንውን	-11.3895
▁የጤፍ	-11.3896
▁ለመንቀሳቀስ	-11.3897
▁አፍሪካዊቷ	-11.3897
▁ባለችበት	-11.3898
very	-11.3898
0800	-11.3899
▁መሰረቱ	-11.3899
▁አሌክስ	-11.39
▁ሲችል	-11.39
▁የታዳጊዎች	-11.39
▁የሀገራት	-11.3901
▁እንደደረሰባቸው	-11.3901
▁እንደሚያገኝ	-11.3903
ጣቸው	-11.3903
▁የድንጋይ	-11.3904
▁አይሮፕላን	-11.3904
ወሰዱት	-11.3907
▁ከዘጠኝ	-11.3907
▁ስለጉዳዩ	-11.3908
▁ሰለባዎች	-11.391
▁አቅማችን	-11.391
▁ከእቅዱ	-11.3911
▁የፈተና	-11.3911
ቀረበለት	-11.3913
ሷ	-11.3913
▁ቁ	-11.3913
▁ያልቻለው	-11.3916
▁ግዳጅ	-11.3918
▁ግጥም	-11.3919
ገን	-11.3919
▁ደሙ	-11.392
▁አልሚዎች	-11.3921
▁መዋጮ	-11.3922
▁የፀደቀው	-11.3922
ህገ	-11.3923
▁ማስታወሻ	-11.3926
▁የአቻነ	-11.3926
▁ያሸነፈው	-11.3926
▁ከግድቡ	-11.3928
▁ኮድ	-11.3929
ከተ	-11.3929
▁የሚነሳ	-11.3933
ንዲ	-11.3939
▁ፓስፖርት	-11.394
ኢህአዴግ	-11.3941
▁ደንብና	-11.3945
▁ለሰላምና	-11.3951
▁የተጠቀሰው	-11.3953
መሀመድ	-11.3954
▁ያለችውን	-11.3956
ጠናቀቅ	-11.3961
▁ከኢራን	-11.3963
▁የቀጠለ	-11.3964
በአዲሱ	-11.3967
▁አነስተኛና	-11.397
▁መድሀኒቶችን	-11.3974
▁ወደግብ	-11.3976
▁የአገራቱ	-11.3979
▁set	-11.398
▁አስመርቋል	-11.3982
▁የሚያስከትለውን	-11.3983
ኘ	-11.3984
▁አይነቱን	-11.3984
▁የተጨማሪ	-11.3985
ኞ	-11.3988
ጪ	-11.3991
ግለሰቦቹ	-11.3991
▁ኖቶች	-11.3995
ተለመደው	-11.3997
▁ቀደምት	-11.3997
▁የሚመጣውን	-11.3999
▁ማዜምቤ	-11.4001
▁ልጆቹ	-11.4002
▁ባጫ	-11.4004
▁ደር	-11.4005
ለይ	-11.4007
▁የሚወስደው	-11.4015
▁የማእከሉ	-11.4016
▁ታውቋልየ	-11.4019
▁እንዲወሰድ	-11.402
ሚያዚያ	-11.402
ርስ	-11.402
▁እርባታ	-11.4022
ወንጀሉ	-11.4022
▁SC	-11.4022
▁እያሳለፈ	-11.4023
▁ተቀራርበው	-11.4023
▁እየተዘጋጁ	-11.4023
▁የተጣራ	-11.4024
▁ሰብሮ	-11.4024
▁ይካሄድ	-11.4024
▁እንዲሰረዝ	-11.4024
▁በዋነኛነት	-11.4024
▁በአፅንኦት	-11.4025
▁እየተመለሱ	-11.4025
▁ክፍያው	-11.4025
▁ክርስቲያኗ	-11.4026
▁ሎጂስቲክስ	-11.4026
▁እንዲለቁ	-11.4027
▁መጠቀሚያ	-11.4027
▁ሽብሩ	-11.4027
▁ባሳየው	-11.4027
▁ከመግለፅ	-11.4028
▁የስነልቦና	-11.4028
▁እየተጫወቱ	-11.403
▁በማፅደቅ	-11.403
▁የዱር	-11.4031
▁ከምንጊዜውም	-11.4031
▁አስጊ	-11.4032
▁ውድቀት	-11.4032
▁ሄለን	-11.4033
▁በትናትና	-11.4033
ኒያ	-11.4033
▁በዳኝነት	-11.4033
▁ብቃቱን	-11.4033
▁የማረጋጋት	-11.4033
▁ለሀብረተሰቡ	-11.4034
▁ተመስርቶባቸው	-11.4034
▁በተነሳ	-11.4034
▁ብሩንዲ	-11.4035
▁ማከፋፈያ	-11.4035
▁አካቶ	-11.4036
▁በተያዘላቸው	-11.4036
ህዝቦች	-11.4037
▁ከሌሎቹ	-11.4038
▁ትምህርቱን	-11.4038
▁በሚሊኒየም	-11.4039
▁በዩኔስኮ	-11.4039
▁የባለድርሻ	-11.4039
▁ፔትሮጀት	-11.404
▁እንየው	-11.4041
▁በአምቦ	-11.4041
▁በርግጥ	-11.4042
▁ያቀረበችው	-11.4042
▁ጭንብል	-11.4044
▁በማገዝ	-11.4045
▁መድፈር	-11.4045
▁በተጠቀሱት	-11.4045
▁ይፈታል	-11.4047
▁ድሬዷ	-11.4048
▁በሆነበት	-11.4048
▁የማስፈፀም	-11.4048
▁ርቀው	-11.4049
▁የድህነት	-11.4051
▁ፓኪስታን	-11.4052
▁ሉሲዎቹ	-11.4054
▁በተመድ	-11.4055
▁የኮ	-11.4056
▁ከለቀቀ	-11.4056
▁take	-11.4057
▁በስፖርታዊ	-11.4058
▁በትራፊክ	-11.4058
▁ኬንያዊው	-11.406
▁መፈንቅለ	-11.4061
ምህረት	-11.4062
▁ሲያዙ	-11.4064
▁በባለሙያዎች	-11.4065
▁152012	-11.4065
▁ካለባቸው	-11.4066
▁በውስጥ	-11.4066
ጌታነህ	-11.4066
▁ምስክሮችን	-11.4066
ሀያላን	-11.4067
▁በስራቸው	-11.4069
▁መናኸሪያ	-11.4072
▁እንደሚቀርቡ	-11.4072
▁በጉብኝታቸው	-11.4073
▁መመደቡን	-11.4076
ian	-11.4079
▁አለምቀፍ	-11.4079
▁መፀዳጃ	-11.4079
▁ፎረሙ	-11.4079
ላንድ	-11.408
ኢራን	-11.408
1999	-11.4081
▁የተሞላ	-11.4083
▁በአጥቂ	-11.4084
ካፍ	-11.4085
▁ከሰበታ	-11.4087
▁በሀገራዊ	-11.4087
ሚዎች	-11.4092
▁ፖ	-11.4092
ቻለው	-11.4092
▁አገራትን	-11.4092
▁ስብስቡ	-11.4093
▁እያካሄደች	-11.41
አዋሽ	-11.4101
▁ዳያስፖራው	-11.4106
ክልሉ	-11.4111
ምታስተናግደው	-11.4112
▁ፕሬዚዳንትነት	-11.4112
▁እንዳልነበረ	-11.4116
▁ጊ	-11.4117
▁ያለችበት	-11.4118
▁ዘጠነኛ	-11.4118
▁በውጤቱ	-11.4118
▁ኮሮናን	-11.4122
▁ጠቀሜታው	-11.4122
▁እለቱ	-11.4124
ተጫዋቹ	-11.4128
▁የተከሰቱ	-11.4129
▁መፍጠሩ	-11.4135
▁እየተሳተፈ	-11.4139
▁ዛፎች	-11.4139
▁ፖለቲካዊና	-11.4141
▁እያበረከተ	-11.4142
▁መፈፀሙ	-11.4144
ግድያው	-11.4144
የኬንያ	-11.4147
▁ቀንሷል	-11.4147
ኑን	-11.4148
▁የኬንያው	-11.4148
ቀውስ	-11.4153
▁እየመጣ	-11.4153
▁ማንደፍሮ	-11.4158
▁ተዘዋውሮ	-11.4158
▁ይካሄዳሉ	-11.4158
▁ሴሜንት	-11.4158
▁መምርያ	-11.4158
▁እናውቃለን	-11.4158
▁የዘለለ	-11.4158
▁ኪዩብ	-11.4158
▁ጨምሯል	-11.4158
▁በመርዳት	-11.4158
▁አድንቀው	-11.4158
▁ተመርቆ	-11.4158
▁ሳያደርጉ	-11.4159
▁የመልማት	-11.4159
▁እንደሚናገሩት	-11.4159
▁አያኖ	-11.4159
▁ሳይካሄድ	-11.416
▁አመለከቱ	-11.4161
▁ለዋሚኮ	-11.4161
▁አትቷል	-11.4161
▁አራፋት	-11.4162
▁መንበሩ	-11.4162
ታት	-11.4162
▁ሲካሄዱ	-11.4163
እና	-11.4164
▁ያደረጋቸው	-11.4164
▁የማይባል	-11.4165
▁በማኑፋክቸሪንግ	-11.4165
▁በመማር	-11.4165
▁በግላቸው	-11.4165
▁መለስተኛ	-11.4165
▁ሲያጠናቅቅ	-11.4165
▁ከነአን	-11.4165
▁ውጤታቸው	-11.4166
▁የኮርፖሬት	-11.4166
ld	-11.4167
▁የግንኙነት	-11.4167
▁አሰሪዎች	-11.4167
▁በድብቅ	-11.4168
▁ርቀቱ	-11.4168
▁አሰልጣኞችን	-11.4169
▁መቆየቱንም	-11.4171
▁ሲሄዱ	-11.4172
▁ግብፆች	-11.4173
▁ያቀበለው	-11.4173
▁ሰላማዊና	-11.4173
▁የኩላሊት	-11.4173
ምባ	-11.4176
በእለቱ	-11.4176
▁በማውገዝ	-11.4176
▁የተመጣጠነ	-11.4178
ሟ	-11.4178
ሲቪክ	-11.4182
▁በፕሮጀክቱ	-11.4182
▁ሙገርዋ	-11.4183
ያው	-11.4183
▁ሪክ	-11.4185
▁ለሚያደርጉት	-11.4187
▁ካገኙ	-11.419
▁በዩጋንዳ	-11.4191
ፈው	-11.4199
▁የማረሚያ	-11.42
▁ኒኮላ	-11.4202
▁የገባውን	-11.4207
▁ፓርኮችን	-11.421
▁ያረጋገጠው	-11.421
▁መፍትሄዎች	-11.4213
▁መርሀግብሩ	-11.4213
በትናንትናው	-11.4216
▁ከተባለው	-11.4217
▁450	-11.4219
▁በኳታር	-11.4219
ልክ	-11.4219
▁በረዳት	-11.4221
▁ሚኒስትርነት	-11.4222
ወሰዱ	-11.4223
▁03	-11.4223
▁ሁንዴሳን	-11.4227
ወንድወሰን	-11.4227
out	-11.4228
▁ከተመረጡ	-11.423
1994	-11.423
99	-11.4231
▁ረብሻ	-11.4233
▁ለቅዱስ	-11.4234
ደርግ	-11.4234
▁የሌላ	-11.4235
▁በዋጋ	-11.4237
▁ምርጫቸው	-11.4238
▁ከተገኙ	-11.4242
▁አምባቸው	-11.4242
▁ክፍያውን	-11.4246
▁ቡድናቸውን	-11.4251
ከሁለት	-11.4251
በዘንድሮው	-11.4253
ካፋ	-11.4255
▁ከምድብ	-11.4257
ዷ	-11.4257
▁የሚጠይቁ	-11.4257
▁የእነዚህ	-11.4261
▁የሚገኝበት	-11.4262
▁የኡጋንዳ	-11.4262
ጠቀስ	-11.4263
▁ህገመንግስቱን	-11.4263
▁ምህዳር	-11.4265
▁እያገኘ	-11.4267
▁እየተደረገበት	-11.4269
▁በእንግሊዝኛ	-11.4271
ይፋዊ	-11.4271
ታው	-11.4271
ድርድሩ	-11.4272
▁ፍርሀት	-11.4274
▁አርቲስቶች	-11.4276
▁ፈላጊዎች	-11.4276
▁ድርጅታቸው	-11.4278
ዎችና	-11.4279
▁መደመር	-11.428
▁ፍላጎታቸው	-11.4282
▁ሙያተኞች	-11.4283
▁ዘመቻዎች	-11.4285
▁መሾማቸው	-11.4285
▁በጥሬ	-11.4286
▁ሊኖሩ	-11.4288
▁124	-11.4291
▁fi	-11.4291
ነቷን	-11.4292
▁መርቷል	-11.4294
▁የነበረን	-11.4294
▁free	-11.4294
▁አሰራሩን	-11.4295
▁እንደሆን	-11.4295
▁ዋቁማ	-11.4295
▁ተቆጥረዋል	-11.4295
▁left	-11.4295
▁ተስማምተው	-11.4295
▁ካደረጋቸው	-11.4295
▁ግብረሀይል	-11.4295
▁ይሻላል	-11.4295
▁ሹራ	-11.4296
▁እንዲያከናውኑ	-11.4296
▁እንዳብራሩት	-11.4296
▁ተስማምቶ	-11.4296
ሪኮስት	-11.4297
▁ቁርኝት	-11.4297
▁አልችልም	-11.4297
ፋብሪካው	-11.4297
▁ኢስማኤል	-11.4298
▁ያደረጓቸው	-11.4298
▁ተበርክቶላቸዋል	-11.4298
▁ይሰጥ	-11.4299
▁ሲገልፅ	-11.4299
▁ሊታይ	-11.4299
▁የተሳሳቱ	-11.43
▁ከባንኩ	-11.4301
▁ሪፈራል	-11.4301
▁በፃፉት	-11.4301
▁መስራታቸውን	-11.4301
▁ሲያስቆጥሩ	-11.4302
ተኞች	-11.4302
▁የቅንጅት	-11.4302
ለቅ	-11.4302
▁ለመምጣት	-11.4302
▁በፖለቲካው	-11.4303
▁ማተሚያ	-11.4304
▁ቦሪስ	-11.4304
▁የሚነገረው	-11.4305
▁ዜጎቹ	-11.4305
▁ገዳይ	-11.4306
ወች	-11.4306
▁አብዱራህማ	-11.4307
ታሪፍ	-11.4308
▁የሚከሰተው	-11.4308
▁የአልኮል	-11.4308
▁ቢኖራቸውም	-11.4308
▁ሰማእታት	-11.4309
▁ብስራት	-11.4309
▁ያሰለጠናቸውን	-11.431
▁ሲሄድ	-11.431
▁ዉይይት	-11.431
▁በገለልተኛ	-11.431
▁ለከተማዋ	-11.4311
▁ግንኙነትን	-11.4313
▁መቀመጫቸውን	-11.4313
▁በናይሮቢ	-11.4313
▁አፍሪካዊያን	-11.4314
▁ከጂቡቲ	-11.4315
ችውን	-11.4315
▁ከሀብረተሰቡ	-11.4317
▁በመጣል	-11.4317
▁የሚያቀርበው	-11.4317
▁የተማረ	-11.4318
▁ቲቪ	-11.4318
መጀመርያዎቹ	-11.432
▁ፅ	-11.4321
▁በአቃቂ	-11.4323
▁ቻይናውያን	-11.4323
▁ኢሳ	-11.4324
▁መምጣታቸው	-11.4326
▁መቋረጡን	-11.4326
▁እንደሚያደርጉም	-11.4326
▁የገባችው	-11.4326
▁ካፋ	-11.4327
ቦርዱ	-11.4328
▁በቡራዩ	-11.4328
ፎቶ	-11.4328
▁ጌዲዮን	-11.433
▁ተቃውሞው	-11.4331
▁የዲፕሎማቲክ	-11.4332
▁ሀና	-11.4333
▁ደረጃዎችን	-11.4333
▁ካላት	-11.4334
▁የሆነበት	-11.4338
▁ኮን	-11.4339
▁እንደተደረገ	-11.434
ላለፉት	-11.4342
▁የፆታ	-11.4345
▁ኢትዮጵያዊነት	-11.4347
ድን	-11.4349
መዘገብ	-11.4349
▁ደብዳቤው	-11.435
▁የደርግ	-11.4353
▁በታህሳስ	-11.4354
▁ግቡ	-11.4359
▁ካሳለፈ	-11.4359
▁ብታ	-11.4361
በውድድሩ	-11.4363
▁ከእኔ	-11.4363
መንገዱ	-11.4367
ደስ	-11.4367
▁ከፍሎ	-11.437
ጠብቅ	-11.4371
የባለስልጣኑ	-11.4378
ውይይቱ	-11.4378
▁አስታውቀዋልአዲስ	-11.4378
▁የሚያገኙ	-11.4381
▁ዲዲ	-11.4381
በስምምነቱ	-11.4381
በተያዘው	-11.4385
▁የስም	-11.4385
▁ያለች	-11.4386
▁ጣሪያ	-11.4386
▁ከደረሰ	-11.4387
▁ጠባቂዋ	-11.4394
▁ፍላጎትና	-11.4397
▁አባልና	-11.4398
▁መሆናቸውንና	-11.44
▁የሚሄዱ	-11.4403
▁los	-11.4404
▁ሲጠቀሙ	-11.4405
▁ስፍራዎችን	-11.4406
▁ርእሶች	-11.4406
▁የሰለጠኑ	-11.4406
▁ተሞክሮዎችን	-11.4407
▁ፓትሪ	-11.4408
መረጡ	-11.441
w	-11.4411
▁አለመግባባቶች	-11.4415
▁መባሉ	-11.4416
ግንቦት	-11.4418
▁መምከራቸውን	-11.442
▁ነገሩን	-11.442
▁ጋዜጠኝነት	-11.4422
ያኑ	-11.4422
ሻሻሉ	-11.4423
▁የተቋማት	-11.4427
▁ዶሮ	-11.4429
▁መሪዎችን	-11.443
▁መጠየቁን	-11.4431
▁ፊርማቸው	-11.4433
▁አውቶቡስ	-11.4434
▁ገንብቶ	-11.4434
▁level	-11.4434
▁ኡጁሉ	-11.4434
▁አጣርቶ	-11.4434
▁እየተከሰተ	-11.4434
▁እያገለገሉ	-11.4434
▁እንዲያልፍ	-11.4434
ከው	-11.4434
▁ሶስቱን	-11.4435
▁like	-11.4435
▁ያማከለ	-11.4435
▁ኢድሪስ	-11.4435
▁የዚህን	-11.4435
▁ተርባይኖች	-11.4436
▁center	-11.4436
▁ባቀረቡበት	-11.4436
▁midfielder	-11.4436
▁እንዲጠየቁ	-11.4436
▁ማመስገን	-11.4437
▁ኬንያን	-11.4437
▁እንደሚመጡ	-11.4437
▁ለሚነሱ	-11.4437
▁የመቻቻል	-11.4437
▁አቅርቦታል	-11.4438
▁ያምናል	-11.4438
▁ተከሰው	-11.4439
▁ከፍያለው	-11.4439
▁ፔንስ	-11.4441
▁መንሸራተት	-11.4441
▁የክርስትና	-11.4441
▁ቆ	-11.4441
▁መሸፈን	-11.4443
▁የሞራል	-11.4443
▁በማመቻቸት	-11.4444
▁ዘይቤ	-11.4445
▁ለሌላቸው	-11.4445
ኢትዮጵያውያን	-11.4446
▁ማሰራጫ	-11.4446
▁አሰግድ	-11.4447
▁ማደስ	-11.4447
▁ሞዛምቢክ	-11.4448
▁ተቃራኒ	-11.4449
▁የሰራዊት	-11.4449
▁ብአዴን	-11.4451
▁በአእምሮ	-11.4451
▁በቴክኒክ	-11.4451
▁የሌለበት	-11.4451
▁በስደተኞች	-11.4452
▁የመንገደኞች	-11.4453
▁በትውልድ	-11.4453
▁Getaneh	-11.4454
▁170	-11.4456
▁ውጥን	-11.4456
▁በተጫዋቾች	-11.4456
▁ተመራቂዎች	-11.4457
▁230	-11.4457
መውረድ	-11.4458
▁በፀሎት	-11.4459
▁የመጫወቻ	-11.446
▁ተሽለ	-11.446
▁ቼክ	-11.4462
▁ዴኤታዋ	-11.4462
መጡበት	-11.4462
▁አሳሳቢነት	-11.4463
▁መተግበሪያ	-11.4464
▁ኑር	-11.4464
▁እየገለፀ	-11.4465
▁የኦህዴድ	-11.4465
▁ጠሚኒስትር	-11.4465
▁ሰብሎችን	-11.4466
▁በለስ	-11.4472
▁መክሯል	-11.4474
▁የተሰማራው	-11.4475
መቐለ	-11.4475
▁ግብፅን	-11.4477
▁አክብሮት	-11.4477
▁በተሰጠ	-11.4478
▁የተወካዮች	-11.4479
▁አካባቢዎችን	-11.448
ጠበቁ	-11.4481
▁እስረኞችን	-11.4484
▁d	-11.4484
▁አክራሪ	-11.4485
▁goalie	-11.4489
ዮሽ	-11.4497
ve	-11.4498
▁ባህርይ	-11.4502
▁የማሊ	-11.4504
▁ረቂቁ	-11.4507
▁አዋቂ	-11.4508
የቀድሞ	-11.4511
ውድድሩ	-11.4513
▁እንደቆየ	-11.4514
▁አላማም	-11.4519
▁ሰሜናዊ	-11.4519
ድፎ	-11.4522
አለምአቀፍ	-11.4527
በቃ	-11.453
▁ስለነበረ	-11.4533
በአደጋው	-11.4541
▁በማሰራጨት	-11.4545
▁ለዋንጫ	-11.4546
▁ስቶ	-11.4547
▁ባልሆኑ	-11.4551
ወልቂጤ	-11.4553
▁ሀላፊዎችን	-11.4553
▁መጀመሩንም	-11.4553
▁በስራው	-11.4554
▁በታዳጊ	-11.456
▁መወያየታቸው	-11.4571
▁ድህረ	-11.4573
▁ሉ	-11.4573
▁አብላጫ	-11.4574
▁return	-11.4575
▁እናቀርባለን	-11.4575
▁ይቀንሳል	-11.4575
▁ይመክራል	-11.4575
▁ለመታደም	-11.4575
▁ትችላለች	-11.4575
▁በማስተሳሰር	-11.4575
▁እንዳልነበር	-11.4575
▁የተጫወትነው	-11.4575
▁እናምናለን	-11.4575
▁ወልደማርያም	-11.4575
▁የሚያገናኝ	-11.4575
▁ኢሚሬቶች	-11.4575
▁ተቀላቅለው	-11.4576
ምታደርገው	-11.4577
▁ከቀያቸው	-11.4578
▁ባሰሙ	-11.4578
▁ሪፖርቱን	-11.4578
▁እንደተሰጣቸው	-11.4578
▁በሚፈቅደው	-11.4579
▁ሴኮንድ	-11.4579
▁በመጎብኘት	-11.4579
▁እንዲሄድ	-11.4579
▁ሌት	-11.4579
▁በእርዳታ	-11.4581
▁የሚሳኤል	-11.4581
▁ለሚመጡ	-11.4581
▁የቀረጥ	-11.4582
▁ለቤተሰቦቻቸው	-11.4583
▁በጡረታ	-11.4583
▁አጠናክረን	-11.4583
ሮይተርስ	-11.4583
▁በደን	-11.4585
▁ማብቃት	-11.4586
▁በአብሮነት	-11.4588
▁መምረጥ	-11.4588
▁በመንከባከብ	-11.4588
▁የስርአተ	-11.4588
▁ፍልሰት	-11.4588
▁የተወለዱት	-11.4589
▁መስማማት	-11.4589
▁የሚጀምሩ	-11.459
▁በማለትም	-11.459
▁በመሳሰሉት	-11.4591
▁መፍቻ	-11.4592
▁የኦሎምፒክ	-11.4592
▁ዳያስፖራዎች	-11.4592
▁ስፔስ	-11.4593
▁ወንድማገኝ	-11.4593
▁ካመራ	-11.4594
▁አዳሪ	-11.4594
▁የሚያካሂደው	-11.4595
▁ያላችሁ	-11.4595
▁ወርቅነሽ	-11.4596
▁የኢራቅ	-11.4597
▁ባደረሰ	-11.4597
▁ከፊታች	-11.4598
▁በታላቅ	-11.4599
▁በመጠን	-11.46
▁ዲን	-11.46
▁ድሉ	-11.4602
ታይ	-11.4603
▁ፍትሀዊነት	-11.4606
▁መቀበሉን	-11.4606
▁እንግዶቹ	-11.4607
አጭር	-11.4608
▁ርምጃዎች	-11.461
▁ሴንት	-11.4611
▁አስገድዶ	-11.4611
▁ማሳሰባቸውን	-11.4613
▁ሳሊ	-11.4618
▁ከእንግሊዝ	-11.4619
▁አሽከርካሪ	-11.4619
ስብ	-11.4622
አንዱ	-11.4622
▁እንደተጀመረ	-11.4623
▁ሰልፈኞቹ	-11.4624
▁ከስር	-11.4626
ቀረበላቸው	-11.4626
▁እንዲያደርጉም	-11.4629
re	-11.4631
▁በለውጥ	-11.4634
ሰበታ	-11.4635
▁ኢየሱስ	-11.4635
አደንዛዥ	-11.4639
ሚቀጥሉት	-11.464
መንት	-11.4642
▁የቀረበባቸው	-11.4642
▁make	-11.4643
▁ጥቆማዎች	-11.4645
▁መተላለፉን	-11.4645
▁በህዳር	-11.4646
▁ከሰኞ	-11.465
ever	-11.4653
▁160	-11.4655
▁ያደጉ	-11.4656
ስላሴ	-11.4657
ቀጣይ	-11.4663
አሰልጣኙ	-11.4664
▁Me	-11.4665
▁ያልጠበቀ	-11.4667
▁ፍላ	-11.4668
ህብረተሰቡ	-11.4669
ቤንሻንጉል	-11.4673
ብለዋል	-11.4681
▁መምህርና	-11.4683
▁የተላለፉ	-11.4684
▁ዋንኛ	-11.4688
▁ትራምፕን	-11.4688
የአ	-11.469
▁ገጥሞ	-11.4693
ወጣ	-11.4697
▁እህሎች	-11.4698
▁ኮንትራክተሮች	-11.4701
▁ተዳዳሪዎች	-11.4702
ሴቶች	-11.4705
▁ተገልጋዮች	-11.4707
▁እንድና	-11.4709
▁ጎብኝዎች	-11.471
▁ከጥቅም	-11.4711
▁የሚፈልገውን	-11.4713
▁የተከፈተው	-11.4713
▁strike	-11.4714
አጎናፍር	-11.4714
▁ማስፈረሙ	-11.4716
▁wide	-11.4718
▁ሙስጠፌ	-11.4718
▁በማፍራት	-11.4718
▁ነብያት	-11.4718
▁አገግሞ	-11.4718
▁ይይዛል	-11.4718
▁ያስታውሳሉ	-11.4718
▁አመኔታ	-11.4718
▁ነስሩ	-11.4718
▁የሚያገናኘው	-11.4718
▁እንዲከላከሉ	-11.4718
▁ለማረም	-11.4718
▁ገዝቶ	-11.4719
▁እንደሚጨምር	-11.4719
ሉት	-11.4719
▁ትምህርቱ	-11.472
▁የማደራጀት	-11.4721
▁Nations	-11.4722
▁ለማትረፍ	-11.4722
▁ለፌደራል	-11.4723
▁የመመርመር	-11.4723
▁ሬድዮ	-11.4724
▁የተጠቀሱት	-11.4724
▁ጀግንነት	-11.4724
▁ለሀገሩ	-11.4725
▁መማክርት	-11.4726
▁በኦሊምፒክ	-11.4726
▁የአስተሳሰብ	-11.4726
▁ለራሳቸው	-11.4726
▁የዳበረ	-11.4726
▁ቡድኔ	-11.4727
▁ረድኤት	-11.4727
▁መስጠታቸው	-11.4727
▁የዲዛይን	-11.4728
▁መጋዘን	-11.4729
ዳር	-11.473
▁ቂርቆስ	-11.4731
▁ጎጂ	-11.4733
▁ከሚባሉት	-11.4734
▁የተነሳም	-11.4734
▁ጃኮብ	-11.4736
▁ከምግብ	-11.4736
▁ከቡና	-11.4737
▁ጦርነቱ	-11.4738
▁ተጫዋቾቻችን	-11.4739
▁እየሩሳሌም	-11.4741
▁ፆታዊ	-11.4744
▁የጥሎ	-11.4744
▁ጣልያን	-11.4744
▁ዜናው	-11.4749
▁ታውቋልበ	-11.4753
ሽያጭ	-11.4754
ፏ	-11.4755
▁አቻው	-11.4755
▁በማስፈን	-11.4756
▁በለንደን	-11.4759
▁ጌታ	-11.476
▁በጎዳና	-11.4762
▁የትኛው	-11.4765
▁ይኖር	-11.4767
▁ተጠያቂነትን	-11.4769
▁መኖራቸውንም	-11.477
▁ባንክና	-11.477
▁ለሌላው	-11.4771
▁ፌደሬሽኑ	-11.4771
ኢቦላ	-11.4772
▁በህፃናት	-11.4774
▁ከህዳር	-11.4777
▁የምዝገባ	-11.4777
▁የፎቶ	-11.4777
▁በጎረቤት	-11.4779
▁ድርቁ	-11.4781
▁የሚጀመር	-11.4782
FT	-11.4783
▁ሀያል	-11.4783
▁የሚካሄድበት	-11.4784
ኤፍሬም	-11.4784
▁ከአደጋ	-11.4784
ዜጎች	-11.4785
▁ከቻለ	-11.4786
▁ለውጥን	-11.4786
እአአ	-11.4787
▁እንደሚያቀርቡ	-11.4788
▁ከሶስቱ	-11.4789
▁ስለማይ	-11.4789
ቦንብ	-11.4789
▁በጣና	-11.4792
ቀመጥ	-11.4792
▁ያንግ	-11.4792
▁32012	-11.4795
ባቸዉ	-11.4798
▁የትግራይን	-11.4799
▁እንደሚጠበቅበት	-11.4799
▁ምህዳሩን	-11.4801
▁ያቀፈ	-11.4803
▁የባሰ	-11.4803
▁ባለሞያ	-11.4804
▁0800	-11.4805
▁መሰናዶ	-11.4808
▁ባለሀብቶችና	-11.4809
▁እንደማይቀር	-11.4811
▁ዘመናትን	-11.4811
▁ሰላሙን	-11.4813
▁ጅማዎች	-11.4814
▁ወጣቱን	-11.4815
▁የተገደሉ	-11.4818
▁ከወረርሽኙ	-11.4819
▁የተወከሉ	-11.482
▁የተቀመጡት	-11.482
▁የሚሰራበት	-11.4821
▁በምት	-11.4821
ዬር	-11.4822
▁የንቅናቄ	-11.4823
▁ፅሁፎችን	-11.4823
▁ሬክ	-11.4824
▁ስፖርተኞችን	-11.4825
▁re	-11.4827
▁የተጀመሩት	-11.483
▁እስያ	-11.4833
▁አስታውቀዋልበ	-11.4834
ሱሌይማን	-11.4843
▁ኩባንያዎችን	-11.4848
▁ጉድለቶች	-11.4848
▁ፍሰቱ	-11.4848
▁ትንተና	-11.4849
▁ቲፒ	-11.4851
በአንድ	-11.4851
▁መርከቦች	-11.4852
▁ኮንትሮባንድ	-11.4856
▁ተፈፅሞ	-11.4856
▁ተዘግቶ	-11.4857
▁የተላከ	-11.4857
▁እንዳልቀረ	-11.4859
▁ይመለሳል	-11.4862
▁ያስፈልጋቸዋል	-11.4863
▁አድርጌ	-11.4863
▁እንደመሆኗ	-11.4863
▁ኪዳነማርያም	-11.4863
▁መካካል	-11.4863
▁አግኝታለች	-11.4863
▁ባለማግኘቱ	-11.4863
▁አከናውነዋል	-11.4863
▁በመለወጥ	-11.4863
▁ውስንነቶች	-11.4863
▁international	-11.4863
▁ወጥተናል	-11.4863
▁ካደገ	-11.4863
▁መወያየት	-11.4864
▁ሲያገኙ	-11.4864
▁አጥተው	-11.4865
▁ተገኑ	-11.4865
▁የፈጠሩ	-11.4866
▁ወረርሺኝ	-11.4866
▁ማስቻል	-11.4866
▁መኝታ	-11.4866
▁አዛውንት	-11.4867
▁ማውጣቱን	-11.4867
▁ካምፓላ	-11.4867
▁አገሩ	-11.4868
▁ተጠይቋል	-11.4868
▁ጂራ	-11.4869
▁አጠር	-11.4869
▁ኤዶም	-11.4871
▁ተጠሪነቱ	-11.4872
▁ያሸነፉት	-11.4872
▁ከአርባ	-11.4872
▁ቡሀሪ	-11.4872
▁ላሳዩ	-11.4872
ሰራ	-11.4874
▁የደጋፊዎች	-11.4874
ስልጠናው	-11.4874
▁በስታዲየሙ	-11.4876
ችግሩ	-11.4876
▁ዛንዚባር	-11.4877
▁የምንፈልገው	-11.4877
ፓርቲዎቹ	-11.4877
▁ቡልቻ	-11.4877
▁በኢራቅ	-11.4877
▁ሁለተኛዋ	-11.4878
ንፁሀን	-11.4878
▁ስብሀት	-11.4879
▁ከራሳቸው	-11.488
▁ስቴ	-11.488
▁በኡጋንዳ	-11.488
▁አስመጪዎች	-11.4881
ግጭቱ	-11.4881
▁አባገዳዎች	-11.4881
▁ብዙነህ	-11.4881
▁የአልሻባብ	-11.4881
▁የዳቦ	-11.4882
▁በሰለጠነ	-11.4883
▁ፋብሪካዎችን	-11.4883
▁መመረጥ	-11.4885
▁ብዝሀነት	-11.4887
▁ማመን	-11.4889
▁ቄራ	-11.4892
▁በእርሳቸው	-11.4893
▁ማህበራቱ	-11.4894
▁P	-11.4896
▁give	-11.4896
▁አስተባባሪው	-11.4897
▁የጎረቤት	-11.4898
▁መነሻው	-11.4902
▁የሰአት	-11.4905
▁ነውየኢትዮጵያ	-11.4905
▁ለሁለቱም	-11.4906
▁በተሰኘው	-11.4906
▁እየተወያዩ	-11.4906
▁በጀቱ	-11.4907
▁መብትን	-11.4907
▁ሊቀመንበርና	-11.4907
▁ማረፊያውን	-11.4907
▁እያስመዘገበች	-11.4911
በሀገር	-11.4911
▁ሽህ	-11.4913
▁ጠረ	-11.4916
የከፍተኛ	-11.4916
▁በየካ	-11.4918
▁ዱባይ	-11.4918
▁የወልድያ	-11.4922
▁ተሳታፊዎቹ	-11.4928
▁የፋብሪካው	-11.4929
ረት	-11.493
ፕሬዚዳንቷ	-11.4931
እስክንድር	-11.4932
▁ብልፅግናን	-11.4936
▁ሰላምታ	-11.4937
▁ዘላቂነት	-11.4937
መወያያ	-11.4938
▁12011	-11.4941
▁አለፈ	-11.4942
ሁለቱም	-11.4943
▁የሚመ	-11.4943
ሳተፍ	-11.4943
▁በላቸው	-11.4944
▁በወልቂጤ	-11.4947
ደም	-11.4949
▁አህጉሪቱ	-11.4953
▁ደጋፊዎችን	-11.4954
▁ሽረን	-11.4954
▁አኑሯል	-11.4955
ነቀል	-11.4957
▁አንፃርም	-11.496
▁ምስጋናውን	-11.4967
አመታት	-11.4971
የህግ	-11.4975
▁መነሳቱን	-11.4978
▁ለፓርላማ	-11.4981
ፈቱ	-11.4981
▁ዘግበዋል	-11.4984
▁የሚፈፅሙ	-11.4988
▁የሚከታተል	-11.4989
▁ያጠናቀቁ	-11.4989
▁ደንበኛ	-11.499
ጠባበቁ	-11.4991
▁ተዋናዮች	-11.4991
ተመዘገበው	-11.4992
▁አደጋዎችን	-11.4995
▁አዋጭ	-11.4998
▁ግምቱ	-11.4998
▁ቢልዮ	-11.5
▁የመካከለኛ	-11.5
oin	-11.5002
▁የእናቶችና	-11.5002
▁ብቃቱ	-11.5002
▁አልጋዎች	-11.5003
▁መሬቶች	-11.5004
▁እጁ	-11.5004
መርማሪ	-11.5005
▁ይሰሩ	-11.5006
▁እምነታቸው	-11.5007
▁ታሪካቸው	-11.5008
▁ሸረፋ	-11.501
▁World	-11.501
▁በሌሉበት	-11.501
▁አውቶሞቲቭ	-11.501
▁እወዳለሁ	-11.501
▁ደቻሳ	-11.501
▁my	-11.501
▁ስውራን	-11.501
▁ባልደረቦች	-11.501
▁አልፈልግም	-11.501
▁አቅንቶ	-11.501
▁ካምፖች	-11.501
▁መሀከል	-11.501
▁ለማሳወቅ	-11.501
▁መቅጫ	-11.501
▁ስላልሆነ	-11.501
▁ሳያገኝ	-11.501
▁የማጠናከር	-11.501
▁እምነቶች	-11.501
▁pull	-11.5011
▁አይተናል	-11.5012
▁አመስግነው	-11.5012
▁ለማደራጀት	-11.5012
▁ማቃሳ	-11.5013
▁አወጣጥ	-11.5013
▁ድካም	-11.5013
▁ተክለብርሀን	-11.5014
▁የኮሚኒኬሽን	-11.5015
▁FIFA	-11.5015
▁ለዝግጅት	-11.5016
▁ከድርጊታቸው	-11.5016
▁እያየ	-11.5016
▁ጄምስ	-11.5016
▁ሲታወቅ	-11.5016
▁በሰከነ	-11.5017
▁ሰራዊታችን	-11.5017
▁ያወጡት	-11.5018
▁መደሰታቸውን	-11.5018
▁የሞተር	-11.5019
▁የሚወሰዱ	-11.5019
ሜዳችን	-11.5019
▁የመስራች	-11.5019
▁ካሊድ	-11.502
ተፈለገው	-11.5021
▁ሳውዲ	-11.5021
▁የመተንፈሻ	-11.5022
▁ቀኙ	-11.5022
▁የቅባት	-11.5022
f	-11.5023
▁በተከሰቱ	-11.5024
▁የተላከው	-11.5024
▁ለማከም	-11.5024
▁የፀሎት	-11.5024
▁የማስበው	-11.5025
▁ጥቅል	-11.5026
▁እንደሚኖርባቸው	-11.5028
ፋቂ	-11.5028
▁ካስ	-11.5029
▁ሳይቶች	-11.503
▁ማተኮር	-11.503
▁ከአቅም	-11.5032
▁ሰርተን	-11.5033
▁ቢገባ	-11.5033
ኩል	-11.5033
▁መፍትሄው	-11.5034
▁ግንባታዎችን	-11.5036
▁መድሀኔ	-11.5037
▁እሳቱ	-11.5038
▁በናይጄሪያ	-11.5041
▁በሚገቡ	-11.5042
▁እፀገነት	-11.5046
▁ታዛቢ	-11.5049
▁ለከተማው	-11.505
▁የሀገራችንን	-11.5054
▁ስኬታማነት	-11.5056
▁09	-11.5059
▁የሀዲያ	-11.5061
▁በተማሪዎች	-11.5061
▁የገቡትን	-11.5065
▁ፈጣሪዎች	-11.5067
ባር	-11.5068
▁ምህንድስና	-11.5068
▁ኮልፌ	-11.5071
▁በሰአት	-11.5074
አጥቂዎች	-11.5076
▁42012	-11.5077
▁ከታላቁ	-11.5077
▁ቅሬታውን	-11.5078
▁ከአሰልጣኙ	-11.508
ጄነራል	-11.508
▁ተናግረዋልአቶ	-11.5081
ቸውም	-11.5087
▁በጥቅም	-11.5094
▁በስልጠና	-11.5097
▁የተሀድሶ	-11.51
▁ተስፈኛ	-11.51
▁የተማሪ	-11.5101
▁ተቀን	-11.5101
▁በማድረግና	-11.5102
ሞች	-11.5102
▁ስለነበሩ	-11.5105
▁ፍቅረ	-11.5105
ኳ	-11.5107
መስከረም	-11.511
▁መግለጫቸው	-11.5112
▁የማይችሉ	-11.5112
▁አመ	-11.5113
▁በሀ	-11.5114
▁የጂቡቲ	-11.5117
▁ሙሉውን	-11.5119
▁አድር	-11.5126
መረጃው	-11.5126
▁ከሰል	-11.5129
▁ስማቸውን	-11.5129
▁ማናቸውም	-11.513
ላቸውን	-11.5132
87	-11.5135
▁no	-11.5135
▁ከተሞችን	-11.5136
▁ስብእና	-11.5136
አዋጁ	-11.5136
ባታል	-11.5137
▁አመራርነት	-11.5138
▁ባንድ	-11.514
▁የአማራና	-11.514
▁ምርመራዎች	-11.514
▁ብለዋልጠቅላይ	-11.514
▁al	-11.5141
በውጭ	-11.5143
▁የታ	-11.5144
▁ስለማ	-11.5145
▁አርሶአደሮች	-11.5145
▁ሼዶች	-11.5146
ሜዳቸው	-11.5147
▁የኤች	-11.5149
▁ባንዲራ	-11.515
▁የጠራ	-11.515
▁ዉሳኔ	-11.5152
▁የመሳሪያ	-11.5152
▁ከቆዩ	-11.5153
▁ጨፌ	-11.5154
▁ሰራተኛና	-11.5154
▁miss	-11.5154
▁ካርዶች	-11.5155
▁የተሻ	-11.5156
ታሰበው	-11.5156
▁ሲፈፀም	-11.5157
▁year	-11.5157
ማል	-11.5157
▁መስፈን	-11.5158
▁ሰባቱ	-11.5158
▁ኤታማ	-11.5158
▁ተመዝግቦ	-11.5159
▁could	-11.5159
▁አንበርብር	-11.5159
▁ይፈልጋሉ	-11.5159
▁ጊዚያት	-11.5159
▁ተዘግተው	-11.5159
▁የሺዋስ	-11.5159
▁ይወስዳል	-11.5159
▁አድርጓታል	-11.5159
▁ተወያይተዋልበውይይታቸው	-11.5159
▁ባጠቃላይ	-11.516
▁አወሉ	-11.516
▁አቀማመጥ	-11.5161
▁እንዳስረዱት	-11.5161
▁የሚኖራቸው	-11.5161
▁ድምር	-11.5161
▁መተባበር	-11.5162
▁የይዞታ	-11.5162
▁በአትሌቲክስ	-11.5162
▁ሲሞቱ	-11.5162
▁እንዲንቀሳቀሱ	-11.5162
▁ያሳረፈው	-11.5162
▁ለመመርመር	-11.5163
▁ተደርጎባቸዋል	-11.5163
▁ስፔሻላይዝድ	-11.5163
▁ማደራጀት	-11.5164
▁የከባድ	-11.5164
▁ለሚያስፈልጋቸው	-11.5165
▁በታማኝነት	-11.5165
▁ሊሰጣቸው	-11.5165
▁ዘመዶቻቸው	-11.5166
▁የሚነገርለት	-11.5166
▁መዘገቡ	-11.5167
▁ጓንት	-11.5169
▁የመደራጀት	-11.5169
▁በቅኝ	-11.5169
▁ከቤተሰቦቻቸው	-11.517
▁ሀምሊን	-11.517
▁ልጆቻችን	-11.517
▁በማደስ	-11.5171
▁ከስልጣናቸው	-11.5171
▁በኩታ	-11.5171
▁ማራዘም	-11.5172
▁መሆኗንም	-11.5174
የሰሜን	-11.5175
▁ግሪክ	-11.5175
ረቂቁ	-11.5175
▁በዴሞክራሲ	-11.5175
▁አዋቂዎች	-11.5176
▁ኬሪያ	-11.5177
▁ለደረሰው	-11.5177
▁የቀላል	-11.5177
▁ፍሬዘር	-11.5178
▁ሳዲቅ	-11.5179
▁ቃልኪዳን	-11.518
▁አሸባሪዎች	-11.518
▁በእምነት	-11.518
ኖር	-11.518
▁በሆቴል	-11.5183
▁ከቤተሰብ	-11.5183
▁የተደረገባቸው	-11.5184
ባቸውም	-11.5184
▁Sunday	-11.5185
ኢንተርናሽናል	-11.5188
▁የዘርፉን	-11.5192
▁ሲሸልስ	-11.5193
▁አስተዳደርን	-11.5194
▁በፌዴሬሽን	-11.5194
▁የነገው	-11.5196
▁ያስር	-11.5196
ግል	-11.5197
▁ድሀ	-11.52
▁302011	-11.52
rs	-11.5202
ጎል	-11.5205
▁ሴፍቲኔት	-11.5207
▁ቢባል	-11.521
ቀል	-11.521
አዳዲስ	-11.5211
ግርማ	-11.5215
▁አመልክተዋልአዲስ	-11.5216
▁እንደሚመጣ	-11.5218
▁የመሳሰሉትን	-11.522
ክል	-11.522
ልት	-11.5221
▁ገልፀዋልይህ	-11.5222
▁ከሞላ	-11.5222
▁ፅንፈኛው	-11.5223
▁ሲኤንኤን	-11.5223
▁ከተያዘው	-11.5225
ሳካ	-11.5225
▁መሰብሰቢያ	-11.5227
▁በዱባይ	-11.5228
▁አገባ	-11.5229
ስብስቡ	-11.5232
1983	-11.5234
ላቸውም	-11.5235
ሶስቱ	-11.5236
▁ስታር	-11.524
ጨርስ	-11.5246
▁እንዲረዳ	-11.525
▁ሚናውን	-11.5251
▁የጥቃት	-11.5251
▁በታችኛው	-11.5252
▁ስለሌለ	-11.5254
▁ከውይይቱ	-11.5255
▁ጓደኛ	-11.5262
ሜዳ	-11.5263
▁ብና	-11.5272
▁ማረፊያው	-11.5273
▁ለጉዳት	-11.5276
ue	-11.5276
▁ቀዳሚዋ	-11.528
▁አለማችን	-11.528
▁በዘመቻ	-11.5281
▁የተጠናቀቁ	-11.5287
▁ዝርያዎችን	-11.5287
▁ተልእኮውን	-11.5294
አቸውን	-11.5297
▁ትቶ	-11.5298
▁የአዲሱ	-11.5298
▁ስልኮች	-11.5298
▁ኤክስ	-11.5299
▁ታጋዮች	-11.5303
▁ትምህርቶች	-11.5304
▁ሽልማቶች	-11.5306
▁በሳይንስና	-11.5306
▁ማሳደጊያ	-11.5308
▁እንዲፀድቅ	-11.5308
ሁለት	-11.5309
▁መስራታቸው	-11.531
ረን	-11.531
▁ታደርጋለች	-11.531
▁outfit	-11.531
niversity	-11.531
▁ቅመም	-11.531
▁ለማሰልጠን	-11.531
▁አክብረው	-11.531
▁ለይተው	-11.5311
▁መጥተዋል	-11.5311
▁ያምናሉ	-11.5311
▁ሳይቆጠር	-11.5311
▁ፈቺ	-11.5311
▁እየተመሩ	-11.5312
▁እየሰፋ	-11.5312
▁በመሳብ	-11.5312
▁ተሻሽሎ	-11.5312
▁ረሂማ	-11.5312
ንጎ	-11.5312
▁got	-11.5313
▁ሊጨምር	-11.5314
▁አሰልቺ	-11.5314
▁አውጥቶታል	-11.5314
▁የማበረታቻ	-11.5316
▁ሱዳናውያን	-11.5316
▁መከፋፈል	-11.5316
▁ሊያደርገው	-11.5317
▁ፓትርያርክ	-11.5317
▁በመዋጋት	-11.5318
▁ከእነሱ	-11.5319
▁ፖምፒዮ	-11.5319
▁የምታገኘው	-11.532
▁የፍልሰት	-11.5321
▁ለውሀ	-11.5321
▁ከሚያ	-11.5321
▁በምጣኔ	-11.5322
▁ከገበያ	-11.5323
▁መካነ	-11.5324
▁ቴሌቭዥን	-11.5325
▁part	-11.5325
▁ጓደኞቹ	-11.5325
▁የፀዳ	-11.5325
▁የቅሬታ	-11.5325
▁የኮሪያ	-11.5326
▁ለመንገድ	-11.5327
▁የእናቶች	-11.5328
ሞት	-11.533
▁ልምድና	-11.533
ኢቢሲ	-11.5333
ity	-11.5334
▁በእጣ	-11.5334
▁ከመጠቀም	-11.5335
▁አበርክቶ	-11.5335
▁የዛፍ	-11.5335
▁ግምታ	-11.5336
ልቅ	-11.5337
▁እንደሚታወቀው	-11.5337
▁do	-11.5339
▁ከምእራብ	-11.534
▁የህዋ	-11.5341
ሰሩ	-11.5343
▁ፎርብስ	-11.5344
▁ሳላህ	-11.5344
▁ሲገኙ	-11.5344
▁ማዘዣ	-11.5345
▁በሊዝ	-11.5345
▁በማህበረሰቡ	-11.5346
▁እንዳለባት	-11.5346
▁በማእከሉ	-11.5346
▁ለቦርዱ	-11.5347
▁እየፈጠሩ	-11.5347
▁የሳምንቱ	-11.5349
▁እንደሚኖራቸው	-11.535
▁ሀገራችንን	-11.5351
▁በመቶዎቹ	-11.5355
መድ	-11.5357
▁የተነሱት	-11.5357
የኤጀንሲው	-11.5359
▁የቢቢሲ	-11.5359
▁ተከታዩ	-11.5359
▁ከስፖርት	-11.5359
ch	-11.536
▁ከቱርክ	-11.5361
▁አስተዳዳሪዎች	-11.5363
▁እንዳላ	-11.5364
▁ቤተሰቡን	-11.5365
ምረቃ	-11.5366
▁በመጡ	-11.5367
▁ሚኒስትሮቹ	-11.5367
▁ምድቡ	-11.5372
▁ከሊጉ	-11.5376
▁አባይን	-11.5381
▁ሂላ	-11.5383
▁የተደረጉት	-11.5385
▁ሲዳማዎች	-11.5385
09	-11.5387
ለቁ	-11.5387
አስቻለው	-11.5387
▁ባለፀጋ	-11.5387
▁ከወረዳ	-11.5388
light	-11.5389
መፅሀፉ	-11.5392
▁ወንጀለኛ	-11.5398
▁ቤታቸውን	-11.54
▁ግንብ	-11.54
▁በምታደርገው	-11.5402
ከት	-11.5407
ስታ	-11.5408
▁ከፍቶ	-11.5409
ፊክ	-11.5409
▁ትብብርና	-11.541
▁አቋማቸውን	-11.5414
▁ነጋዴው	-11.5418
▁መገናኛዎች	-11.5427
▁ሞያ	-11.5431
▁ዳና	-11.5435
into	-11.5437
92	-11.5438
▁የሚወዳደሩ	-11.544
▁በፀጋ	-11.5441
▁Daw	-11.5445
▁የሚከፈል	-11.5445
89	-11.5446
ሳት	-11.5448
ቨር	-11.5453
▁እንዳልሆነም	-11.5458
▁ne	-11.5458
▁ተቆጣጥረው	-11.5463
▁መርቀው	-11.5464
▁ፕሮ	-11.5464
▁በድጋ	-11.5464
▁ይጠቅሳሉ	-11.5464
▁ተረክበዋል	-11.5464
▁ደኤታ	-11.5464
▁መርዳሳ	-11.5464
▁ተዘጋጅተው	-11.5464
▁የመፍታት	-11.5464
▁ይከተላሉ	-11.5464
▁በመምከር	-11.5464
▁ተመዝግበዋል	-11.5464
▁ብናልፍ	-11.5464
uad	-11.5464
▁ቢያገኙ	-11.5465
▁የውሀና	-11.5465
▁እየተወሰዱ	-11.5466
▁ማውጣቱ	-11.5466
▁እንዲሄዱ	-11.5466
▁ሊፈጥር	-11.5467
▁ማኑፋክቸሪንግ	-11.5467
▁በሚሊዮን	-11.5468
▁ዩኒየኖች	-11.5469
▁ቁፋሮ	-11.5469
እምቦጭ	-11.5469
▁work	-11.5469
▁እንዲሳካ	-11.5469
▁ሲረጋገጥ	-11.5469
ብል	-11.547
▁ወልዱ	-11.547
▁ፈቃደኝነት	-11.547
▁እንደሚጫወት	-11.5471
▁የመሳተፍ	-11.5471
▁ለማምለጥ	-11.5471
▁ትእግስቱ	-11.5471
በአሰልጣኝ	-11.5472
▁የሚገቡት	-11.5472
▁መዝሙር	-11.5472
▁ሊገቡ	-11.5472
▁እየተመዘገበ	-11.5472
▁ከቤኒሻንጉል	-11.5473
▁Mekel	-11.5473
▁ሲንጋፖር	-11.5474
▁የምናየው	-11.5474
▁ሲፈፅም	-11.5475
▁ዜሮ	-11.5476
ተጠናቀቀ	-11.5476
▁መግለጫዎች	-11.5477
▁መልእክቱ	-11.5477
▁አግሮ	-11.5477
▁በማረም	-11.5478
▁በድንቅ	-11.5478
▁ተራሮች	-11.5478
▁ዶሀ	-11.5478
▁አልሚ	-11.5478
▁ቢያድግ	-11.5479
▁አውስኮድ	-11.5479
▁የአቅርቦት	-11.5479
▁ተክቶ	-11.548
▁በማጥናት	-11.548
▁ወባ	-11.548
▁ለተጫዋቾቹ	-11.5481
▁ተመልካቾች	-11.5481
▁መካተት	-11.5483
▁መፈለግ	-11.5483
▁ተደርጎበት	-11.5483
▁እንቅስቃሴያቸው	-11.5484
▁አቦ	-11.5485
▁teams	-11.5487
▁በግፍ	-11.5487
▁በማተኮር	-11.5488
▁ቅሬታዎችን	-11.5488
▁ገደቡ	-11.5489
▁የሚጠይቀው	-11.5489
ምንጭቢቢሲ	-11.549
▁ቶክ	-11.5491
▁በቋንቋ	-11.5491
▁የአሰልጣኝነት	-11.5491
▁ተወ	-11.5491
▁ፎ	-11.5491
▁እየፈፀሙ	-11.5493
▁መመዝገባቸውን	-11.5493
▁ነዋይ	-11.5493
▁ቴክኖሎጂው	-11.5493
▁እንቅስቃሴውን	-11.5494
▁አደራዳሪነት	-11.5494
ፍት	-11.5495
▁ለሀገራዊ	-11.5495
▁ሹመቱ	-11.5495
▁ያልቻሉት	-11.5495
▁ከመጪው	-11.5496
▁የወሰዱ	-11.55
▁ከፍተው	-11.5501
ወሮ	-11.5502
▁ሰነዱን	-11.5503
▁winner	-11.5503
ኤምባሲው	-11.5504
▁በማጋለጥ	-11.5505
▁የሩብ	-11.5507
▁ስዊድን	-11.5509
▁ተፈፀመ	-11.5511
▁በሴካፋ	-11.5513
▁እንዲመሰረት	-11.5514
▁በድሉ	-11.5516
ክቡር	-11.5516
▁ትስስርን	-11.5518
▁አፈና	-11.5522
▁የራስን	-11.5525
▁መን	-11.5526
▁እንደሚሰጥም	-11.5528
▁ወረርሽን	-11.5531
▁ለምርጫው	-11.5538
▁ለሀዋሳ	-11.5538
ኮሚሽነሩ	-11.5539
ጣለው	-11.5539
▁የነበረች	-11.5541
ሳሙኤል	-11.5542
ብሄረሰብ	-11.5545
▁109	-11.5549
▁አንድነቱን	-11.5549
▁መድረኩን	-11.5551
የፕሮጀክቱ	-11.5552
▁ቢስማር	-11.5553
ማንኛውም	-11.5553
▁አባላቱን	-11.5554
በቻይና	-11.5555
▁ብለዋልበዚህ	-11.5558
▁ሀብረተሰቡን	-11.5561
▁ወሩ	-11.5563
▁ከተወያየ	-11.5563
▁የሰ	-11.5566
▁ዢ	-11.5573
▁መውጣታቸውን	-11.5574
▁የሚያደርሰውን	-11.5575
▁የተውጣጣ	-11.558
ነበሩበት	-11.5581
▁ደረጃቸው	-11.5584
▁የፓርኩ	-11.5585
▁የሚሆኑበት	-11.5586
▁የፋይናንስና	-11.5586
▁የኖረው	-11.5589
▁113	-11.5589
▁የህመም	-11.559
▁የአስራ	-11.5591
▁እንጀራ	-11.5595
▁አስታወቀበ	-11.5597
መርሀ	-11.56
▁የተቋቋሙ	-11.5601
84	-11.5601
▁የዩጋንዳ	-11.5603
ዳርግ	-11.5607
▁በረሀ	-11.5608
▁ለምርመራ	-11.5609
▁ማሰ	-11.5609
▁ልምዶች	-11.5618
▁አጋጣሚውን	-11.5619
▁አዘጋጅቷል	-11.5619
▁ያደርጋቸዋል	-11.562
▁ክፍላችን	-11.562
▁ተረጋግጦ	-11.562
▁ቀርፆ	-11.562
▁ሄዷል	-11.5621
▁አተኩሮ	-11.5621
▁ተጣርቶ	-11.5621
▁ትብብራቸው	-11.5621
▁እየተተገበረ	-11.5621
▁አውጭ	-11.5621
▁Substitution	-11.5621
▁እንደሚያካሂድ	-11.5621
▁እንደሚቀንስ	-11.5621
▁ሞተዋል	-11.5622
▁ይጠቅማል	-11.5622
▁መዳረጋቸው	-11.5622
▁ማሳተፍ	-11.5622
▁ያዳነበት	-11.5622
▁ለመጎብኘት	-11.5622
▁አጋሮቹ	-11.5623
▁አምርተው	-11.5624
▁long	-11.5624
▁ትእይንት	-11.5624
▁መገደል	-11.5625
▁Salahdin	-11.5625
▁down	-11.5625
▁ምቾት	-11.5625
▁የመዋቅር	-11.5625
▁እልህ	-11.5625
▁ሲከናወኑ	-11.5625
▁ስአት	-11.5626
▁የፌስ	-11.5626
▁በመቋቋም	-11.5626
▁የኢሚግሬሽን	-11.5627
▁መጨረስ	-11.5627
▁መታገል	-11.5628
▁ኢንጅነሪንግ	-11.5629
▁በመመሳጠር	-11.5629
▁በአንፃራዊነት	-11.5629
▁ክንፍ	-11.563
▁እድለኛ	-11.5631
▁ፌድሬሽኑ	-11.5632
▁ፍጥጫ	-11.5632
▁ሶርያ	-11.5632
▁ለማስለቀቅ	-11.5633
▁ተቆጣጣሪዎች	-11.5633
መልካም	-11.5634
▁የእራት	-11.5635
▁እንደሚያሳይ	-11.5635
▁ኤስፔራንስ	-11.5635
▁በየሳምንቱ	-11.5636
▁ትንሳኤ	-11.5636
▁ፈረቃ	-11.5638
▁የዴሞክራሲያዊ	-11.5639
▁የተፎካካሪ	-11.5639
▁ተመርቋል	-11.564
▁ተናግረዋልኢትዮጵያ	-11.5641
▁ከተጠቀሱት	-11.5642
▁ለማቋረጥ	-11.5642
▁ጌ	-11.5643
በእነዚህ	-11.5644
▁በመድረሱ	-11.5645
▁ከውስጥ	-11.5645
▁ለአዳማ	-11.5645
አርብ	-11.5646
▁የጀመረችው	-11.5646
ፕሮጀክቶቹ	-11.5646
▁እኩለ	-11.5647
▁በተከፈተው	-11.5648
በረ	-11.5648
▁ተረኛ	-11.5649
▁ከሚያዝያ	-11.5651
ችግሩን	-11.5651
▁see	-11.5652
▁ለቱሪዝም	-11.5653
▁ናቸውበ	-11.5653
ተጠባባቂዎች	-11.5653
2022	-11.5655
▁በለውጡ	-11.5658
▁የአርበኞች	-11.5658
ላግባብ	-11.5663
▁እንደገቡ	-11.5663
▁በደሴ	-11.5663
▁ማበርከቱን	-11.5665
▁ማስፈፀም	-11.5665
▁ለወደፊቱ	-11.5669
▁ያመጣው	-11.567
▁የኳታር	-11.567
▁ነውበዚህ	-11.5671
ጄኔራል	-11.5672
▁የተጠየቀው	-11.5672
ገነባ	-11.5675
▁ቆስለዋል	-11.5676
▁በሚጠበቀው	-11.5677
▁በባንኩ	-11.568
▁ከተገኘው	-11.5681
▁ልጃቸውን	-11.5682
▁ህይወትን	-11.5683
▁ዝምታ	-11.5685
▁ሹመቶችን	-11.5688
ለያይ	-11.5689
▁ሩ	-11.569
▁ጠቁመዋልበ	-11.569
▁መልቀቃቸውን	-11.5691
▁ስሜትን	-11.5693
አስተዳደሩ	-11.5695
▁አሽ	-11.5695
▁ከተለመደው	-11.5697
▁ቀር	-11.5699
▁ዜናዎች	-11.57
▁ድሬ	-11.5701
ተሰረዘው	-11.5702
▁የኢንስቲትዩቱ	-11.5704
▁ከከንቲባ	-11.5705
▁አድሷል	-11.5705
ሀላፊው	-11.5707
▁ተግዳሮቶችን	-11.5708
እለቱ	-11.5709
ድፍ	-11.5711
▁ተመራማሪው	-11.5713
ጅቡቲ	-11.5715
▁የደጋፊ	-11.5717
▁bas	-11.5718
▁ለሶማሊያ	-11.5719
ቴን	-11.5719
ነቷ	-11.5719
▁የእቃ	-11.5725
ሚከበረው	-11.5727
ሬት	-11.5727
▁ስድስተኛው	-11.573
▁የታጀበ	-11.573
▁የፓለቲካ	-11.5734
▁በፖሊሲ	-11.5739
▁ቀሪዎቹን	-11.5741
98	-11.5742
▁አምነው	-11.5742
▁አጋ	-11.5742
▁ያስታወቀ	-11.5745
▁ተቋሙን	-11.5748
▁የተጣለባቸውን	-11.5756
▁ሳራ	-11.5756
▁አለመቻላቸውን	-11.5763
▁የሚተገበር	-11.5766
▁ፕሬዝዳን	-11.5774
▁result	-11.5774
▁ፕ	-11.5776
▁ስልጣንን	-11.5777
▁early	-11.5779
▁ባይታወቅም	-11.5779
▁ተነጋግረዋል	-11.5779
▁ይፈፀማል	-11.5779
▁መቀበያ	-11.5779
▁ቶኪዮ	-11.5779
▁ለሚሰማሩ	-11.5779
▁ማስተዳደር	-11.5779
▁መቅረቱ	-11.5779
▁ተቀጥረው	-11.578
▁ለተወሰነ	-11.578
▁እስኪጠናቀቅ	-11.5781
▁አውጥቶበታል	-11.5781
▁ነዋሪዎችም	-11.5781
▁በመመልመል	-11.5781
▁ውሸት	-11.5781
▁ሚልኪያስ	-11.5782
▁ዩሱፍ	-11.5782
▁K	-11.5783
▁የኤክሳይዝ	-11.5783
▁የሚያደርስ	-11.5784
መደረግ	-11.5784
▁አስጨናቂ	-11.5784
▁የመሸጫ	-11.5784
▁chances	-11.5784
ደርሶ	-11.5784
▁ለመዝጋት	-11.5784
▁እንዲይዝ	-11.5785
▁በማስረጃ	-11.5785
▁በማጣራት	-11.5785
መቱ	-11.5786
▁ሸለቆ	-11.5786
▁ኢታማ	-11.5787
ፕሮግራሙ	-11.5787
▁የመግባት	-11.5787
▁ኡስታዝ	-11.5787
▁የህገመንግስት	-11.5788
▁ሊያመጣ	-11.5788
▁ለቻይና	-11.5789
▁መዘጋት	-11.5789
▁4231	-11.5789
▁በመገናኘት	-11.579
▁በመመርመር	-11.579
ከሰሞኑ	-11.579
ሷል	-11.579
▁ያፀደቀው	-11.579
▁እየደረሰባቸው	-11.5791
▁ለማዳመጥ	-11.5791
ገለፁት	-11.5791
▁ከሀምሳ	-11.5792
▁ታክሲዎች	-11.5792
▁ሆንግ	-11.5793
▁ለማህበረሰቡ	-11.5793
▁ካሱ	-11.5793
▁ቢራራ	-11.5794
▁የምንፈልገውን	-11.5795
▁ብሪታኒያ	-11.5795
▁አፀፋ	-11.5795
ቀሪዎቹ	-11.5795
▁የተፈራረሙት	-11.5796
▁ሁመራ	-11.5796
▁የሚያስችላቸው	-11.5796
▁ፈጣኑ	-11.5797
▁ከደረሰባቸው	-11.5798
▁ከመድረሱ	-11.5798
ፕሬዚደንት	-11.5799
▁የፊርማ	-11.5799
▁ለታ	-11.58
▁ዋን	-11.58
ግብፁ	-11.5801
▁ለንባብ	-11.5801
▁ያመጣል	-11.5802
▁የወረደ	-11.5802
▁በዴሞክራሲያዊ	-11.5803
▁ቅደም	-11.5804
▁የማይታወቅ	-11.5804
▁አሰራሩ	-11.5805
▁በቀረበ	-11.5807
▁የበዛበት	-11.5807
▁የቻምፒየን	-11.5808
▁የተሰማሩት	-11.5808
▁እርሳቸውም	-11.5809
▁አስበን	-11.5809
▁ያስመዘገበችው	-11.5811
▁ምርታቸውን	-11.5812
▁መሳተፋቸው	-11.5816
▁የሚያገኘው	-11.5816
▁being	-11.5817
▁እንደሌለም	-11.5818
▁ምልመላ	-11.5819
▁የሚጠቀሙበት	-11.582
▁ጉዞውን	-11.582
ያም	-11.5823
ሰማ	-11.5823
ላቸዉ	-11.5827
▁ለሲዳማ	-11.5827
▁የአለምን	-11.583
▁ቆመው	-11.5831
▁ቦኮ	-11.5831
▁እንዳልተ	-11.5831
▁እንደሚያገኙ	-11.5833
▁አንድምታ	-11.5833
▁እንዳስ	-11.5835
▁መሰረዙን	-11.5838
able	-11.5838
▁የአህጉሪቱ	-11.5845
▁በአሶሳ	-11.5849
▁በተካሄደበት	-11.585
▁መሆናችንን	-11.5851
የዘንድሮው	-11.5851
▁ርእሳ	-11.5852
የኦሮሞ	-11.5854
የኢህአዴግ	-11.586
head	-11.5861
▁የታዩት	-11.5863
▁ከምክትል	-11.5865
ንጌላ	-11.5865
▁ከራስ	-11.5869
▁ቀንሶ	-11.587
▁ለጥቃቱ	-11.5874
መስቀል	-11.5875
▁114	-11.5875
▁መሄዱን	-11.5877
ቱሪዝም	-11.5881
et	-11.5887
▁ህጋዊነት	-11.5889
ረታ	-11.589
ረዋል	-11.589
በመርሀ	-11.5897
ራቸውን	-11.5897
▁ለእረፍት	-11.5898
▁ማንንም	-11.5902
ፊያ	-11.5904
▁ለአስራ	-11.5904
▁እየፈፀመ	-11.5905
▁መቋጫ	-11.5907
ተጠረጠሩበት	-11.5908
▁ፉ	-11.5909
▁አያሌ	-11.5909
ሰብ	-11.591
▁የኖሩ	-11.5911
▁በፕሮግራሙ	-11.5912
▁ተናግረዋልየኢትዮጵያ	-11.5918
▁ጅ	-11.5919
▁ላበረከቱ	-11.5923
በሰሜን	-11.5924
▁መተላለፊያ	-11.5927
▁ያደርጉ	-11.5928
▁የተጠቁ	-11.5928
ፉት	-11.5931
▁ተቀባይ	-11.5932
▁ያገኘናቸውን	-11.5932
▁chance	-11.5936
▁መስርቶ	-11.5937
▁ትንኮሳ	-11.5937
▁ያካሂዳል	-11.594
▁ድልድዮች	-11.594
▁ሽባባው	-11.594
▁said	-11.594
▁premi	-11.594
▁አስጠብቆ	-11.594
▁ቡታቆ	-11.594
▁ደመላሽ	-11.5941
▁ቆይተናል	-11.5941
▁ያትታል	-11.5941
▁የሚመክር	-11.5941
▁ኩሊባሊ	-11.5941
▁ተመርጠው	-11.5941
▁እንዲያከናውን	-11.5941
▁ኡሞ	-11.5941
▁ታግዘው	-11.5941
▁አረጋግጣለች	-11.5941
▁አሳማኝ	-11.5941
▁ደስተኞች	-11.5941
▁የስደት	-11.5942
▁ገዝተው	-11.5943
▁ለመታገል	-11.5944
▁ተንታኝ	-11.5944
▁መብዛት	-11.5944
▁ማሀበረሰቦች	-11.5944
ሪክ	-11.5944
▁አለመቻሉ	-11.5944
▁የመቀሌ	-11.5945
▁መጤ	-11.5945
▁አጫጭር	-11.5945
▁ወደነበረበት	-11.5945
▁ኬይታ	-11.5946
▁116	-11.5947
▁ገልፀውላቸዋል	-11.5948
▁ከመጠበቅ	-11.595
እግርኳስ	-11.595
▁ትብብርን	-11.595
▁ቸልተኝነት	-11.5951
▁የወሳኝ	-11.5952
▁የድንገተኛ	-11.5952
▁እንዳያችሁት	-11.5953
▁መዝጋት	-11.5953
▁ሲያቀርብ	-11.5954
▁በሞያሌ	-11.5955
▁የቀድሞዋ	-11.5957
▁ሂላል	-11.5958
▁አውቀው	-11.5958
▁ተከታዮቹ	-11.5958
▁ይገዙ	-11.5959
▁የድርጅት	-11.596
▁ለመጪው	-11.596
▁ነፍስ	-11.596
▁ከተነሱ	-11.596
▁አይነ	-11.5961
▁ያበረከቱት	-11.5962
▁ሩቅ	-11.5963
▁ከመገናኛ	-11.5963
▁በማዘመን	-11.5964
▁ፉክክሩ	-11.5964
▁ሳጅ	-11.5965
▁ወርልድ	-11.5965
▁ደንቦች	-11.5967
አየር	-11.5968
▁እንደተጠናቀቀ	-11.5968
ታየው	-11.5969
▁እያዩ	-11.5969
▁የምድር	-11.5969
ቡድናቸው	-11.5973
▁ተሰላፊነት	-11.5973
▁መስህብ	-11.5974
▁ከሯንዳ	-11.5974
▁በማሳ	-11.5974
▁ፕሮፌሽናል	-11.5974
▁ናችሁ	-11.5975
▁ፕሪንስ	-11.5977
▁92011	-11.5978
M	-11.5978
▁ከጀመረበት	-11.5978
▁መገባቱን	-11.5979
▁እየገነባ	-11.598
▁ፅዳት	-11.5981
ጣል	-11.5981
▁መጠየቁ	-11.5981
ነሰ	-11.5982
▁ጎር	-11.5983
▁ፊቱን	-11.5985
▁በታዛቢነት	-11.5985
▁ቦታቸው	-11.5986
▁ግድያዎች	-11.5986
▁የጠየቀ	-11.5988
በሚኒስቴሩ	-11.5988
▁የሚጫወቱት	-11.599
ይዝ	-11.5991
አሁንም	-11.6
▁እንደማያ	-11.6002
▁እየሄዱ	-11.6004
▁በቅደም	-11.6005
▁የትዊተር	-11.6007
▁ኑሯቸውን	-11.6008
▁አትክልትና	-11.601
▁በጥልቅ	-11.601
▁የፀጥታና	-11.6012
▁መጣሉን	-11.6014
▁ከአል	-11.6015
▁የፀና	-11.6015
▁Nigeria	-11.6017
▁ማኒ	-11.6022
▁የቀረ	-11.6032
▁በሚገኝበት	-11.6033
▁ሎ	-11.6033
ርፍ	-11.6035
ሮቹ	-11.6037
በቀል	-11.6038
▁ድሎችን	-11.6038
ተስፋዬ	-11.6041
2025	-11.6045
▁አስተምህሮ	-11.6046
▁እንደጀመረ	-11.6048
▁ከሙስና	-11.6049
▁አሉን	-11.6053
▁ገልፀዋልበኢትዮጵያ	-11.6053
▁የአባይን	-11.6055
ኞቹ	-11.6057
▁ማዶ	-11.6057
▁ተሰብስቧል	-11.6059
130	-11.6061
▁ኢትዮጵያዊት	-11.6063
▁አለብኝ	-11.6065
▁የተባሉትን	-11.6075
▁ሜዳልያ	-11.6076
የፅህፈት	-11.6077
▁ለኢንዱስትሪ	-11.6081
ነን	-11.6082
ርሶ	-11.6086
▁ተጎጂዎችን	-11.6087
▁መስሎ	-11.6088
▁ጥያቄም	-11.609
▁አስፈርመዋል	-11.6092
▁ስምና	-11.6094
▁መሳርያ	-11.6097
▁መስዋእት	-11.6099
▁የሲ	-11.61
▁ኩነቶች	-11.61
▁ከእግር	-11.6101
▁እንዲቀጣ	-11.6102
▁አግቢ	-11.6103
▁አውድ	-11.6104
▁Confederation	-11.6104
▁ሽንኩርት	-11.6104
▁ሽጉጥ	-11.6104
▁ገብረኪዳን	-11.6104
▁ኪዳነ	-11.6104
▁ያስፈልገዋል	-11.6104
▁ሙራንዳ	-11.6104
▁አይደለችም	-11.6104
▁ጀምራለች	-11.6104
▁ተቋቁሟል	-11.6105
▁past	-11.6105
▁በሚመስል	-11.6105
▁አጥጋቢ	-11.6105
ሳምንታት	-11.6105
▁በምትካቸው	-11.6105
▁እየተጠናከረ	-11.6105
▁እንዳያደርስ	-11.6105
▁ይጫኑ	-11.6105
▁ክንውኖች	-11.6106
▁ተግባቦት	-11.6106
more	-11.6106
▁እየተጠናቀቀ	-11.6106
▁ኤሊያስ	-11.6107
▁ለቀጠናው	-11.6107
▁መክፈት	-11.6107
▁ማፅዳት	-11.6108
▁የሚፈጥረው	-11.6108
▁ጎደል	-11.6108
▁ካሊፎርኒያ	-11.6109
▁ሳይሰጥ	-11.6109
▁የማሸነፊያ	-11.611
▁የማሻሻል	-11.611
▁እድሪስ	-11.6111
▁ፀጥታን	-11.6112
▁ኤሌክትሮኒክስ	-11.6112
▁መቁሰላቸው	-11.6112
▁እንቁላል	-11.6113
▁ዘማርያም	-11.6114
▁ነውእንደ	-11.6114
▁በአይነቱ	-11.6114
▁የቆሻሻ	-11.6115
▁በያዘው	-11.6115
▁ከባህል	-11.6115
▁ለማርገብ	-11.6116
▁ዶክተሩ	-11.6116
▁ምርቶቻቸውን	-11.6117
▁ተነሺዎች	-11.6117
▁ካቶሊካዊ	-11.6118
▁ለክልል	-11.6121
▁ሺዴ	-11.6121
▁ጀማሪ	-11.6121
▁ዋሻ	-11.6121
ትስ	-11.6121
▁ሲነሱ	-11.6122
▁የዘላቂ	-11.6122
▁የተናገረው	-11.6122
▁የሚፈልገው	-11.6123
ዲሴ	-11.6124
▁ሀብተ	-11.6125
▁አባዲ	-11.6126
▁ሀሪሰን	-11.6126
▁የመሰረተው	-11.6126
▁የነቃ	-11.6128
▁የጋሞ	-11.6128
▁መስተንግዶ	-11.6129
▁በገቡት	-11.613
ቹን	-11.6132
▁ዋጋቸው	-11.6133
▁ግንኙነቶችን	-11.6137
▁እንደደረሱ	-11.614
ፊፋ	-11.6143
▁እንሞክራለን	-11.6145
▁ማስተላለፋቸውን	-11.6146
▁ከጋና	-11.6147
▁የሞከሩ	-11.6149
▁ሚስጥር	-11.6149
▁በመለገስ	-11.615
▁አውጥተዋል	-11.6153
▁ወደቦች	-11.6154
▁አያና	-11.6154
▁የሚያቀርቡት	-11.6155
▁ለሰራዊቱ	-11.6156
till	-11.6158
▁ድራማ	-11.616
▁የፈረንሳዩ	-11.6162
▁መመለሱ	-11.6162
▁ለፕሬዚዳንት	-11.6164
▁በቋሚ	-11.6166
▁ተቀይ	-11.6166
▁ቁጭት	-11.6167
ተከታታይ	-11.6167
ገለፅ	-11.6168
▁እነርሱም	-11.6172
▁ስላል	-11.618
▁ከኢህአዴግ	-11.6191
ተከሰተው	-11.6192
ተስ	-11.6196
▁ፈቱ	-11.6201
ሶስት	-11.6202
▁በምረቃ	-11.6205
▁እያለው	-11.6206
በስብሰባው	-11.6206
▁አስጀምረዋል	-11.6209
▁መመስረቱን	-11.6211
ሽልማቱ	-11.6211
▁እንደወትሮ	-11.6211
▁በስተ	-11.6212
▁ዋች	-11.6212
▁የነበሩና	-11.6216
▁መሳሪያው	-11.6217
▁በውሳኔው	-11.6221
በል	-11.6222
▁አጥፊ	-11.6222
▁ከማንም	-11.6225
▁ዋል	-11.6226
የዛሬው	-11.6226
▁ሳይጠቀሙ	-11.6232
▁በመደበኛው	-11.6232
በምድብ	-11.6232
▁ሳምንቱ	-11.6233
ረዳ	-11.6234
▁የክትትልና	-11.6234
▁የጥቃቱ	-11.6234
▁በብልፅግና	-11.6236
በምክትል	-11.6239
▁መግለጫውን	-11.6239
▁አክብሮ	-11.6243
▁us	-11.6245
ሀዲያ	-11.6248
▁በመሰለፍ	-11.625
▁am	-11.625
▁የሚወሰድ	-11.6251
▁ተረክቧል	-11.6252
▁ካም	-11.6254
▁የሚይዝ	-11.6262
▁የተሰበሰበ	-11.6265
▁defeat	-11.6266
▁ጣቢያዎችን	-11.6266
▁የሚታዩት	-11.6266
ያገግሙ	-11.6269
ረዳት	-11.6269
▁ምእራፎች	-11.6271
ጊዮርጊሱ	-11.6271
▁country	-11.6271
▁ተሸጋግሯል	-11.6271
▁አያስፈልግም	-11.6271
▁እንደመሆናቸው	-11.6271
▁ይሰጣቸዋል	-11.6271
▁ኦፊሰር	-11.6271
▁ሲያከብር	-11.6271
▁በመመካከር	-11.6271
▁ካልቻሉ	-11.6271
▁ተዘጋጅተናል	-11.6271
▁ተመድበው	-11.6271
▁እንዲፈፅሙ	-11.6271
▁ተገንብቶ	-11.6272
▁አድናቆታቸውን	-11.6272
▁ይሄዳል	-11.6272
▁ተጥሎበታል	-11.6272
▁ጨርቃ	-11.6272
▁ይመራሉ	-11.6273
▁የኦሞ	-11.6273
▁በቅንነት	-11.6273
▁ባየህ	-11.6274
▁አብረዋቸው	-11.6274
▁ሲፈጠር	-11.6274
▁አልበኝነት	-11.6275
▁ጥቂቶቹ	-11.6276
▁ቱሪስት	-11.6276
▁ለአገራችን	-11.6276
▁የማይባሉ	-11.6276
▁ቢያገኝ	-11.6277
▁ወገኖቻችን	-11.6277
▁እቅዶችን	-11.6277
▁ተዋንያን	-11.6277
▁ከሀረሪ	-11.6277
▁ብስክሌት	-11.6278
▁ፌዴራሊስት	-11.6278
▁የሸማቾች	-11.6279
▁በመዘዋወር	-11.6279
▁ታሪኮች	-11.6279
▁ምርምሮች	-11.6279
▁በሄክታር	-11.628
▁በእርግጠኝነት	-11.628
▁ለብሪ	-11.6281
▁ሴናፍ	-11.6281
▁ማካተት	-11.6282
▁የኢንሹራንስ	-11.6282
▁የከርሰ	-11.6282
▁ሱቅ	-11.6282
▁የትንሳኤ	-11.6282
▁በህገመንግስቱ	-11.6283
▁ቡርኪና	-11.6283
▁ለማስወጣት	-11.6284
▁አስታውቅዋል	-11.6284
ሲስ	-11.6285
▁ከትውልድ	-11.6285
▁የመሪነት	-11.6286
▁ሳምንታዊ	-11.6286
▁መዳከም	-11.6286
▁ትረስት	-11.6286
▁ሰሊጥ	-11.6287
▁ማላዊ	-11.6289
▁ተቃውሞዎች	-11.6289
▁የሶማልያ	-11.6289
▁ሲገባቸው	-11.629
▁et	-11.629
▁ሚዲያና	-11.629
▁የተነሳውን	-11.6291
▁አፅድቆታል	-11.6291
▁መጨመሩ	-11.6292
▁ተቀብላ	-11.6294
▁በቆሎ	-11.6295
▁የክረምቱ	-11.6295
▁ፊልሙ	-11.6296
▁ሽግግሩ	-11.6296
▁ከጋምቤላ	-11.6297
▁እንግድነት	-11.6298
▁ፍላጎታቸውን	-11.6298
▁ፍላጎትን	-11.6299
▁መዋሉ	-11.6299
የከተማዋ	-11.6299
ሊግ	-11.6299
▁የብሪታኒያ	-11.63
▁የሚያከናውነው	-11.63
▁እንደሚገኝና	-11.6302
▁ኢትዮጵያዊቷ	-11.6306
▁በሀብረተሰቡ	-11.6306
▁በወጡ	-11.6309
▁ፓርቲዎችና	-11.6309
▁ውይይታቸው	-11.6309
▁Nation	-11.631
▁ቀድሞው	-11.6312
▁ሞልቶ	-11.6314
▁ክስተቱ	-11.6318
▁ለሌሎችም	-11.6318
▁የሚፈለገው	-11.6319
▁በሂደቱ	-11.6321
▁ለማንኛውም	-11.6321
▁ናይጀሪያ	-11.6321
▁ሀይማኖትን	-11.6322
ባዶ	-11.6322
▁የተመረጠው	-11.6323
▁እየደረሱ	-11.6323
ይን	-11.6325
ethe	-11.6329
ስማማ	-11.633
▁በመግባቱ	-11.633
ጠጡ	-11.6331
▁ያለንበት	-11.6333
▁በመግባባት	-11.6335
▁ታየ	-11.6339
▁የሚያሳዩት	-11.6345
▁ውይይትም	-11.6347
ዳረጉ	-11.6347
▁የፌደራሉ	-11.6349
▁የተጫዋቹ	-11.6349
ዥ	-11.6349
▁የቀጠለው	-11.6353
▁በተጀመረ	-11.6356
comments	-11.6357
ኮሚሽነር	-11.6357
▁በተገኙ	-11.6358
▁የተቋሙን	-11.6359
▁ከሚለው	-11.636
ገነቡ	-11.6364
▁ምእራባዊ	-11.6364
▁አጥቂዎቹ	-11.6367
ዳት	-11.637
ነሀሴ	-11.6376
▁ከምን	-11.638
▁በህብረቱ	-11.6383
▁በካናዳ	-11.6383
▁ፍቅርን	-11.6385
▁ይደርስ	-11.6388
▁እያስመዘገበ	-11.6389
2030	-11.6391
▁ጠሚ	-11.6398
ፃ	-11.6399
▁ባህሉን	-11.6402
▁ሙከራው	-11.6404
▁ማሽኖችን	-11.6404
▁ጋዜጣው	-11.6405
ዳል	-11.6405
የውይይቱ	-11.6411
▁አምስተኛው	-11.6415
▁እንደሚፈፀም	-11.6415
▁ከተደረጉ	-11.6419
ቅድስት	-11.6425
▁አድራጊ	-11.6428
አውሮፕላኑ	-11.6428
▁ለዛ	-11.6428
▁ፖሊ	-11.6429
▁ተቋርጧል	-11.6437
▁ሜይ	-11.6439
ሴይ	-11.644
አስቸኳይ	-11.644
መብለጥ	-11.6441
▁ቀራኒዮ	-11.6441
▁እርከኖች	-11.6441
▁ዳግመኛ	-11.6441
▁ሪፖብሊክ	-11.6441
▁ያካትታል	-11.6441
▁ተሺታ	-11.6441
▁አይኖረውም	-11.6441
▁ኪንግደም	-11.6441
▁ያከናውናል	-11.6441
▁better	-11.6441
▁አቅርባለች	-11.6441
▁ያስፈለገው	-11.6441
▁ወኪሎች	-11.6441
▁ታስረዋል	-11.6441
▁ደርሰናል	-11.6441
▁ተዳምሮ	-11.6441
▁መርዳት	-11.6441
▁እንዲቀመጡ	-11.6441
▁መፈተሽ	-11.6442
▁ያሏት	-11.6442
▁ለማሳተፍ	-11.6442
▁ትርክቶች	-11.6443
▁እያጋጠሙ	-11.6443
▁በብርቱ	-11.6443
▁ሲታወስ	-11.6443
▁እንዲገኙ	-11.6443
▁ለስፖርቱ	-11.6443
▁አግልግሎት	-11.6444
▁ለመማር	-11.6444
▁እያገለገለ	-11.6445
▁መከፈት	-11.6445
▁መጠናቀቂያ	-11.6445
▁እንችል	-11.6446
▁ለማብቃት	-11.6446
▁የአስፓልት	-11.6446
▁የጎሳ	-11.6447
▁አስማማው	-11.6447
▁ቁጥሮች	-11.6447
ሺያ	-11.6448
በስተጀርባ	-11.6448
▁ended	-11.6448
▁ሰመራ	-11.6449
▁ከፈጣሪ	-11.6449
▁አስፈፃሚነት	-11.6449
▁መስተዳደሩ	-11.6449
▁ሀረሪ	-11.6449
▁ባህሎች	-11.6449
▁አስበው	-11.645
▁ተጫዋችነት	-11.645
▁ማስተማሩ	-11.645
ጉምሩክ	-11.645
▁የስኬት	-11.6451
በናትናኤል	-11.6451
ችም	-11.6451
▁ሚሊሻዎች	-11.6452
▁የረድኤት	-11.6452
▁መፃፍ	-11.6452
▁የመግዛት	-11.6452
▁ስሌት	-11.6452
▁የምገባ	-11.6452
▁በጎበኙበት	-11.6452
▁ነበረብን	-11.6452
▁ያገኘናቸው	-11.6453
▁ለውስጥ	-11.6454
▁አውቶቡሶች	-11.6454
▁ለእያንዳንዳቸው	-11.6454
▁ስታትስቲክስ	-11.6455
▁የማስፋት	-11.6455
▁የማፍረስ	-11.6456
▁ፈንዱ	-11.6456
▁ተቀራራቢ	-11.6456
▁ስላለባቸው	-11.6457
▁ስሞሀ	-11.6457
▁ሙሌቱ	-11.6458
▁ጌዴኦ	-11.6459
▁የንፋስ	-11.6459
▁ስሙን	-11.646
የአየር	-11.646
▁በራሳችን	-11.6461
▁በቂርቆስ	-11.6462
▁የራያ	-11.6462
▁ማድረጓ	-11.6463
▁በመሪነት	-11.6465
▁ወንድማማችነት	-11.6466
▁ባሳተፈ	-11.6467
▁የቀዶ	-11.6467
▁ማሳለፉ	-11.6467
ውጤት	-11.6468
▁ለስፖርት	-11.6468
▁face	-11.6469
▁ከማህበረሰቡ	-11.6469
▁ዋለ	-11.6471
ንዳ	-11.6473
▁ይሰራ	-11.6475
▁የመራው	-11.6476
▁ቅርሱ	-11.6478
▁በመቆጠብ	-11.6478
▁መኪናዎች	-11.6479
▁የተቀላቀሉት	-11.6479
▁አስቆጥራለች	-11.648
▁የማር	-11.648
▁መቃብር	-11.6481
ፌደራሉ	-11.6483
▁ጀልባ	-11.6485
▁እዛው	-11.6486
▁ውህደቱ	-11.6487
▁152011	-11.6487
▁ሊመጣ	-11.6488
▁የገጠማቸው	-11.649
▁የሴቶችና	-11.6491
ግብረ	-11.6491
▁አፈፃፀሙን	-11.6494
▁ገዳም	-11.6497
ውያኑ	-11.65
▁ተመለከተ	-11.6501
▁ከብት	-11.6501
▁በዚ	-11.6502
▁103	-11.6502
▁ለማሰብ	-11.6506
▁ያጡት	-11.6506
ስቲክ	-11.6508
▁should	-11.6514
ሊያ	-11.6515
▁የሰራውን	-11.6516
▁አልፎም	-11.6519
▁እየገነባች	-11.652
▁ወዳለ	-11.6525
▁አሜሪካዊው	-11.6525
▁በአራቱ	-11.6526
▁ግሪን	-11.6527
▁ፈጣንና	-11.6529
▁መታ	-11.6531
▁እንዲሰጥበት	-11.6533
▁መሰራታቸውን	-11.6533
1998	-11.6536
▁ቢሰራ	-11.6543
▁ወዳ	-11.6543
▁190	-11.6543
▁መዳ	-11.6545
▁ፋብሪካዎቹ	-11.6545
በዞኑ	-11.6553
▁ከተነሳ	-11.6557
▁አራዝሟል	-11.6562
▁ዜጎቿን	-11.6566
▁ፓርቲውን	-11.6566
▁መራዘሙን	-11.6571
▁የተዋቀረ	-11.6573
▁የእረፍት	-11.6573
▁እደ	-11.6574
▁ነህ	-11.6576
ነትና	-11.6578
▁የሚገልፁ	-11.658
በው	-11.658
▁ደንና	-11.6582
▁የሚከሰት	-11.6585
▁መብቱን	-11.6588
▁የሚፈቅድ	-11.6591
ጊዜ	-11.6595
▁መሳ	-11.6596
▁ኦል	-11.6596
▁ቢልም	-11.6599
ነታችን	-11.66
በኮሮናቫይረስ	-11.6603
▁ደጃ	-11.6603
▁የሚገለፅ	-11.6605
▁ውሎው	-11.6606
▁ዘገባዎችን	-11.6606
▁1130	-11.6608
▁በሞሮኮ	-11.6608
▁ይረዳ	-11.661
▁እንደነበሩም	-11.661
ምበር	-11.661
▁player	-11.661
▁ተወያይተው	-11.6612
ualify	-11.6613
▁Abebe	-11.6613
▁ሚደቅሳ	-11.6613
▁አስረክቧል	-11.6613
▁ትሆናለች	-11.6613
▁ዘግናኝ	-11.6613
▁ተረክበው	-11.6613
▁አድጓል	-11.6613
▁ጥገኛ	-11.6613
▁ከማረጋገጥ	-11.6613
▁Out	-11.6613
ደገፍ	-11.6613
▁ተግባሮች	-11.6613
▁ሳያገኙ	-11.6613
▁እንዲያከብር	-11.6613
▁እንደሚያከናውን	-11.6613
▁እንደሚሸፍን	-11.6613
▁ትዳር	-11.6614
▁ሀምዳ	-11.6614
▁የእህል	-11.6614
▁ሳይኖራቸው	-11.6615
▁ቭላድሚር	-11.6615
▁ኮምዩኒኬሽን	-11.6615
▁በሰጡበት	-11.6615
▁ወዳጄ	-11.6615
▁ፍሬያማ	-11.6615
▁ሊጀመር	-11.6616
▁አፈታት	-11.6616
▁እችላለሁ	-11.6616
▁ለማስገንባት	-11.6617
▁በአማካኝ	-11.6617
▁በርቀቱ	-11.6617
▁እስከመጨረሻው	-11.6617
▁እንዲገነቡ	-11.6617
▁need	-11.6617
▁ለማበርከት	-11.6618
▁ትሪቡን	-11.6618
መለከት	-11.6618
▁ለጉብኝት	-11.6618
▁ስለሚሆን	-11.6618
▁በፈቃደኝነት	-11.6618
▁ባገኙት	-11.6618
▁ሲገናኙ	-11.6619
▁የሚያስቆጭ	-11.6619
▁አፈፃፀማቸው	-11.6619
▁አንዷለም	-11.6619
▁ሊቆም	-11.662
▁ሎሚ	-11.662
▁ችሎቶች	-11.662
▁ፅናት	-11.662
▁ፌደራላዊ	-11.6621
▁እንዲገነባ	-11.6621
▁ፊንፊኔ	-11.6621
▁እንደቆዩ	-11.6621
▁እንደቻሉ	-11.6621
▁ሲዘጋጅ	-11.6622
▁አብዱልአዚዝ	-11.6622
▁ቀጥለው	-11.6622
▁ቻምፒዮኑ	-11.6623
▁የአትክልትና	-11.6623
▁የተወለደው	-11.6623
▁በመከላከሉ	-11.6623
▁ባሁኑ	-11.6624
▁ቀዝቃዛ	-11.6624
▁ለማስታወስ	-11.6624
▁ቀብር	-11.6625
▁መቀራረብ	-11.6625
▁ግኝቶች	-11.6625
▁በደጋፊዎች	-11.6625
▁ተከታትለው	-11.6626
▁ከትራንስፖርት	-11.6627
እንደዚህ	-11.6628
▁ላውረን	-11.6628
▁እድላቸው	-11.6628
▁ከመስራት	-11.6629
▁ሁነት	-11.6629
▁የሚበልጥ	-11.6629
▁ዘጠኙ	-11.6629
▁የአባላት	-11.6629
▁ሰላጤው	-11.663
▁የጥሬ	-11.663
▁ደህንነታቸው	-11.663
▁ስንዴን	-11.663
▁ንግስት	-11.6631
የክለቡ	-11.6631
▁ዊትስ	-11.6632
▁ልቀት	-11.6632
▁የምሁራን	-11.6632
በርሀ	-11.6632
▁ከእንግዲህ	-11.6633
▁የፍተሻ	-11.6633
▁ለትራፊክ	-11.6633
▁ፈራሚዎች	-11.6633
ዋች	-11.6634
▁ህመሙ	-11.6635
▁የተጓዘው	-11.6635
▁በሽብርተኝነት	-11.6635
▁የሚቀረው	-11.6635
▁2021	-11.6636
▁ማሳየቱ	-11.6637
▁አድራሻቸው	-11.6639
▁ሙኒክ	-11.6639
▁የማታ	-11.6639
▁ፓወር	-11.664
▁አማካሪው	-11.664
▁እንደሚታይ	-11.664
▁ጨለማ	-11.664
▁የሚቀርበው	-11.6641
▁ቴክኒካዊ	-11.6641
▁ጥቅሙ	-11.6642
▁ፈንጂ	-11.6642
▁የኦሮምያ	-11.6643
▁የተካተቱበት	-11.6643
ሬሳ	-11.6644
ሎዲ	-11.6644
▁የታየባቸው	-11.6644
▁አለምነህ	-11.6645
ሩት	-11.6646
ገዛ	-11.6646
▁የሰፋ	-11.6646
▁ልጁ	-11.6647
▁አለፍ	-11.6647
ቻችን	-11.6648
▁በአራዳ	-11.665
ጣራ	-11.665
▁ተጨዋቾቹ	-11.665
▁ጨርሰው	-11.6651
▁በተቀሰቀሰው	-11.6652
▁የኖረ	-11.6652
ህወሀት	-11.6653
ታላቁ	-11.6654
ማርያም	-11.6656
ተፈቀደላቸው	-11.6656
▁ተግ	-11.6657
▁ጥግ	-11.6658
▁የክትትል	-11.6659
▁እስካ	-11.6662
ጠየቅ	-11.6663
▁ኮሌጁ	-11.6666
▁ከወጣቶች	-11.6667
ሏል	-11.6667
▁ልምዳቸውን	-11.6668
▁62011	-11.6668
ኮሌራ	-11.6671
▁በተነሳው	-11.6672
▁ከወሰዱ	-11.6672
▁ጎማ	-11.6674
▁በአካባቢያቸው	-11.6676
ልህ	-11.6676
▁የቆይታ	-11.6676
ዋለሁ	-11.6679
▁ለወደፊት	-11.6682
▁የተወሰኑትን	-11.6684
ሆነ	-11.6684
▁የተመሰረተበት	-11.6685
350	-11.6685
ከአንድ	-11.6687
▁የተለዩት	-11.6688
▁ክልሎችም	-11.6689
▁ለሆኑት	-11.6696
ኝን	-11.6697
▁አስተ	-11.6699
መሸነፍ	-11.6701
▁ከኢትዮጵያውያን	-11.6705
ግማሽ	-11.6706
▁ከቀን	-11.6707
ኮከብ	-11.6708
ህልፈተ	-11.6709
▁ነበርኩ	-11.6709
መሰብሰቢያ	-11.6709
አላዛር	-11.6709
▁ውለታ	-11.671
1993	-11.671
▁108	-11.671
አንቀፅ	-11.671
▁የተከተለ	-11.671
▁ሊዝ	-11.671
0400	-11.6711
▁መውሰዳቸውን	-11.6711
ሀገር	-11.6713
▁የፈጀ	-11.6714
F	-11.6721
ተጓዳኝ	-11.6721
▁ሚሊ	-11.6722
ትሪክ	-11.6726
▁አጥቂነት	-11.6726
ዊያን	-11.6727
▁የዘመናዊ	-11.6729
▁ከመሰረቱ	-11.673
ፈታ	-11.6732
▁የተሻገረ	-11.6732
▁የሚደግፉ	-11.6733
▁ሞቱ	-11.6734
▁ድርጅቱን	-11.6734
ከአዲስ	-11.6736
የወጡ	-11.6737
▁ፈተናው	-11.6737
▁ሚሊዮኖች	-11.6737
▁ማሰራጨት	-11.6741
የአገሪቱ	-11.6742
▁ችቦ	-11.6742
ፀደቀው	-11.6744
የዘርፉ	-11.6746
▁የማት	-11.6746
ልዩ	-11.6748
▁የተጠረጠሩት	-11.6751
▁ወሪ	-11.6754
▁ተመረቀ	-11.6755
▁አዳ	-11.6758
▁አምኖ	-11.6764
▁ጥቅማ	-11.6764
▁ከፀደቀ	-11.6769
ውጪ	-11.6769
▁ይል	-11.6772
ዳግም	-11.6773
ህዳር	-11.6775
ያውያን	-11.6776
▁ካልቻለ	-11.6781
▁ብረታ	-11.6781
ጠፋ	-11.6784
▁ሄሱ	-11.6788
nited	-11.6788
▁ተሰግቷል	-11.6788
▁ወከባ	-11.6788
▁ይከናወናሉ	-11.6788
▁ያስችላቸዋል	-11.6788
▁የተገደበ	-11.6788
▁ያብራራል	-11.6788
▁ያወሱት	-11.6788
▁ጭቆና	-11.6788
▁ሁቴሳ	-11.6788
▁ከማቅረብ	-11.6788
▁ያፀድቃል	-11.6789
▁እየተገለፀ	-11.6789
▁እንዳስደሰታቸው	-11.6789
▁አስተላለፉ	-11.6789
▁አካቷል	-11.6789
▁ባደረጋቸው	-11.6789
▁እንዲይዙ	-11.6789
▁የሚያካትት	-11.6789
▁ያልተሳካ	-11.6789
▁ወራሽ	-11.6789
▁እየተፈጠሩ	-11.679
▁እንደምትደግፍ	-11.679
▁ለማነጋገር	-11.679
▁እያሰሙ	-11.679
▁ጠፍቶ	-11.6791
▁ኮማንደሩ	-11.6791
▁ባስተላለፈ	-11.6791
▁እንዲጎበኙ	-11.6792
▁Behailu	-11.6792
▁የሚያረጋግጡ	-11.6792
▁የሚንቀሳቀሰው	-11.6793
▁አንገብጋቢ	-11.6793
▁የወረቀት	-11.6794
▁የሚጠይቀውን	-11.6794
ማሩ	-11.6794
▁መተካት	-11.6795
▁ደባርቅ	-11.6795
▁መሾሙ	-11.6795
▁አውራጃ	-11.6795
▁ቤተክርስትያን	-11.6796
▁የእርድ	-11.6796
▁እንዲጀምር	-11.6796
▁ትሪፖሊ	-11.6796
▁እንደሚካሄዱ	-11.6796
▁እንደራሴዎች	-11.6797
▁ከፍቷል	-11.6797
▁በአሰቃቂ	-11.6797
▁በማግኘቱ	-11.6797
▁ሪቻርድ	-11.6798
▁ሶፍትዌር	-11.6798
▁አገልገሎት	-11.6799
▁Diredawa	-11.6799
▁እቅዳችን	-11.6799
▁ተቋራጩ	-11.6799
▁የሚገናኝ	-11.6799
▁ሊገኝ	-11.68
▁እያከናወነች	-11.68
▁አብዱላዚዝ	-11.68
▁በመደወል	-11.6801
▁የረዥም	-11.6801
▁በሚኒስቴር	-11.6802
▁አጥንት	-11.6802
▁ኮሚሽነሮች	-11.6803
▁መጠጦች	-11.6803
▁በማቀናጀት	-11.6803
▁በድረገፁ	-11.6803
▁ስታዲየሙ	-11.6804
▁ቀውሶች	-11.6804
▁እፅዋት	-11.6804
▁ማእቀፎች	-11.6804
▁አባቶቻችን	-11.6804
▁በካፒታል	-11.6805
▁በወልድያ	-11.6805
አድዋ	-11.6805
▁እየተሰማ	-11.6806
▁አለመቻላቸው	-11.6806
▁ኦዲንጋ	-11.6806
▁ጥሰው	-11.6807
▁አቅራቢዎቹ	-11.6807
▁አግኝተን	-11.6808
በሱዳን	-11.6808
▁ከቤታቸው	-11.6809
▁መምከራቸው	-11.6809
▁በአፍጋኒስታን	-11.6809
▁አበል	-11.6811
▁ሞራል	-11.6811
ባለስልጣን	-11.6811
▁ሲናገር	-11.6812
▁ተባይ	-11.6812
▁እራሱ	-11.6812
▁ቻድ	-11.6813
▁ብርታት	-11.6813
▁መደብ	-11.6814
▁የቅማንት	-11.6816
▁መዘርጋቱን	-11.6816
▁በሳይንሳዊ	-11.6817
▁እርሷ	-11.6817
▁ዚምባብዌ	-11.6817
▁የካንሰር	-11.6818
▁በመሪዎች	-11.6819
▁ከአገልግሎት	-11.682
[...]
